#version: 0.2
e n</w>
c h
e i
e r
e r</w>
i e</w>
u n
e n
c h</w>
a n
ei n
i e
d a
i s
a u
i n
i ch</w>
s t
d ie</w>
e s</w>
d er</w>
un d</w>
a l
s ch
t e</w>
i ch
g e
t en</w>
d en</w>
w i
e l
i n</w>
is t</w>
e h
t i
w a
v o
g en</w>
z u</w>
da s</w>
h a
b e
ei n</w>
ein e</w>
o r
m a
e m</w>
m i
wi r</w>
s s
b en</w>
o t
o n
h r
ie s
v er
s s</w>
r a
e t
o l
ich t</w>
U n
S ie</w>
b er</w>
q u
d ies
s ie</w>
vo n</w>
d er
u r
m m
qu ot
quot ;</w>
& quot;</w>
un g</w>
a r
n en</w>
d e</w>
f ü
ch en</w>
da ss</w>
n icht</w>
r o
u m</w>
i er
l ich</w>
g e</w>
mi t</w>
s o</w>
s a
Un d</w>
r e
t er
e u
g en
l en</w>
l e</w>
au f</w>
en n</w>
a n</w>
i t
ei t</w>
an n</w>
a s</w>
I ch</w>
wa s</w>
c k
in d</w>
w ie</w>
a t
s p
z u
fü r</w>
s ich</w>
l ich
w ei
G e
i l
s eh
s ind</w>
o n</w>
ha ben</w>
l e
ein en</w>
ö n
w er
ch e</w>
s t</w>
ch t</w>
S t
d e
al s</w>
d em</w>
wi r
en t
ma n</w>
wa r</w>
ä n
t er</w>
n a
l a
i g
W i
k ön
D as</w>
t e
f f
b er
S ch
k o
au s</w>
E s</w>
a hr
en sch
ein er</w>
r ei
b e</w>
v ie
et z
l ei
dies e</w>
w e
d en
i er</w>
ss en</w>
d es</w>
u r</w>
Wi r</w>
i m</w>
g t</w>
l i
ü ber</w>
d i
w enn</w>
A u
V er
s en</w>
ein em</w>
f t</w>
un s</w>
un s
b t</w>
ü r
st en</w>
au s
m en</w>
j e
o ch</w>
kön nen</w>
wer den</w>
I n
g i
o der</w>
ge h
an der
A l
un gen</w>
A r
P ro
ha t</w>
b r
an d</w>
au ch</w>
A n
i h
m p
g an
au f
u n</w>
t z
a ber</w>
B e
st el
ti on
i r
seh en</w>
el t</w>
A ber</w>
D ie</w>
uns er
k ann</w>
mm en</w>
f a
s e</w>
al l
m u
M ensch
E r
wa r
sch a
ti on</w>
h er
h al
n ur</w>
wir d</w>
t r
seh r</w>
R e
i mm
l an
b ei
J ahr
ier t</w>
ö r
i hr
ä h
ier en</w>
is chen</w>
b en
g a
g l
o h
ä r
Mensch en</w>
- -</w>
er n</w>
gi bt</w>
ch te</w>
h ier</w>
m ich</w>
r u
st e</w>
a h
l ie
w ur
be i</w>
a b
s ein</w>
p a
k t</w>
d ann</w>
L e
k en</w>
al so</w>
E n
l u
s u
vo r</w>
i s</w>
ol l
eu te</w>
M a
et was</w>
da r
d ur
n och</w>
E in
n e</w>
l t</w>
ha t
g r
i k
a m</w>
s el
m ö
g er
z ei
k l
f in
ä ch
eh r</w>
ha be</w>
te t</w>
der n</w>
mi r</w>
na ch</w>
dies er</w>
I h
m en
s o
f or
c k</w>
an d
l o
ü ber
S p
un g
is che</w>
W enn</w>
m ehr</w>
lich en</w>
g u
m e</w>
etz t</w>
ä u
vo r
wir k
w en
ich t
W elt</w>
al le</w>
lich e</w>
k eit</w>
st eh
ü ck
k on
w is
ro ß
g te</w>
f en</w>
w ür
s i
n te</w>
e ch
ma l</w>
a p
h in
au en</w>
al l</w>
i ge</w>
ich ti
ie s</w>
ma chen</w>
wur de</w>
sp ie
ko mmen</w>
h e
h eit</w>
a r</w>
N a
imm er</w>
Ih nen</w>
o p
o g
D in
k e</w>
ge b
k t
dur ch</w>
ein es</w>
m ü
G r
ie h
f t
z um</w>
s on
en d</w>
ü n
Ge sch
ein fa
m er
m eine</w>
n e
wirk lich</w>
h ei
n t</w>
t ra
wei l</w>
z en</w>
r ie
0 0</w>
gl au
T a
u l
u m
t un</w>
o b
d r
vie l</w>
d a</w>
Al so</w>
ch ten</w>
n eh
Z u
or t</w>
g roß
n eu
z i
ti v
un ter
ff en</w>
t ei
u tz
hat te</w>
sch ie
E r</w>
sa gen</w>
l er</w>
is ch</w>
e l</w>
unser e</w>
dies es</w>
ge f
ung s
W as</w>
r an
ä hr
t a
ä l
k en
k eine</w>
el n</w>
e ss
d u
L eute</w>
ihr e</w>
i g</w>
ä t</w>
Z eit</w>
ar bei
p er
mü ssen</w>
tion en</w>
F ra
ti er
vie le</w>
lei cht</w>
ma cht</w>
e k
D ies
w ie
K in
w el
dies em</w>
g in
war en</w>
sa gte</w>
Le ben</w>
ge w
Din ge</w>
o s
we i</w>
V or
ko mm
ge sch
dies en</w>
b l
n ten</w>
einfa ch</w>
wis sen</w>
i en</w>
Jahr en</w>
stel len</w>
B il
geh en</w>
mi t
p p
M il
K on
D e
fü hr
l er
w o</w>
un k
O r
g er</w>
ander e</w>
M u
g lei
b in</w>
ei gen
z wei</w>
j etzt</w>
is ch
er z
geh t</w>
eh r
W e
ander en</w>
t en
ih r</w>
D a
un den</w>
ge ben</w>
r i
b st</w>
W a
l leicht</w>
k a
s ol
I n</w>
de t</w>
z ur
Ar t</w>
f r
wi ck
fin den</w>
z e</w>
un d
all es</w>
wür de</w>
a tion</w>
l ung</w>
h o
Un ter
ß en</w>
ol og
neh men</w>
zu r</w>
ss er</w>
w är
steh en</w>
m o
D er</w>
En t
in ter
on en</w>
da mit</w>
in n
S a
ei t
st e
scha ft</w>
W ie</w>
al e</w>
a u</w>
s oll
fü h
T ei
Gesch ich
ü ck</w>
br au
I hr
pa ss
br in
l etz
a l</w>
b is</w>
f an
d eu
M e
a k
Jahr e</w>
o r</w>
d u</w>
Mil li
Au s
it ät</w>
hal ten</w>
W ei
m an
i gen</w>
el len</w>
M o
den ken</w>
d ies</w>
ö ß
f ra
B ei
mu ss</w>
f ol
at s
V ie
ä t
un der
F or
ech n
sa mm
ge l
sel bst</w>
m ei
gu t</w>
ver su
m ein</w>
ieh t</w>
s e
w or
l l</w>
sch n
ch t
o b</w>
w ichti
ga r</w>
sa gt</w>
sch on</w>
F a
o m
w oh
f ahr
d ung</w>
d enn</w>
äch lich</w>
M an</w>
D an
L a
St a
G eh
den en</w>
re i</w>
z en
ig er</w>
ensch a
ie m
ol len</w>
l in
st a
ih nen</w>
mö chte</w>
b ar
ti g</w>
vie lleicht</w>
wie der</w>
mö g
p ro
s etz
z e
f er
N un</w>
al en</w>
n en
la ssen</w>
ck en</w>
e x
I de
z w
gen d
W is
r ä
ei ten</w>
ats ächlich</w>
komm t</w>
l ä
da von</w>
T echn
h er</w>
na ch
hal b</w>
er e</w>
ss t</w>
t lich</w>
s en
el le</w>
Au f
sch ein
m ein
C o
gan z</w>
Bei spie
h eute</w>
w u
hat ten</w>
t o
wei se</w>
Geschich te</w>
sch en</w>
F r
el l</w>
S y
au m</w>
na h
at ür
men t</w>
e st
H ier</w>
K o
M it
In ter
t es</w>
le ben</w>
A b
sp re
Kin der</w>
os ;</w>
ap os;</w>
& apos;</w>
er t</w>
0 00</w>
ver b
ih n</w>
s enscha
ah r</w>
s ich
Dies e</w>
k an
n er</w>
h ör
ein ige</w>
än dern</w>
kön nte</w>
f e</w>
d ort</w>
brin gen</w>
w ollen</w>
w oll
o ff
än der
la r</w>
gr öß
m einer</w>
t ung</w>
G en
un ter</w>
B er
J ahr</w>
P er
lich keit</w>
G el
pa ar</w>
d rei</w>
wur den</w>
H er
F re
dar über</w>
n is</w>
t s
gen au</w>
U m
wer de</w>
wei ter
olog ie</w>
n un</w>
ga b</w>
en de</w>
r it
N e
st er</w>
au t</w>
bl em</w>
P a
g ra
z eu
son dern</w>
icht s</w>
ent wick
ir gend
ch er</w>
t atsächlich</w>
be sch
ra n</w>
ü h
un de</w>
St u
b eit</w>
st än
d an
is t
g ung</w>
ä d
unser er</w>
a de</w>
wa hr
ter n</w>
Beispie l</w>
Geh ir
utz en</w>
n ung</w>
ig keit</w>
Al s</w>
s eine</w>
ähr end</w>
zw ischen</w>
stel lt</w>
B u
ier te</w>
Pro blem</w>
samm en
Le ben
ti gen</w>
s y
vo l
wär e</w>
E in</w>
k am</w>
den ke</w>
f unk
i z
be st
Ge b
sa m
sch ei
or en</w>
d och</w>
vo m</w>
neu e</w>
h ät
Tei l</w>
ge macht</w>
st em</w>
be deu
ge st
er en</w>
m a</w>
atür lich</w>
M ar
Na ch
l ö
da zu</w>
erz äh
j a</w>
b ar</w>
M on
p h
ie l
g ten</w>
b il
z ieh
so gar</w>
scha ffen</w>
dur ch
wei ter</w>
k ein</w>
ne t</w>
s ste</w>
f ten</w>
1 9
wei ß</w>
H a
K a
en s
ü tz
ö ff
ver s
er n
inter ess
u t</w>
t el
Ge s
zei gen</w>
t re
ein z
ein mal</w>
Ta g</w>
s ieht</w>
n o
au p
funk tion
De s
glau be</w>
auf en</w>
al len</w>
S o</w>
ö h
en den</w>
D ies</w>
n ie</w>
al t</w>
ver schie
ger ade</w>
je m
m e
l au
2 0
oh ne</w>
n äch
k eiten</w>
Fra ge</w>
arbei ten</w>
er g
w a</w>
stel l
ck t</w>
S o
ss e</w>
en s</w>
in g
T o
we gen</w>
steh t</w>
st er
Wi r
al ten</w>
Sch u
n ichts</w>
T e
ihr en</w>
wür den</w>
p r
Fr auen</w>
S e
mer ik
her aus
er sten</w>
spre chen</w>
ken nen</w>
da für</w>
E x
h in</w>
s on</w>
wi ll</w>
z wei
uns er</w>
pass iert</w>
zur ück</w>
kon nte</w>
m in
D i
a g
zen t</w>
an t
eh en</w>
m ensch
m einen</w>
woh l</w>
ö l
ei te</w>
Ar beit</w>
W ar
Ein e</w>
Ü ber
ß t</w>
ver stehen</w>
r ichti
n is
st and</w>
je der</w>
ge s
sch w
mp u
er ste</w>
J e
h än
da ran</w>
f f</w>
Me di
w ährend</w>
b eh
Milli onen</w>
Ihr e</w>
k ra
for ma
b li
st ar
ier ung</w>
b le
et wa</w>
z ah
o o
ru pp
Pro zent</w>
st at
R ei
ko mp
W er
war um</w>
gin g</w>
un kt</w>
ti ge</w>
B i
i k</w>
l at
er st</w>
be g
& #
&# 9
h an
wa ch
t ter</w>
letz ten</w>
st r
Un i
G er
soll ten</w>
k ur
Ide e</w>
soll te</w>
l ü
te te</w>
be kommen</w>
F ü
S u
ge sehen</w>
k te</w>
M ö
S ti
fr ik
L and</w>
m einem</w>
ie l</w>
kön nten</w>
groß e</w>
te l</w>
mei sten</w>
imm t</w>
p f
lan g</w>
T he
z iem
St ra
M i
woll te</w>
ge gen</w>
gan ze</w>
ss er
setz en</w>
W el
W o
M et
son der
sp r
ä tz
zei gt</w>
k un
an der</w>
n atürlich</w>
be sser</w>
in s</w>
ihr er</w>
Wis senscha
In forma
wichti g</w>
ziem lich</w>
Co mpu
b auen</w>
ti k
lich er</w>
da bei</w>
h r</w>
Ma l</w>
s it
h under
M in
. 000</w>
i de
K re
sa mmen</w>
We g</w>
f lu
f te</w>
P r
mu s</w>
1 0</w>
o s</w>
glau b
ge l</w>
de s
Bil d</w>
P ar
ge t
d ig
K ör
w eit</w>
tier en</w>
ran k
Pro ble
el e
Pro je
al is
Wa sser</w>
f äl
brau chen</w>
sch lie
tiv e</w>
b in
ein ander</w>
dar auf</w>
Q u
isch er</w>
er rei
ti g
wen iger</w>
en en</w>
kl einen</w>
mög lich</w>
b a
Mö g
Gel d</w>
zu sammen</w>
D ol
wel che</w>
ma t
au ss
ä ter</w>
jem and</w>
ent r
En de</w>
M en
Da ten</w>
da chte</w>
geh ör
Fa mi
bedeu tet</w>
M an
Dan k</w>
di g</w>
Dol lar</w>
zur ück
ti k</w>
rei ben</w>
En erg
L ie
er st
unser en</w>
I m</w>
zu sammen
D ann</w>
sel l
s sten</w>
it u
Sa che</w>
Techn ologie</w>
h el
n or
a ten</w>
scha ft
gan is
p er</w>
v ier</w>
d t</w>
U S
M ann</w>
K ar
ver wen
War um</w>
tier t</w>
ti v</w>
sch le
h ol
Gehir n</w>
c e</w>
b is
An t
u s</w>
kl eine</w>
Au t
w in
d lich</w>
kun ft</w>
F lu
ih m</w>
. .</w>
i gen
Ih r</w>
S eite</w>
hör en</w>
t z</w>
fahr en</w>
at ur</w>
eigen tlich</w>
groß en</w>
M än
P lan
B o
ier e</w>
a m
Re g
h e</w>
T r
führ t</w>
m m</w>
5 0</w>
v öl
Uni vers
Des ig
ul t
ol le</w>
P ol
2 0</w>
l än
l es</w>
be sonder
a b</w>
G roß
führ en</w>
gen o
G l
D enn</w>
ich ten</w>
be gin
Wei se</w>
B r
. ..</w>
kl är
b st
di en</w>
G rupp
ge sagt</w>
wahr schein
li g</w>
Fra u</w>
Leben s
ß er
sa m</w>
t s</w>
ler nen</w>
L ei
i v
an z
gan zen</w>
s or
füh l</w>
interess an
inn er
F il
u g</w>
y p
ur en</w>
ß e</w>
R aum</w>
ch mal</w>
k einen</w>
S on
ol o
sch auen</w>
Gr und</w>
Men ge</w>
w under
versu chen</w>
s ch</w>
fü n
P h
Ent wick
e s
in g</w>
öff ent
je den</w>
ier ten</w>
g ro
sp ro
hät te</w>
R a
ver l
en z
ver k
glau ben</w>
a tionen</w>
K op
lich es</w>
Ge mein
or d
eit s</w>
sch wi
d ungen</w>
Per son</w>
Dan ke</w>
an ge
s k
stel lung</w>
ant wor
sp äter</w>
le gen</w>
G ra
vie len</w>
s er</w>
Vie len</w>
ff t</w>
lo s</w>
Zu kunft</w>
in e</w>
un glaub
su chen</w>
bei m</w>
so zi
st ru
l te</w>
sch la
Or t</w>
ter i
d ru
v i
er weise</w>
S in
al d</w>
en ten</w>
E le
f all
L ö
kon nten</w>
S el
D a</w>
sch e</w>
hei ßt</w>
eigen en</w>
b i
merik an
s eit</w>
k u
zei ch
sch ö
fa st</w>
H aus
Z ah
her aus</w>
al ität</w>
J a</w>
wen ig</w>
nis se</w>
lan g
funktion iert</w>
it te</w>
A frik
sp e
geno mmen</w>
J etzt</w>
lan ge</w>
Milli ar
K ind</w>
Sp ra
f e
at er</w>
Z eit
in dem</w>
wahrschein lich</w>
glei ch</w>
ge stellt</w>
ge mein
wel t
n utzen</w>
B et
sa h</w>
L u
Ge gen
D en
we g
m s</w>
Pro du
änder t</w>
l en
g rei
st an
ma r
P o
Er de</w>
e ten</w>
an zu
Mo ment</w>
Proble me</w>
tei l</w>
hel fen</w>
a t</w>
R o
V ide
o ft</w>
be tra
Ges und
sich er</w>
lie gt</w>
lie gen</w>
ha r
W ahr
mm e</w>
men te</w>
gu te</w>
en t</w>
W or
Ge sell
schn ell</w>
H and
je des</w>
vo lu
be ss
z in
P f
kt ur</w>
h and
Sy stem</w>
ge gen
Sta dt</w>
Ar bei
si k</w>
h en</w>
og ra
for der
s einer</w>
b ra
z t</w>
pr o</w>
isch es</w>
ff e</w>
ze p
fra gen</w>
D u</w>
u ten</w>
mm er</w>
spie len</w>
b lei
scha ften</w>
m als</w>
L ehr
E l
erzäh len</w>
b el
L eu
m ent
st o
j en
äh r</w>
z eh
m or
B a
ün st
gen ug</w>
gef ähr</w>
brau cht</w>
neu en</w>
den e</w>
pro du
n ä
unser em</w>
hei ten</w>
fün f</w>
g es</w>
f al
m is
m al
n iem
W oh
Ge w
F all</w>
K un
näch sten</w>
st ra
w ort</w>
ander s</w>
US A</w>
ck e</w>
beg ann</w>
g st</w>
D ar
ra cht</w>
tra gen</w>
Pa ti
gehör t</w>
Mu tter</w>
f re
ka y</w>
L in
Wis sen</w>
C hin
er inn
de ssen</w>
ch es</w>
er r
R ob
zieh en</w>
richti g</w>
je de</w>
i on</w>
P u
tion s
Compu ter</w>
glei chen</w>
F ot
w and
3 0</w>
For sch
un gefähr</w>
s er
gl ück
gr i
fan gen</w>
T E
tei len</w>
o ben</w>
wis senscha
gen d</w>
da u
w er</w>
et t</w>
Schu le</w>
Kör per</w>
F äh
tiv en</w>
le x
l ie</w>
f rei
bis schen</w>
Mi t</w>
stat t</w>
men s</w>
Leu ten</w>
äh n
we g</w>
sch i
Wir t
Pol i
gan g</w>
K rie
sa gten</w>
p ol
z entr
s einen</w>
h aup
Plan eten</w>
A t
se i</w>
Er fahr
f and</w>
sa tz</w>
l and</w>
Informa tionen</w>
t sch
be we
te ten</w>
ver ändern</w>
de l</w>
20 0
glei ch
be kan
Ide en</w>
re den</w>
M eine</w>
k re
Ex per
wir t
t ie
h ä
A k
er kennen</w>
M äd
über all</w>
K rank
lich keiten</w>
fin det</w>
ch en
en z</w>
entwick elt</w>
w äh
st ens</w>
z o
wie der
Energ ie</w>
m lich</w>
k er
schwi er
in nen</w>
utz t</w>
G ot
fall s</w>
el l
dar um</w>
ge sam
Fra gen</w>
Geb äu
ie ben</w>
au ßer
b o
er klär
R u
Fü r</w>
Proje kt</w>
Ant wort</w>
Milliar den</w>
k la
ihr em</w>
Dies es</w>
P unkt</w>
nen nen</w>
mu sste</w>
le b
tei l
O b
ob a
K ön
ka men</w>
ander es</w>
si on</w>
d ich</w>
arbei tet</w>
är e</w>
Afrik a</w>
1 00</w>
ber eits</w>
ent de
st u
nah men</w>
Jahr hunder
groß ar
Unter schie
eu ch</w>
H il
ma chte</w>
h ö
g ern</w>
B au
st ei
Ent schei
Mo d
Lö s
w o
s ech
K or
sp ra
b u
Sp ie
Män ner</w>
N ein</w>
ti gt</w>
y s
g s
s ei
hei ts
1 ;</w>
&#9 1;</w>
3 ;</w>
&#9 3;</w>
p o
errei chen</w>
For m</w>
Fami lie</w>
schn it
besonder s</w>
Min uten</w>
N atur</w>
vol l
j e</w>
gen au
i a</w>
h il
Mäd chen</w>
na mens</w>
m er</w>
Unter nehmen</w>
B ür
Ar ten</w>
verschie dene</w>
f est
sch au
dr ück
a te</w>
U r
hät ten</w>
best imm
N eu
L icht</w>
Grupp e</w>
wi l
M ein</w>
ben utzen</w>
Ne w</w>
s einem</w>
ger ne</w>
H o
er war
be vor</w>
t aus
dar in</w>
d s</w>
le sen</w>
f än
Rob ot
D o
Inter net</w>
t u
O der</w>
k lar</w>
F ol
Bu ch</w>
aus zu
gi en</w>
gew öh
k ä
D ur
st ütz
Vie lleicht</w>
F ar
ein igen</w>
Or ganis
b s</w>
Wel t
Gesell schaft</w>
t h
B lu
gl ob
N or
F ir
Au gen</w>
be ein
ig keiten</w>
Wei l</w>
K ult
Geschich ten</w>
et er</w>
P lat
H e
r ies
le ben
f er</w>
H and</w>
Au to
el ler</w>
Er geb
D och</w>
g lich</w>
ß lich</w>
t ä
bar e</w>
gef unden</w>
ch n
je dem</w>
unter schie
aus ge
Ver bin
B eh
an z</w>
Au f</w>
z eit</w>
gr ün
i c
K ol
z ieren</w>
lan gen</w>
entwick eln</w>
Gr und
volu tion</w>
un ge</w>
än der</w>
mer k
in gen</w>
Ma sch
gen an
f lä
einz el
ch st
k er</w>
tre ffen</w>
S ü
a ch</w>
a d
Zu sammen
Bil der</w>
geb aut</w>
Wissenscha ft</w>
Spra che</w>
vor stellen</w>
hä lt</w>
sa ge</w>
Nach r
K li
sy ch
e -
S ich
Ge dan
be wu
be wegen</w>
F in
k s</w>
sich er
Ge fühl</w>
p rä
h eu
ig es</w>
gen de</w>
di re
al ien</w>
S ol
Gesch ä
An gst</w>
O kay</w>
le bt</w>
In dien</w>
H in
Gen er
we sen</w>
g s</w>
er halten</w>
Pr ot
z äh
sol l</w>
schö n</w>
Pati enten</w>
E igen
rit t</w>
Leben s</w>
Mu sik</w>
Mög lichkeit</w>
K ra
irgend wie</w>
gel n</w>
b re
Sch ul
L i
verschie denen</w>
fan g</w>
Kop f</w>
U m</w>
F u
Ber ei
Reg ierung</w>
ver sch
schw er</w>
n et
Z ei
R ück
M at
je man
icht ung</w>
geb racht</w>
V ater</w>
S k
ur op
man chmal</w>
Ver änder
L and
s ön
r ück
ch tet</w>
bei den</w>
lei ch
brin gt</w>
T ra
St äd
St unden</w>
p unkt</w>
n ie
Wissenscha ft
Ma cht</w>
re cht</w>
woll ten</w>
be sten</w>
Sch la
ler nt</w>
W ah
is mus</w>
ein s</w>
Y or
Pro gra
lä sst</w>
f el
Be zieh
rei s</w>
wach sen</w>
ver ändert</w>
tr ä
sch t</w>
n er
Got t</w>
m on
füh len</w>
V or</w>
C h
sch u
Ko mp
nä mlich</w>
verwen den</w>
mit t
haup t</w>
einz ige</w>
auf zu
sech s</w>
in gt</w>
et t
H ei
mensch lichen</w>
get an</w>
Ma teri
v est
stän dig</w>
ga l</w>
ga ben</w>
eh er</w>
Haus e</w>
ga be</w>
Sa chen</w>
F ahr
ss en
ur e</w>
f u
rie ben</w>
be t
ent fer
d o
N etz
Flu g
K la
F rei
0 .000</w>
stell te</w>
h och</w>
äu me</w>
sta un
M ik
v e</w>
gr und</w>
fr ü
be l</w>
Wa sser
Ar ch
s ätz
lö sen</w>
en zen</w>
der en</w>
s ent
1 5</w>
o ur
Be d
ze ss</w>
stan den</w>
lü ss
ein ge
B ü
Chin a</w>
sch reiben</w>
inner halb</w>
K at
Dies er</w>
Sich er
her um</w>
gen heit</w>
be oba
Ko mm
Kin dern</w>
l äu
e ff
K ur
B ru
mo kra
J u
gr und
Gebäu de</w>
zeu g</w>
El tern</w>
über haupt</w>
z er
wissenscha ft
gewöh n
pol it
f all</w>
di r</w>
vo ll</w>
schein t</w>
n immt</w>
au ßen</w>
all er</w>
Aut o</w>
zu stellen</w>
h äu
f äh
Wir k
Sp e
na tion
f eh
Sch i
H aus</w>
unglaub lich</w>
Pu bli
j ähr
e ben
op p
ent schei
W ort</w>
O ber
Her aus
B ab
or gen</w>
erz eu
L änder</w>
er lau
be mer
tiv ität</w>
eu er</w>
C hr
s st
b ie
Desig n</w>
fan den</w>
z war</w>
versu cht</w>
re ss
ab hän
R au
z iert</w>
all em</w>
al t
ä ten</w>
t au
begin nen</w>
ar e</w>
z un
schlie ßlich</w>
or t
Heraus forder
C he
i p
La ge</w>
Univers um</w>
völ ker
k rie
l ungs
k tion</w>
Be i</w>
zah l</w>
gew or
tr i
er h
W il
Gr ün
s -
m eines</w>
St at
b au
den ten</w>
tra g</w>
ich te</w>
r is
T ele
K u
hin ter</w>
gro ß</w>
for t</w>
Exper i
nah m</w>
Gl ück</w>
st off
sch lu
a merikan
Erfahr ung</w>
en d
eh men</w>
S ter
sa che</w>
St ru
Ä r
b an
K an
et ten</w>
T at
L an
e ssen</w>
Z wei
T iere</w>
St ellen</w>
Publi k
O h</w>
or ie</w>
mu ssten</w>
c o
is ten</w>
flä che</w>
L ab
sp ar
bar en</w>
un ten</w>
Entwick lung</w>
on nen</w>
m t</w>
Robot er</w>
P rä
Din gen</w>
ta t</w>
P ap
Fre unde</w>
St ück</w>
weiter e</w>
lo ssen</w>
k ehr
H aup
letz te</w>
i l</w>
Fil m</w>
tig keit</w>
näch ste</w>
mög lichen</w>
auf ge
Gr öß
mö gen</w>
k or
S itu
In st
wu sste</w>
de te</w>
Un s
t ut</w>
p ar
g än
mensch liche</w>
b ald</w>
al i
l aufen</w>
fol gen</w>
4 0</w>
ü l
glei che</w>
fü l
be d
P ri
G u
ex is
ein ig
lö tz
kä mp
ster ben</w>
sit zen</w>
oh n</w>
e mp
sol che</w>
icht lich</w>
Sp iel</w>
ck te</w>
Ob je
tre ten</w>
D N
Gr unde</w>
An fang</w>
ä f
al a
Er fol
rie b</w>
nah me</w>
k ten</w>
ch ter</w>
Z iel</w>
Sin n</w>
S ek
eigen e</w>
Publik um</w>
s icht</w>
ges etzt</w>
Z um</w>
dire kt</w>
kt or</w>
T ran
beh and
te chn
l icht</w>
f iz
Vide o</w>
wor den</w>
fra gte</w>
er staun
La ssen</w>
w elt</w>
n s</w>
merik a</w>
e t</w>
blei ben</w>
N icht</w>
hr en</w>
ein zu
Mög lichkeiten</w>
I st</w>
Ver halten</w>
F eh
B an
on e</w>
Mik ro
D is
wär en</w>
ma g</w>
je doch</w>
D at
s el</w>
da mals</w>
an gen</w>
ob wohl</w>
en -
Yor k</w>
ab sol
Kun st</w>
et te</w>
tr oll
mokra t
it ten</w>
h oh
a st
Wer k
Bil d
k aufen</w>
en e</w>
völ lig</w>
lie ben</w>
Unterschie d</w>
no v
en n
ba s
The ma</w>
Geb ie
sch ön
el te</w>
Hil fe</w>
m ehr
r än
su cht</w>
niem and</w>
ap it
t nis</w>
re cht
ne u</w>
b ung</w>
wa hr</w>
el ig
Wo che</w>
Inter ess
H än
tr ot
ek tr
dru ck</w>
di gen</w>
sch rei
lötz lich</w>
kur z</w>
Pr in
Den ken</w>
Wo chen</w>
M ein
Kult ur</w>
zu g</w>
be steht</w>
Sta aten</w>
Dur ch
et z</w>
fal sch</w>
verb in
ge scha
Mon ate</w>
Be we
größ te</w>
an del</w>
G an
u t
sol len</w>
b s
wer t</w>
ste t</w>
al er</w>
Ne ur
ten s</w>
ss y
olo gien</w>
komp l
O ze
ste me</w>
Ta ge</w>
Netz wer
betra chten</w>
S at
ol ek
interessan t</w>
ho ch
ge geben</w>
Vie le</w>
wei sen</w>
Na men</w>
Lös ung</w>
Lie be</w>
Bewe gung</w>
wach sen
tr au
N ahr
Fami li
w ann</w>
unterschie d
per sön
erst ör
bewu sst</w>
genau so</w>
min de
el be</w>
ar ten</w>
Medi ka
L ändern</w>
ro h
kra ft</w>
m ä
S pa
z ü
wirt schaft
mit tel</w>
G o
zu vor</w>
geb ung</w>
ber ei
F el
ü t
sel ben</w>
li gen
k ü
Z ellen</w>
Lehr er</w>
F ern
sp ek
re ck
k ol
Wirt schaft</w>
H erz
G ei
te sten</w>
er fol
y s</w>
ben ö
Arch it
zwei te</w>
tri fft</w>
lich erweise</w>
In nov
seh e</w>
ge lernt</w>
Sel bst
H eute</w>
Ver su
Ihr en</w>
E ssen</w>
G ol
tel ligen
gen den</w>
ander er</w>
Auto s</w>
unser es</w>
ge ssen</w>
dr eh
Be deu
ie lt</w>
Uns ere</w>
t zu
ent schie
lie be</w>
Fäh igkeit</w>
An der
we der</w>
en nen</w>
b lo
b itte</w>
H off
V ir
zo gen</w>
ra k
p ri
stän d
i m
heraus zu
glück lich</w>
n ern</w>
mit tel
me di
Tei l
K ran
W in
H ar
wel ches</w>
wer fen</w>
sam keit</w>
ber eit</w>
beein flu
ar i
M ens
an s</w>
Pro zess</w>
En gl
zeu ge</w>
st är
dr außen</w>
Mens ch</w>
Gedan ken</w>
C ha
stel le</w>
s h
i zi
Ta ges</w>
Sp iel
Je der</w>
sch war
al ter</w>
äch st</w>
v is
l ungen</w>
ha st</w>
fe st</w>
erinn ern</w>
TE D</w>
Mod ell</w>
K oh
E urop
er sch
el ten</w>
le gt</w>
e m
t ö
Krie g</w>
Haup t
A m</w>
gen ie
b rei
Zah l</w>
N atürlich</w>
Kre bs</w>
Fü hr
S ehen</w>
sy stem</w>
sp h
ben e</w>
Mu s
Met ho
Be völker
Al les</w>
W er</w>
ver bess
tr an
n atür
ge wis
gan gen</w>
c en</w>
Wissenschaft ler</w>
Techn ologien</w>
B .</w>
hol en</w>
ge wesen</w>
N o
Bo den</w>
ta ge</w>
lo s
verb rei
st es</w>
spro chen</w>
ogra f
größ ten</w>
Verbin dung</w>
K l
ück e</w>
pass ieren</w>
z in</w>
tei lt</w>
or ganis
R is
Rei he</w>
Ka mp
st ie
funktion ieren</w>
er schaffen</w>
Lu ft</w>
sp ir
i ken</w>
schwier ig</w>
ma che</w>
gin gen</w>
f ör
Na ch</w>
zei ge</w>
gewor den</w>
erklär en</w>
K il
B li
über zeu
spie lt</w>
n ien</w>
e i</w>
ck er</w>
Tat sache</w>
Stu denten</w>
Kran ken
ver ur
la gen</w>
jem als</w>
gef ähr
Sch w
v en
di vi
dar aus</w>
O p
ü br
t liche</w>
spr icht</w>
la den</w>
f liegen</w>
b ist</w>
v a
sch rieb</w>
kon zentr
be zah
6 0</w>
unter stütz
u ch</w>
st i
s etzt</w>
Wahr heit</w>
R ichtung</w>
äl fte</w>
da cht</w>
Par t
I s
i en
des halb</w>
Pf lan
Jahrhunder t</w>
ver schw
schle cht</w>
sch li
mit einander</w>
her vor
divi du
ag ieren</w>
Kli ma
G i
z el
nach dem</w>
n st</w>
kl eines</w>
Mat he
0 ern</w>
- S
mö chten</w>
kt u
Ka mer
vie l
sto ff</w>
star k</w>
s ieben</w>
Gemein schaft</w>
Al le</w>
h ier
An zahl</w>
st ung</w>
ge fühl</w>
bra chte</w>
begin nt</w>
T atsächlich</w>
M is
Ein ige</w>
B ro
A merikan
über ra
u s
da ten</w>
be wer
an fangen</w>
K ünst
Gesund heit</w>
ko p
in en</w>
füh le</w>
besch äf
Sch ritt</w>
ß er</w>
erfol grei
d rei
D r
Kon zep
G leich
la ge</w>
ff e
be kommt</w>
Situ ation</w>
Na cht</w>
H el
p lötzlich</w>
kon troll
ch s</w>
N u
ver wand
m el
den kt</w>
Techn ik</w>
Sti mme</w>
Sch we
C han
C A</w>
Auf gabe</w>
k rei
Reg ier
sch ul
me ssen</w>
it ze</w>
ge zeigt</w>
dan ach</w>
bekan nt</w>
a mp
Mu ster</w>
verb unden</w>
ie der
ge führt</w>
bil den</w>
D ru
n i
Des halb</w>
is te</w>
du str
Ver einig
M ei
Ihr em</w>
Fre und</w>
zei tig</w>
verwen det</w>
it y</w>
gu ten</w>
Stu die</w>
C ol
flu ss</w>
auss ehen</w>
we ch
ig t</w>
Um gebung</w>
wichti g
Ihr er</w>
nach zu
gri ff</w>
tik er</w>
e gal</w>
Tei le</w>
St re
R olle</w>
Al l
st re
genan nt</w>
Veränder ung</w>
I mp
zeh n</w>
son st</w>
mo der
gi g</w>
Vor stellung</w>
J a
C ar
ver öffent
ech an
Plat z</w>
sch ätz
mu l
entfer nt</w>
Kör per
8 0</w>
s zin
l ten</w>
h l</w>
B el
tei le</w>
ik er</w>
c a
Städ te</w>
Bedeu tung</w>
p lat
ma chten</w>
Me er
Größ e</w>
z es</w>
m et
all er
St ro
Sch a
t in
m mi
gr ü
d igkeit</w>
at ur
H älfte</w>
st en
si onen</w>
f rie
ek ten</w>
ak tion</w>
Compu ter
po si
kl einer</w>
ho ffe</w>
fin g</w>
Herausforder ung</w>
Bil dung</w>
so fort</w>
nach denken</w>
m ung</w>
jeman den</w>
ben utzt</w>
ar d</w>
al te</w>
de ten</w>
Prin zi
ken n
den ti
be ste</w>
Entwick lungs
sozi ale</w>
niem als</w>
f allen</w>
W ör
Pro f
Mathe ma
19 9
it äten</w>
bli ck</w>
Per son
Mein ung</w>
st immt</w>
pp e</w>
f li
bei de</w>
Re gi
K apit
1 2</w>
ver rück
oo l</w>
l an</w>
Kra ft</w>
Arbei ts
t on</w>
eu er
H öh
Ge d
Erfol g</w>
D -
2 5</w>
off ens
fü r
Re alität</w>
Energ ie
z ellen</w>
tr olle</w>
ich tet</w>
A merika</w>
welt weit</w>
verl oren</w>
g ie</w>
be kam</w>
ab zu
Te am</w>
Entschei dungen</w>
ün f
mm t</w>
errei cht</w>
P la
B ak
1 0
sph äre</w>
komp lex
au ft</w>
Wa chst
Masch ine</w>
G a
z dem</w>
unk te</w>
s in
al es</w>
re ch
f lie
war e</w>
h aus</w>
W ährend</w>
Te mp
tzu tage</w>
r en</w>
li gen</w>
L o
ütz en</w>
z er</w>
vol ler</w>
kompl ett</w>
Stra ße</w>
v en</w>
um s</w>
sp an
nor mal
all ein</w>
ver tr
ter ien</w>
sch ung</w>
ha ft</w>
gesch rieben</w>
f ern</w>
Re st</w>
Lab or</w>
F unk
D or
wen den</w>
stell ten</w>
h aus
da chten</w>
Z eu
Sch auen</w>
Fir ma</w>
F la
y p</w>
spra ch</w>
gef angen</w>
N ur</w>
Kin der
Fot o</w>
komm e</w>
ik o</w>
gegen über</w>
e ben</w>
au t
Sicher heit</w>
Gesund heits
Berei ch</w>
B ar
läu ft</w>
fra ge</w>
Mit te</w>
Gener ation</w>
ta st
olo gen</w>
a cht</w>
Son ne</w>
F rie
z te</w>
z ess
z erstör
ver di
jen igen</w>
größ er</w>
ge kommen</w>
en der</w>
Rei se</w>
F ran
Be wu
m äch
er for
d ra
St e
schn eller</w>
pp en</w>
län ger</w>
interess iert</w>
fin de</w>
dustr ie</w>
Forsch ung</w>
b ein
V on</w>
Zah len</w>
Stru ktur</w>
O K</w>
Kar te</w>
Fäh igkeiten</w>
st ern</w>
gesch ieht</w>
de fin
Vereinig ten</w>
Su per
t ungen</w>
mo d
er kan
So ft
Gew alt</w>
zi gen</w>
sp rä
geb oren</w>
g nis</w>
en or
da her</w>
Ober fläche</w>
ph ys
p lan
is ten
herauszu finden</w>
d -
bewe gt</w>
be sser
ar beit</w>
Krank heit</w>
Bewu sst
grund le
Sch n
Komm un
K ü
F o
Bezieh ung</w>
1 .</w>
schlie ßen</w>
m ischen</w>
ge arbeitet</w>
W ert</w>
S au
M olek
nen nt</w>
fa szin
et a
amp ;</w>
G lau
F äl
& amp;</w>
är en</w>
fa ssen</w>
an ischen</w>
absol ut</w>
T ex
Met er</w>
Jahr zeh
F e
schaft s
sa hen</w>
neu es</w>
ha bt</w>
fin anz
Son nen
Re volution</w>
De mokrat
rei ch</w>
k el</w>
bre chen</w>
bil dung</w>
For tsch
sozi alen</w>
n ungen</w>
el ektr
H inter
Europ a</w>
Al l</w>
vor her
stu d
p u
n ein</w>
k ür
gen des</w>
einfa che</w>
Vor trag</w>
St an
P sych
s an
pa ssen</w>
mi l
hin ter
gesam te</w>
be gan
be finden</w>
W o</w>
Sel bst</w>
Sch ü
Ergeb nis</w>
Mar kt</w>
stat t
p ra
iel le</w>
f el</w>
Go og
wirk ungen</w>
hal t</w>
dig it
Au ch</w>
w äl
verur sa
ste ckt</w>
o -
g lichen</w>
began nen</w>
Z entr
I r
Beh and
ben d</w>
yp en</w>
si on
ol l</w>
Hoff nung</w>
Geschä ft
ti ger</w>
o men</w>
mu t</w>
be tr
Geb ur
ter ie</w>
ssy stem</w>
komp li
führ te</w>
Din g</w>
lie ß</w>
l eu
k ult
br it
M ot
Auf merk
Archit e
zu erst</w>
ing s</w>
groß er</w>
ei m
an statt</w>
Schu len</w>
Feh ler</w>
wichti ger</w>
v er</w>
sch aut</w>
it t</w>
ff ent
um zu
ro ffen</w>
l s</w>
igen s</w>
ies o</w>
en te</w>
le ge</w>
gemein sam</w>
er k
ähn lich</w>
m ie</w>
et r
el s</w>
mä ß
wichti ge</w>
taus ende</w>
ta ten</w>
samm eln</w>
s ichti
la tion</w>
j unge</w>
gleich zeitig</w>
gl ie
Tele f
Re ss
Er d
D ah
wi der
spe z
pass ierte</w>
de ck
best immt</w>
W ür
Ges icht</w>
5 00</w>
li ge</w>
ck s</w>
bestimm ten</w>
Ress our
Na tion
sa me</w>
Vie l
V o
To d</w>
Re geln</w>
Ko sten</w>
Ho ch
H I
sch reck
irgend wo</w>
il is
i d
ge dacht</w>
d unk
Al ter</w>
ne te</w>
iel len</w>
ie b
for men</w>
K om
ver mu
kre a
k tr
in vest
ier end</w>
for m</w>
arbei tete</w>
2 00</w>
lo se</w>
gen en</w>
Ta t</w>
t lichen</w>
lang sam</w>
fäl lt</w>
e cht</w>
ch ern</w>
H imm
Bevölker ung</w>
B ot
medi zin
m b
Woh l
Wah l</w>
S c
Mit gefühl</w>
H ig
E is
versu chte</w>
ver fü
p lo
beoba chten</w>
Kön nen</w>
F lü
Dat en
Bü cher</w>
ü hr
sel bst
r ichten</w>
ist an</w>
il o
an sehen</w>
St r
Spe z
Demokrat ie</w>
fr üh
H ir
Au gen
sel n</w>
sch wer
olog ische</w>
n ütz
ge sprochen</w>
drück en</w>
Or te</w>
Kun st
Inst itu
Grupp en</w>
G ala
Aufmerk samkeit</w>
ü b
zeich net</w>
in spir
dar f</w>
P reis</w>
Mon aten</w>
Informa tion</w>
s au
p fen</w>
o ber
k lu
ie ll</w>
blei bt</w>
äu men</w>
tik el</w>
tier te</w>
te st</w>
pro gra
nor m
kl ein
V ol
pr ü
ot en
f ek
c e
T ri
O n
N er
Kon trolle</w>
t ro
kämp fen</w>
hal te</w>
er wäh
Medi en</w>
Materi al</w>
vor her</w>
richti ge</w>
k eit
k ar
fan tast
ex tr
d is
The orie</w>
S ei
prä sen
ol z</w>
kü mm
i on
bess ere</w>
Di a
verbess ern</w>
ver standen</w>
M or
J ob</w>
Ein es</w>
B lo
wäh len</w>
st au
schla gen</w>
richti gen</w>
n äh
her ap
groß es</w>
er te</w>
Z ie
Sch ön
Er inner
A n</w>
tiv er</w>
n ü
gen er
de st
S er
A h
ver lassen</w>
o ff</w>
hör t</w>
ar en</w>
St elle</w>
den t</w>
d ie
al tung</w>
Krank heiten</w>
Ele ktr
1 8
men ten</w>
einzel ne</w>
Um welt</w>
S eiten</w>
Dah er</w>
D rit
wu ssten</w>
produ zieren</w>
n an
ken nt</w>
inter nation
ge gangen</w>
br auch</w>
Goog le</w>
t he
i t</w>
häu f
di ge</w>
ar t</w>
Ver gan
Unter neh
T it
Be gin
Amerikan er</w>
ß en
versu che</w>
ter e</w>
n ö
komm un
gew innen</w>
Zu gang</w>
zu minde
gew al
B la
0 er</w>
ku ss
il l
er s</w>
Sch lu
Beispie le</w>
offens ichtlich</w>
ihr es</w>
Experi ment</w>
stru ktur</w>
rei chen</w>
ra ten</w>
h y
R elig
p sych
kan nst</w>
Or ten</w>
Gr enzen</w>
Gen au</w>
Be st
U hr</w>
Ta gen</w>
Gebie t</w>
vol le</w>
f rei</w>
d enscha
an schauen</w>
N utz
Innov ation</w>
Gala x
verl ieren</w>
lo k
erlau bt</w>
du st
dan ke</w>
Nachr icht</w>
Molek ü
L on
Konzep t</w>
H u
Chr is</w>
zuminde st</w>
v ier
v at
mi k
it h
erzäh lt</w>
der t</w>
Univers ität</w>
Spa ß</w>
Or d
wirt schaft</w>
ver gessen</w>
tig es</w>
sit zt</w>
ot he
mat isch</w>
erzeu gen</w>
d eine</w>
ab ge
S ig
Ein fluss</w>
zi f
zeich nen</w>
t o</w>
schnit t</w>
hin aus</w>
fel d</w>
ei st
auss ieht</w>
au ßer</w>
Z u</w>
E bene</w>
B üh
zi g</w>
h t</w>
Pa ra
ständ nis</w>
nachzu denken</w>
ko m
füh lt</w>
Vergan genheit</w>
Nachr ichten</w>
M ü
M al
ste cken</w>
sch ir
ogra ph
Wor te</w>
Wirk lichkeit</w>
T est
Kon fli
Kommun ik
man che</w>
g rupp
Sch wi
Di en
Bli ck</w>
tra f</w>
di en
T err
S en
Ma ß
schi cken</w>
ra gt</w>
T re
Spez ies</w>
Rau m
Mensch heit</w>
D ro
Ar mut</w>
0 -
ta g</w>
rei ch
kl ein</w>
k ünst
k at
g or
bestimm te</w>
abhän gig</w>
Ger ät</w>
E volution</w>
ver änder
so dass</w>
gesch ehen</w>
gesam ten</w>
erh öh
K no
Ergeb nisse</w>
ü r</w>
sel t
nie dr
n utz
n ei
l ehr
entschei den</w>
Ver antwor
Sch ri
S ohn</w>
trot zdem</w>
ss a
sol chen</w>
re g
re du
k aum</w>
di tion
V is
Poli tik</w>
H äu
E t
DN A</w>
ä r</w>
v ir
t ter
sp ür
sch lä
ris e</w>
Progra mm</w>
Person en</w>
Medi zin</w>
- B
zei gte</w>
ss elbe</w>
l ern</w>
i mp
e p
Wahr schein
pf lan
mor al
lin ks</w>
heu tzutage</w>
h äl
Mit tel
Gel e
G ut</w>
su l
kt oren</w>
hand elt</w>
d opp
Stu dien</w>
Prä si
Po si
Künst ler</w>
win digkeit</w>
stei gen</w>
sa men</w>
ing ungen</w>
ig ar
gef ragt</w>
d lichen</w>
ch er
an g</w>
Nach bar
Kol legen</w>
Ge fän
u te</w>
stie g</w>
nen ne</w>
gen et
gel ö
entde cken</w>
Terr or
Sek unden</w>
Regier ungen</w>
F isch
1 8</w>
s inn
ra t
r etten</w>
il s</w>
hil ft</w>
f ar
en dlich</w>
dreh t</w>
b oo
Produ kt</w>
Famili en</w>
Chan ce</w>
j ungen</w>
h n
glob alen</w>
eff ek
b au</w>
amerikan ischen</w>
T yp</w>
T ier</w>
T ier
Schü ler</w>
Ein zel
ver n
stän de</w>
i tion</w>
a tions
L er
Geschäft s
ür f
wil l
ier ende</w>
hör te</w>
f il
f alt</w>
einzel nen</w>
Mon at</w>
In vest
C a
öff nen</w>
unter suchen</w>
lin e</w>
her um
ge k
fa sst</w>
Metho de</w>
Lin ie</w>
wen dung</w>
vis u
ter s</w>
ot wen
lei sten</w>
g han
C O
p ress
hei t
gen s</w>
ck ten</w>
bie ten</w>
S icht</w>
B ra
Ö l</w>
war ten</w>
ries ige</w>
er f
auf grund</w>
Soft ware</w>
Fir men</w>
verbin den</w>
on s</w>
ne ben</w>
un da
gr enz
Sy steme</w>
Sch mer
R i
Prinzi p</w>
An ti
A f
wir ken</w>
setz e</w>
s ü
pf er</w>
ma sch
el a
an t</w>
M y
Fre u
trä gt</w>
scha fft</w>
scha ff
k ör
in es
großar tige</w>
b lich</w>
T aus
Her z</w>
öffent lichen</w>
zu fäl
spr ün
so wohl</w>
lie ßen</w>
k rank
heraus finden</w>
Pflan zen</w>
Ord nung</w>
Geh eim
Bewusst sein</w>
un möglich</w>
si en</w>
hal ten
gl icht</w>
erzäh lte</w>
arbei te</w>
al tet</w>
Z iv
Um welt
So zi
Mensch en
Da mit</w>
Aus wirkungen</w>
mitt eln</w>
l äch
an er</w>
Ver tr
M orgen</w>
Dor f</w>
Bu ch
s ern</w>
in d
entschie den</w>
ast ro
W ichti
T ie
Ressour cen</w>
Koh len
Er wachsen
Ent deck
st ein</w>
recht s</w>
pass t</w>
mö glicht</w>
her stellen</w>
ha b</w>
ben en</w>
K ä
K er
Ger äu
A mei
zwei ten</w>
schön e</w>
rä fte</w>
i ö
entde ckt</w>
da durch</w>
cht ung</w>
Wachst um</w>
Bezieh ungen</w>
Ber u
- Ma
w ün
sp ei
olog ischen</w>
ob il
normal erweise</w>
m ann</w>
fer tig</w>
er möglicht</w>
a h</w>
Sin ne</w>
J ung
In genie
In fra
Gehir n
E mp
ü ben</w>
äh e</w>
y na
o f</w>
hunder t</w>
übr igens</w>
stoff e</w>
steh e</w>
pro f
näh er</w>
k auf
hin zu
h ielt</w>
geb il
extr em</w>
Himm el</w>
Fot os</w>
A -
ä te</w>
pra kt
l auf
ies en</w>
füh lte</w>
Mathema tik</w>
tra dition
rei b
icht s
ge sell
eff izi
die jenigen</w>
außer halb</w>
W ieder
lie b
kt ro
dust rie
be findet</w>
b at
au r
Sch lüss
Pap ier</w>
Hän de</w>
An al
tie f
t oll</w>
su ch
sch te</w>
s ie
om eter</w>
iz ieren</w>
icht ungen</w>
i onen</w>
ge tr
Versu ch</w>
Nu mmer</w>
Ha ben</w>
For men</w>
Er fin
Bak terien</w>
wel cher</w>
eu ern</w>
O per
F all
Büh ne</w>
wer t
ter na
sch ri
la g</w>
geh alten</w>
ber üh
Ph y
spre che</w>
ler nte</w>
interessan te</w>
for t
dest o</w>
auf re
ah n</w>
Oze an</w>
Grün de</w>
Bi o
Är zte</w>
te x
sch ützen</w>
l auf</w>
i r</w>
einfa chen</w>
durch schnit
Zeu g</w>
W al
Re cht</w>
Lie bl
H y
t -
sy ste
p re
fa ss
Sp r
L iste</w>
A pp
7 0</w>
ähr t</w>
tei lung</w>
spe kt</w>
or e</w>
ein zigen</w>
dr ehen</w>
ben utz
an al
P at
stell ungen</w>
schn ei
schla g</w>
ru h
mi eren</w>
ko sten</w>
fu hr</w>
betra chtet</w>
Organis ation</w>
Kre a
Far be</w>
Begin n</w>
z ieht</w>
geh e</w>
f lo
e di
dr itte</w>
Nahr ung</w>
Man chmal</w>
Arbei t
sätz lich</w>
rei bt</w>
r und</w>
ca .</w>
Lan des</w>
J ungen</w>
Bür ger
ma ßen</w>
m än
geb ie
ge g
frü her</w>
er fahren</w>
ent weder</w>
eben so</w>
We b
Ver fü
O ff
1 ,
äl ter</w>
s il
r aus</w>
o t</w>
leb te</w>
in s
ge schaffen</w>
St unde</w>
Ar zt</w>
spre ch
ha f
Zeit punkt</w>
T ro
Na me</w>
Inter net
Entschei dung</w>
te m
ra te</w>
hand eln</w>
han g</w>
gesch lossen</w>
er leben</w>
d y</w>
besonder e</w>
Stra ßen</w>
J ap
Interess e</w>
Gen e</w>
Be weg
B al
Archite ktur</w>
9 0</w>
wei s</w>
ra t</w>
k m</w>
er -
da sselbe</w>
b la
Un ser</w>
Me er</w>
Lös ungen</w>
Frei heit</w>
Erfahr ungen</w>
Ein er</w>
Be zug</w>
su chte</w>
r au
kult ur
gu ter</w>
großar tig</w>
erfolgrei ch</w>
alis mus</w>
Z wei</w>
T al
Obje kt</w>
Mit tel</w>
In dividu
E rei
Behand lung</w>
iel ten</w>
icht -
he ben</w>
fäh ig</w>
ber u
Medika mente</w>
Gehir ns</w>
E is</w>
1 1</w>
tier e</w>
t an
schlu ss</w>
op er
in telligen
gu tes</w>
g ar
W ol
Lon d
K rei
Er kenn
Ar tikel</w>
Ak tiv
A d
z ier
wen ige</w>
st imm
r ü
mehr ere</w>
m ess
her zustellen</w>
get roffen</w>
W and</w>
Jahrhunder ts</w>
Bed ürf
Ä n
wer k</w>
neu n</w>
min is
kt uren</w>
in st
heu tigen</w>
erwar ten</w>
beh aup
a s
Sta mm
In stru
Ge sprä
Fin anz
z ent
sch en
hö ch
erinn ere</w>
er le
a ktu
a -
Ver ständnis</w>
N atur
In s
Ges etz</w>
C har
A p
rie f</w>
jen e</w>
jeman dem</w>
gew äh
e chte</w>
M är
L icht
Ar m</w>
Ant wor
wa sser
vor zu
le k
k einer</w>
f la
ehr lich</w>
ch em
Veränder ungen</w>
N ord
Lei denscha
F en
D eta
Af ghan
. B.</w>
verk aufen</w>
ra b
kl in
ken ne</w>
Tei len</w>
Sch war
R at
P unkte</w>
J unge</w>
ver antwor
p or
hö her
fol gt</w>
eben falls</w>
Z eiten</w>
R ich
L etz
Kamer a</w>
Bet ra
19 8
we st
rit te</w>
fäl le</w>
Milli on</w>
L auf
Kon ta
Fu ß
ver hin
unterstütz en</w>
t ot
ber ech
ak zep
Wor ten</w>
We sen</w>
We ge</w>
Re aktion</w>
P hän
Cha rak
Au ßer
hin ein</w>
ger t</w>
gen utzt</w>
f lü
ei g
Wör ter</w>
Verantwor tung</w>
K ri
I denti
Gei st</w>
neh me</w>
des ig
d ings</w>
be antwor
ali for
T u
Se x</w>
Er stens</w>
B en
we sent
unter schei
spie l</w>
sa ß</w>
s eite</w>
rei fen</w>
lo ss</w>
fän gt</w>
f ot
d ein</w>
brau chte</w>
b ieren</w>
arbei ter</w>
Proje kte</w>
Lu ft
Kon fer
Eigen schaften</w>
unterschied liche</w>
lin g</w>
i d</w>
gescha h</w>
außer gewöhn
all ge
Stra te
Netzwer k</w>
Au ge</w>
äu ß
Ö l
ti gung</w>
se qu
nach hal
er in</w>
S äu
N ul
In telligen
Fre und
D el
mo tion
ig sten</w>
dru ck
behand eln</w>
Ra di
Kranken haus</w>
G lei
Blu t
A m
z em</w>
unglaub liche</w>
ter t</w>
nah e</w>
gescha fft</w>
exis tiert</w>
er s
bis her</w>
astro ph
Wirt schafts
V ier
P oten
Män nern</w>
C on
Ah nung</w>
se x
schle chte</w>
konzentr ieren</w>
ko stet</w>
it z
US -
N iem
Fre unden</w>
Er zäh
öff net</w>
w ör
ver bringen</w>
ung spro
tie f</w>
t ät</w>
so bald</w>
schö nen</w>
r y</w>
lei st
ken s
ge be</w>
brit an
bil d</w>
au er</w>
Vide o
Städ ten</w>
Sp an
Produ kte</w>
Masch inen</w>
Man che</w>
zei t
verrück t</w>
lo sen</w>
it z</w>
eigen es</w>
Z elle</w>
T ieren</w>
Je des</w>
D u
ung er</w>
lei der</w>
ilo so
g il
ffe kt</w>
der ung</w>
d ür
N ähe</w>
Materi alien</w>
Kon g
A I
3 00</w>
y -
wa sser</w>
lu st
früh en</w>
Zu stand</w>
Wer te</w>
Stro m</w>
Freu de</w>
Antwor ten</w>
vor bei</w>
ver mei
r ot
ir ur
erf unden</w>
en des</w>
e y</w>
b ü
We sten</w>
Schön heit</w>
Regi on</w>
E p
Ba s
z .B.</w>
wei te</w>
verschw in
schätz en</w>
lie f</w>
größ ere</w>
Verfü gung</w>
Ver sion</w>
Unter stütz
Sp itze</w>
ver halten</w>
spie l
sp ru
fü gen</w>
fr is
er weiter
en nt</w>
ein halb</w>
e motion
ar ch
an gefangen</w>
N och</w>
Kar r
Kamp f</w>
F er
z lich</w>
wichtig sten</w>
ur sprün
sor gen</w>
n otwen
ko sten
ist isch</w>
g st
di um</w>
de m
bar keit</w>
ag no
Verbin dungen</w>
Sau erst
P il
O k</w>
N ehmen</w>
HI V</w>
Bab y</w>
trä ge</w>
sch wa
o m</w>
m echan
glau bt</w>
alis ierung</w>
a frik
Sy ste
P re
Fern seh
Engl isch</w>
s ung</w>
o ffen</w>
mu tz
mit ten</w>
kontroll ieren</w>
entschei den
beg onnen</w>
au to
an e</w>
a chten</w>
Stan dar
Sta d
M ich
Liebl ing
J ohn</w>
D ort</w>
Ö ko
tr aum</w>
ries igen</w>
ra tion</w>
grei fen</w>
beeinflu sst</w>
an ische</w>
Pla st
Gl ück
B äume</w>
At mo
zah len</w>
t yp
polit ischen</w>
ob s</w>
n es</w>
mitt ler
le y</w>
l a</w>
glob ale</w>
erzeu gt</w>
ent er</w>
Leidenscha ft</w>
J o
Groß britan
s eines</w>
off en
nis sen</w>
größ eren</w>
ge le
ch ines
Unterschie de</w>
Temp er
T er
Relig ion</w>
Prof ess
K en
Her zen</w>
H under
H or
Gele genheit</w>
ter en</w>
sta g</w>
re agieren</w>
er neu
Wi der
Tr aum</w>
T ür</w>
Su che</w>
Sol ar
P in
Komp lex
Gra d</w>
E hr
Desig ner</w>
Bür o</w>
An satz</w>
ten dlich</w>
s es</w>
r unter</w>
r aum</w>
k in
gelö st</w>
di men
Werk zeuge</w>
Viel falt</w>
T isch</w>
T i
Re gen
Kla sse</w>
G lo
Au s</w>
1 4</w>
über leben</w>
zu sagen</w>
spie le</w>
her r
har t</w>
gesch ichte</w>
ger e
g liche</w>
Dr .</w>
Bi ologie</w>
z ö
vers or
taus end</w>
ran k</w>
produ ziert</w>
on line</w>
ne ten</w>
m eter</w>
k ünf
ist or
hal tung</w>
fra gt</w>
bed ingt</w>
Woh n
Ver k
R ichti
N etz</w>
K al
Geschä ft</w>
uns ch</w>
n ähr
mu s
i ti
fra gten</w>
f ung</w>
ett bewer
V ari
Stat is
Kon tin
Far ben</w>
weiter hin</w>
so genan
re chte</w>
W ur
Qu ad
P or
H aut</w>
Glau ben</w>
1 6</w>
än de</w>
setz te</w>
se um</w>
or ge</w>
o kay</w>
mp an
lei d</w>
d ort
Zentr um</w>
Lond on</w>
Infra struktur</w>
or i
lä tz
j ün
j a
ge m</w>
erg ie</w>
er möglichen</w>
dig ung</w>
ck er
ak tiv</w>
Z it
P al
Krea tivität</w>
Da vi
on ie</w>
o u
leben s
k rit
ist ische</w>
gest alten</w>
auf genommen</w>
T ypen</w>
Per spek
Ge fühle</w>
Flug zeug</w>
wu chs</w>
sei en</w>
schir m</w>
s c
re chten</w>
gra mm</w>
gil t</w>
dau ert</w>
ah men</w>
Sch o
O pfer</w>
Kop f
Kil ometer</w>
K eine</w>
Gesell schaften</w>
vol len</w>
sta dt</w>
sen den</w>
polit ische</w>
leb ten</w>
it är
i le</w>
erwar tet</w>
TE D-
Pro zess
P an
O sten</w>
Jahr es</w>
H all
Bür ger</w>
B oo
ück en</w>
w ü
versu ms</w>
t ungs
t em</w>
ru fen</w>
ig er
hän gt</w>
g ier
f o
erlau ben</w>
Sol daten</w>
F isch</w>
zun ehmen</w>
verk auft</w>
tier ten</w>
ol e</w>
fol ge</w>
dort hin</w>
behand elt</w>
beeinflu ssen</w>
be stehen</w>
Sch ei
Pri vat
Pa ss
wär ts</w>
w ächst</w>
w andel</w>
ma g
kla ss
k ap
i v</w>
haus e</w>
gor ith
gen e</w>
f s
alis ieren</w>
P lan</w>
N ichts</w>
Mi r</w>
M ess
Ler nen</w>
Gesch windigkeit</w>
Fa ce
Dis kuss
tä glich</w>
st äd
pri v
n u
gest or
g ste</w>
fr on
er stellen</w>
ent steht</w>
an te</w>
an ge</w>
To chter</w>
N ot
Bot schaft</w>
A bend</w>
ung sp
per fe
om in
o ten</w>
lä ss
it ät
ent stehen</w>
en ze</w>
einfa cher</w>
S -
Ris iko</w>
Re gel</w>
Re ch
Niem and</w>
Face boo
Dru ck</w>
B itte</w>
sp or
ru p
rei cht</w>
l eh
gan zes</w>
entwick elten</w>
einz igar
bu chst
be trifft</w>
an ten</w>
amerikan ische</w>
Gr i
Fin ger</w>
D eu
Afghan istan</w>
tiv es</w>
sa tz
kl ingt</w>
frei en</w>
entschie d</w>
e f
da gegen</w>
ber ühr
L os</w>
F an
Davi d</w>
B l
woh in</w>
ver folgen</w>
sti mmen</w>
letz tes</w>
führ ung</w>
e g
Zie le</w>
V a
Ster ne</w>
Sek unde</w>
P e
Mar kt
Kin d
Fen ster</w>
Bed ingungen</w>
w ieso</w>
tr in
t ische</w>
n -
le x</w>
k li
ik al
frü h</w>
ber eit
bemer kens
S i
Re sul
Phy sik</w>
N a</w>
Mus ik
Meer es
K ö
Je de</w>
Fr üh
Flu ss</w>
Atmo sphäre</w>
19 7
zi p
woh ner</w>
lan d
k e
ier enden</w>
f ik
erfor schen</w>
dimen sion
bar es</w>
Zusammen hang</w>
Vir us</w>
Ver gleich</w>
Tra in
Mit glie
Fortsch ritt</w>
C ity</w>
zo g</w>
weiter es</w>
verursa cht</w>
verfü g
to me</w>
tex t</w>
lei den</w>
invest ieren</w>
i c</w>
cht s
all eine</w>
S zen
Organis ationen</w>
Ge we
ä st
w en</w>
veröffent licht</w>
per i
n chen</w>
mög liche</w>
mi ert</w>
k r
fre u
benö tigen</w>
Unterstütz ung</w>
T on
Sü da
St o
S eh
K ir
J our
B is</w>
überzeu gt</w>
st ück</w>
gri ffen</w>
grei f
fa hr</w>
er fül
da vor</w>
be ten</w>
Posi tion</w>
Nahr ungs
Komplex ität</w>
Ein kommen</w>
Ein fa
AI D
so wie</w>
op ti
kör per
bu ch</w>
bel ieb
Ver halten
Unter such
T um
Großbritan nien</w>
2 -
ä be</w>
un der</w>
ro chen</w>
krie g</w>
k s
d ungs
W unsch</w>
Uni versums</w>
M c
Kommunik ation</w>
Gefän gnis</w>
wissenschaft liche</w>
wir kt</w>
un be
t ischen</w>
stei gt</w>
sam er</w>
r ela
lan gt</w>
kommun izieren</w>
j ahr
f ur
f iel</w>
ent lang</w>
cht s</w>
Zwei tens</w>
Neur onen</w>
Gesch le
Famili en
Fa br
A ch
zurück zu
wei ten</w>
te ste</w>
setz ung</w>
iloso ph
d ro
besch reiben</w>
Zusammen arbeit</w>
Spie len</w>
Schwi er
Sch at
Mar s</w>
Ma terie</w>
E -Ma
Dur ch</w>
z y
un bedingt</w>
natür liche</w>
mi er
ie b</w>
erstaun lich</w>
erst es</w>
c o</w>
buchst ä
beh alten</w>
W ü
S ehr</w>
P rei
M ehr
Ge setze</w>
G la
Fäl len</w>
ver stän
str on
r elig
ma ss
lau tet</w>
kon stru
heraus gefunden</w>
f ro
beschäf tigt</w>
W andel</w>
Te st</w>
St är
Mod elle</w>
Me x
Klima wandel</w>
K lin
Intelligen z</w>
Fern sehen</w>
Aus bildung</w>
vermu tlich</w>
ver an
unter nehmen</w>
trot z</w>
t olle</w>
stau ran
st and
r ein</w>
kon om
klär ung</w>
i ckt</w>
ech ten</w>
br uch</w>
br u
berüh m
J obs</w>
Herausforder ungen</w>
1 3</w>
wieder um</w>
w ä
w ander
verdi enen</w>
um gehen</w>
s icht
moder nen</w>
ma s</w>
kehr en</w>
gew onnen</w>
fiz iert</w>
dig t</w>
dies elbe</w>
c ool</w>
außer dem</w>
So mmer</w>
S ind</w>
Obje kte</w>
Konfer enz</w>
Ele ktro
20 .</w>
w s</w>
unterschied lichen</w>
st ab
sch rän
r in
mat he
in dividu
gebil det</w>
durch geführt</w>
bas iert</w>
at h
arbei teten</w>
Zu erst</w>
Proble men</w>
P op
L och</w>
Fu ß</w>
F ein
E he
E ff
zeu g
wichtig ste</w>
verb ra
lei sch</w>
le g
ern st
c a</w>
bezah len</w>
S al
Part ner</w>
L ap
Grün den</w>
Den k
A c
ze i</w>
volu tion
str en
sicher lich</w>
sel ber</w>
re gel
r e</w>
o h</w>
ma ch
h u
ge langen</w>
erklär t</w>
an gen
Schi mpan
Ma ssen
Glo b
2 000</w>
1 5
wir st</w>
tö ten</w>
ti gte</w>
stra h
sta at
hil fe</w>
gewäh lt</w>
get ö
da hin</w>
d ieren</w>
buchstä blich</w>
benö tigt</w>
be sitzen</w>
ban k</w>
b itten</w>
Neur o
Institu tionen</w>
Höh e</w>
Groß teil</w>
Gemein de</w>
F est
F ak
Ö ffent
zufäl lig</w>
sch einen</w>
p t
lie fer
k le
hoh en</w>
frik a</w>
f en
Ziv ilis
Z we
Vertr auen</w>
K r
F euer</w>
B eine</w>
B at
zei chen</w>
w .</w>
verbrei tet</w>
te gr
so zusagen</w>
ra di
os aur
lie bt</w>
lich sten</w>
isten z</w>
ist ischen</w>
gef allen</w>
g ei
e ure</w>
den k
T ür
T he</w>
Qu alität</w>
P au
K unden</w>
Ger äte</w>
Au str
z .</w>
ts ächlich</w>
ter n
tau chen</w>
relig iö
l ändern</w>
l le</w>
kümm ern</w>
il le</w>
geh ol
dür fen</w>
deu tlich</w>
da ß</w>
ander em</w>
alifor nien</w>
S orgen</w>
M obil
Blu t</w>
Bab ys</w>
zu künf
wer te</w>
ta tion</w>
sch er</w>
progra mmi
or ien</w>
minde stens</w>
fre und
et s</w>
ein ander
br an
ber t</w>
alis iert</w>
a ger</w>
S an</w>
Mu seum</w>
Milliar de</w>
Bi enen</w>
über tragen</w>
zwei f
voll ständig</w>
tra g
mor gen</w>
is sen</w>
blo ß</w>
alis ten</w>
Wahrschein lichkeit</w>
Vide os</w>
Sig n
Ka ffe
In dustrie</w>
Hir n
H ot
Di men
Bu d
wor fen</w>
ver w
t eln</w>
ser v
sch alten</w>
ra k</w>
mar kt</w>
keit s
jähr igen</w>
i mmen</w>
ge zogen</w>
g yp
erinn ert</w>
en det</w>
Werk zeug</w>
Stu d
Stru kturen</w>
N utzen</w>
Kla ss
Karr iere</w>
Ins ekten</w>
H um
weiter en</w>
w and</w>
voll kommen</w>
verstän dlich</w>
ungs kraft</w>
ti ken</w>
ten si
schau te</w>
nä her
neu er</w>
lin ken</w>
lie ber</w>
lie b</w>
ko p</w>
getö tet</w>
gehör en</w>
ge lt</w>
fal sche</w>
entwick elte</w>
b aut</w>
S il
Re stauran
Ma g
Fall s</w>
2 4</w>
öffent liche</w>
verwand eln</w>
us w.</w>
star b</w>
s eit
mat ische</w>
irgend wann</w>
hol t</w>
führ er</w>
er es</w>
ent werfen</w>
dr än
best immen</w>
beg eist
Zei chen</w>
Z un
W ind</w>
W ald</w>
Sozi al
Ma sse</w>
Is ra
H ü
H ör
F ische</w>
Drit tel</w>
De press
Bil dern</w>
Be sonder
Aus druck</w>
t in</w>
st olz</w>
spra chen</w>
sor gt</w>
sch o
ma teri
la b
ha n</w>
ak tionen</w>
Wa ffen</w>
To des
Phän omen</w>
Konta kt</w>
He y</w>
Fil me</w>
überra scht</w>
uns icht
perfe kt</w>
m ot
gra ben</w>
ge lassen</w>
ers eits</w>
ein setzen</w>
b ö
Ver häl
V -
TE D
S ie
P ha
Lei stung</w>
Kar ten</w>
Jung s</w>
Jap an</w>
Ge st
Ge fahr</w>
Frie den</w>
Erinner ung</w>
E cke</w>
Ü ber</w>
unter r
ul ti
sta b</w>
ig nor
ger ung</w>
geh ei
for schung</w>
f l
de st</w>
T au
Sy mp
Mu sk
Kon text</w>
In di
D unk
B on
überzeu gen</w>
wei ss</w>
setz ten</w>
masch ine</w>
l ig
l as</w>
gu l
grün det</w>
er hält</w>
be wahr
Sü d
Spie le</w>
Se p
Sat z</w>
H ö
Din osaur
Bru st
Außer dem</w>
tu e</w>
t reiben</w>
sch mer
s ä
mu tter</w>
letz tendlich</w>
krie gen</w>
her unter
haup tsächlich</w>
h un
gestor ben</w>
ch s
bi o
bemer kt</w>
begeist ert</w>
am p</w>
Wahr neh
Tran sp
Poli zei</w>
N an
Identi tät</w>
Gew icht</w>
Gegen teil</w>
wirtschaft lichen</w>
verb racht</w>
r ichtung</w>
näch stes</w>
mög licherweise</w>
mäß ig</w>
interess ieren</w>
hö her</w>
hoh e</w>
h et
drück t</w>
bra chten</w>
bess eren</w>
be geg
b ele
a ss
W ettbewer
Sch wer
Sa mm
Präsi dent</w>
M echan
Kön ig
Fre m
Amei sen</w>
w oo
vor han
un ge
tr u
st ör
m ische</w>
gewis se</w>
gegen sei
för dern</w>
erkan nte</w>
der zeit</w>
V ö
St ar
Sch au
Perspek tive</w>
O x
K üh
Auf gaben</w>
4 00</w>
ü ch
zei ten</w>
ss p
samm elt</w>
s hin
lätz e</w>
jähr ige</w>
inter agieren</w>
g -
ex peri
Spra chen</w>
Sep tem
Or gan
Hand y</w>
Fa ch
F lä
zu bringen</w>
wa gen</w>
versu chten</w>
verhin dern</w>
verantwor tlich</w>
tr itt</w>
t a</w>
su chten</w>
prakt isch</w>
na l</w>
mm etr
lu st</w>
is iert</w>
i -
gesch ickt</w>
führ ten</w>
fot ograf
forder t</w>
el e</w>
ein gesetzt</w>
d einen</w>
brau chten</w>
b ur
N A
Mar k
M I
Her r</w>
H und</w>
Forsch ungs
Er nähr
Al gorith
zäh len</w>
z ung</w>
oh n
nor mal</w>
mod ell</w>
ich ter</w>
gew icht</w>
gef äl
ge habt</w>
f ei
ex u
erzäh le</w>
Tr ot
The men</w>
Stad t
Met ap
Land wirtschaft</w>
K ern
Hinter grund</w>
Forsch er</w>
D en</w>
Bra sil
Br enn
z immer</w>
wel chen</w>
war t</w>
vir tu
unda ment
un gen
sen s</w>
s .</w>
r ichtungen</w>
norm alen</w>
kt or
hunder te</w>
for d</w>
fin gen</w>
di enen</w>
dau ern</w>
at or</w>
Tran s
Tra di
T wi
T herap
Jour n
Gesund heit
Fel d</w>
F l
E ffekt</w>
Ak tivität</w>
wunder bare</w>
wichti gen</w>
sex u
r on
lang wei
ha fte</w>
g äbe</w>
f ru
de mokrat
Zu schau
Ver letz
Spie ler</w>
Septem ber</w>
Schlu ss</w>
S eit</w>
Re de</w>
P ak
Molekü le</w>
F ig
E mo
ähn liche</w>
zu gän
u fen</w>
star ke</w>
sta mmt</w>
irgend etwas</w>
her gestellt</w>
gew and
ge lesen</w>
exis tieren</w>
de ckt</w>
bl au
Kat astroph
Gr enze</w>
G re
Exper ten</w>
überra sch
t h</w>
stän den</w>
p s</w>
lo g
l aut</w>
iz ität</w>
hän gen</w>
hin weg</w>
g ton</w>
eu ert</w>
dopp elt</w>
d ischen</w>
bekan nten</w>
b all
Sy n
K n
K alifornien</w>
Ir gend
Hän den</w>
Fol ge</w>
Ein satz</w>
D ra
Bas is</w>
A ma
zu zu
wen igen</w>
unterschei den</w>
nan nte</w>
mei stens</w>
kt es</w>
il e
gest ern</w>
ger e</w>
er ster</w>
Wa shin
R ät
Ph il
P en
On lin
Lauf e</w>
Komp on
Fol gendes</w>
Er leb
De fin
stel ler</w>
spar en</w>
s weise</w>
nö tig</w>
ne ga
mi k</w>
lich em</w>
kur ze</w>
ent lich</w>
dr in</w>
We sent
W et
Ver sch
St and
K ann</w>
H aufen</w>
Experi mente</w>
C or
Be griff</w>
Öffent lichkeit</w>
wach st
ten de</w>
spe zif
re gi
no chmal</w>
lei ten</w>
il l</w>
g ünst
g la
ent sch
eh men
be kamen</w>
bau ten</w>
Z äh
Schwe ster</w>
Sauerst off</w>
Kre bs
K rise</w>
K lei
Gedan ke</w>
Bild schirm</w>
Be oba
1 7
woh l
wissenschaft lichen</w>
un den
st euern</w>
so mit</w>
norm ale</w>
na h</w>
mis s
lin ge</w>
häuf ig</w>
ho ffent
dr itten</w>
da r</w>
beantwor ten</w>
We bs
Tit el</w>
Sta at</w>
Sch wei
P i
Kre u
I rak</w>
Ge win
Erkenn tnis</w>
Aus ma
ütz t</w>
tra in
sch ien</w>
per fek
le un
kt s</w>
kre bs</w>
iv e</w>
hoffent lich</w>
for m
d ün
besch leun
be grenz
auf hören</w>
at uren</w>
W under</w>
T an
J e</w>
Faceboo k</w>
Beweg ungen</w>
Ander e</w>
wei t
ver letz
schli mmer</w>
re de</w>
p li
kön nt</w>
isch em</w>
i um</w>
ho ffen</w>
grupp e</w>
ern st</w>
ent spricht</w>
e v
d it
brau che</w>
bl ü
bezah lt</w>
aller dings</w>
Z au
Washin gton</w>
Ob wohl</w>
Min ute</w>
Lie d</w>
Kon su
Kom bin
Inter vie
Eigen tlich</w>
Da ss</w>
D rei
Bau m
we s
t isch</w>
spür en</w>
si te</w>
olo ge</w>
o x
ne ur
i denti
ho w</w>
hin ein
er lebt</w>
en ti
der ungen</w>
berei tet</w>
bar er</w>
To il
Schlüss el</w>
Par k</w>
Individu en</w>
Gegen satz</w>
F le
Et was</w>
Engl and</w>
E ch
At om
Al terna
4 5</w>
19 6
zeu gen</w>
wirtschaft liche</w>
ver gleichen</w>
spie lte</w>
schli mm
ru f</w>
ro ten</w>
re präsen
ne ben
mü sste</w>
mu sst</w>
men tieren</w>
ler in</w>
lei tet</w>
k üh
fiz ieren</w>
f ter</w>
el les</w>
den noch</w>
ch em</w>
bewe sen</w>
be u
ag ne</w>
a tion
Vis ion</w>
Telef on</w>
Taus ende</w>
Or ig
Na tionen</w>
Ihr es</w>
Glei che</w>
Gan ze</w>
Fran c
zun ehmen
st he
schnei den</w>
pf el</w>
o k</w>
nie man
er er</w>
en gl
au ff
an geb
an den</w>
Zu hause</w>
Z eh
Wel che</w>
Web site</w>
Wah l
Test s</w>
Ch irur
Ar gu
y c
weg s</w>
un i
sor g
neh mer</w>
n utzt</w>
n ungs
k na
is ieren</w>
gefähr lich</w>
f ährt</w>
et tet</w>
ein iger</w>
ein deu
d liche</w>
bre ch
ben de</w>
bedeu ten</w>
am s</w>
Verhalten s
T ab
S and
Prot ot
Profess or</w>
P fer
Mei len</w>
In nen
Gehir ne</w>
Ex p
Da bei</w>
Bro t</w>
Be sit
wunder bar</w>
verschie den
sich ten</w>
män n
h istor
h and</w>
g igkeit</w>
e d
dis ku
d ische</w>
auf bauen</w>
anal ys
T ur
Sti mmen</w>
Sch ne
Poli tiker</w>
Ne ben
Körper s</w>
J am
Bru der</w>
Bil li
3 5</w>
1 50</w>
1 0.000</w>
um ge
to t</w>
schu le</w>
qu enz</w>
p fe</w>
n a</w>
kom bin
it zen</w>
füh l
er kennt</w>
er finden</w>
ent standen</w>
auss a
Zeit alter</w>
T ö
Schmer z</w>
S A</w>
R ahmen</w>
P ra
Mü tter</w>
Mon d</w>
M os
Kind heit</w>
K ein</w>
wei b
vertr auen</w>
stud ieren</w>
star ten</w>
sel ten</w>
k ri
i ma
gr ö
genau er</w>
fäh igkeit</w>
ent worfen</w>
en k</w>
ber n</w>
an ten
W ieso</w>
Ver stand</w>
Ru ss
R oh
Metho den</w>
Gebur t</w>
G anz</w>
Entdeck ung</w>
Ele fan
Ein druck</w>
B om
Augen blick</w>
A ffen</w>
sch we
redu zieren</w>
r ig
r aus
oh nt</w>
mög lichkeiten</w>
mo tiv
mar k
ken nung</w>
ger ät</w>
ff er
ech tigkeit</w>
bein hal
ba t</w>
ak tiv
Progra mmi
Produ k
Na ja</w>
Galax ien</w>
G al
Ein s</w>
ö konom
wahr e</w>
verbra chte</w>
rei sen</w>
re ag
pflan zen</w>
k rank</w>
iv e
is ierung</w>
hör e</w>
ersch einen</w>
ch tete</w>
besch lossen</w>
Teil chen</w>
Schimpan sen</w>
Nach dem</w>
N i
Hin sicht</w>
Gemein den</w>
Gel d
Gan g</w>
F lie
Ep ide
Ele mente</w>
AID S</w>
2 1.</w>
2 ,
1 7</w>
zun ächst</w>
verbrei ten</w>
sätz e</w>
spr ingen</w>
schwar ze</w>
pp t</w>
pf lich
p ot
p ha
olog isch</w>
natür lichen</w>
lust ig</w>
kur r
h ielten</w>
ger ei
ele v
b lieb</w>
ah e</w>
ab il
W ie
Vor teil</w>
T im
Sp ei
Rich ard</w>
Netzwer ke</w>
L ern
Kno chen</w>
H on
H om
Gra f
Ge sam
Fol gen</w>
D oll
CO 2</w>
B aum</w>
Arbei ten</w>
An sicht</w>
5 .000</w>
ung ssystem</w>
tot al</w>
teri um</w>
sch üt
or ien
on t</w>
m bo
län der</w>
in k
in a</w>
h ir
en heit</w>
defin ieren</w>
d ran</w>
Produ ktion</w>
Onlin e-
Nor den</w>
Le bewesen</w>
Kor rup
Is la
Erei g
Deta ils</w>
Buch sta
ä den</w>
Ä gyp
z elle</w>
y n
wo bei</w>
wei s
verschwin den</w>
ti s</w>
t an</w>
spie ler</w>
s kop</w>
mor gens</w>
medizin ische</w>
kur zen</w>
kur zem</w>
ie len</w>
icht en
hal b
gi ge</w>
ger in
geh end</w>
da m</w>
d yna
bedeu t
b and</w>
an a</w>
a tive</w>
Z er
Stra ßen
S ein</w>
Organis men</w>
I l
Gener ationen</w>
Ge sich
Fla g
Fak ten</w>
Ent fer
A spekt</w>
zeh n
y se</w>
st ro
ord nung</w>
mu ster</w>
ma t</w>
le gte</w>
kür zlich</w>
hy th
hei ßen</w>
hal be</w>
gesch lagen</w>
ge ändert</w>
fre m
d eh
bei spiel
Z w
Per sön
Na tion</w>
Medika ment</w>
K räfte</w>
I mm
Häu ser</w>
Har v
Funk tion</w>
Fr ü
Deu tsch
Be ste</w>
Arbeit sp
zu frie
wech seln</w>
un ken</w>
t äu
sy steme</w>
sol ch</w>
ro t</w>
persön lich</w>
m es</w>
m and</w>
ka l</w>
k ö
gri ffe</w>
el ben</w>
c ro
V öl
R oll
N iger
Liebling s
La chen</w>
Hall o</w>
H ol
Che mik
Bei m</w>
An gel
vo n
ver st
stär ker</w>
st opp
rela tiv</w>
mei ste</w>
in tegr
i ko
e ur
dr üben</w>
bie tet</w>
beschäf tigen</w>
beoba chtet</w>
b all</w>
angen eh
Wei le</w>
Vor fahren</w>
Tr äume</w>
T or
T on</w>
Sicher heits
Schri ft
H yp
H al
Be weise</w>
ö s</w>
Über ra
te ure</w>
t euer</w>
st ür
st on</w>
plat z</w>
n etz
m ie
kt ur
ing -
h or
er ung</w>
ehr t</w>
besch loss</w>
S icht
Rät sel</w>
Nation al
M ehr</w>
Emo tionen</w>
Co de</w>
Au ssa
z ige</w>
wer ke</w>
u lation</w>
ten den</w>
t y</w>
n icht-
m ale</w>
kan nte</w>
in dustrie
i b
h a</w>
grundle gende</w>
e d</w>
de cken</w>
ch a
berühr t</w>
bed roh
We b</w>
S ha
Lin ien</w>
Land schaft</w>
Je mand</w>
Imp f
H un
Fäl le</w>
Er krank
Er klärung</w>
Entwicklungs ländern</w>
Brasil ien</w>
zerstör t</w>
verbin det</w>
un gewöhn
tradition ellen</w>
tel le
sp a
se ssen</w>
mm ern</w>
m alen</w>
je kt</w>
ier ter</w>
ges und</w>
ft ung</w>
er scheint</w>
den falls</w>
dan ken</w>
bli othe
an wenden</w>
an ti
Zit at</w>
Verhäl tnis</w>
S ech
Plat t
Mis sion</w>
K ern</w>
In n
E ss
D rei</w>
D on
C y
B ö
trau r
ti al</w>
t nisse</w>
enor me</w>
e st</w>
di o</w>
des wegen</w>
bewe gung</w>
ah n
Wi k
Wahrneh mung</w>
Schu tz</w>
R ak
Mit arbeiter</w>
Kon sequ
Kl ein
G ar
Dro gen</w>
Bet t</w>
Ber echn
Austr alien</w>
zerstör en</w>
zei gten</w>
z ten</w>
wirk ung</w>
un er
pu bli
on -
mp e</w>
lie fern</w>
f ein
aufzu bauen</w>
auf gebaut</w>
an nehmen</w>
St ör
Schwier igkeiten</w>
S ob
R ies
Qu elle</w>
Nachbar n</w>
M S</w>
Komm ent
I ran</w>
Freund in</w>
Archit ekten</w>
An rei
wir r
ver stand</w>
prü fen</w>
komplex e</w>
k es</w>
in dustrie</w>
i p</w>
fur cht
f ir
er stellt</w>
be teil
b ahn</w>
ah l</w>
Wor l
Wer bung</w>
Vor stell
Tim es</w>
Stro m
Sp ektr
Plan et</w>
Pin gu
Ph ys
O h
M und</w>
M aus</w>
Hig h
G ü
G ro
Fahr ra
Deutsch land</w>
B ur
Ar men</w>
äu se</w>
ähr en</w>
wor über</w>
v el</w>
tran spor
schle chter</w>
schle chten</w>
ograf ie</w>
notwen dig</w>
mei st</w>
k ün
k ungen</w>
k tionen</w>
gef ahr
brei tung</w>
br il
bl auen</w>
b ungen</w>
as i</w>
ap p
Sch il
S eine</w>
Ph ilosoph
Pati ent</w>
Maß stab</w>
M erk
Lei st
Ged icht</w>
Er war
Elektr izität</w>
Bü ro
Boo t</w>
B all
wi n</w>
wesent lich</w>
wa hl</w>
ver mitteln</w>
ver da
un abhängig</w>
tik a</w>
s kop
ra tion
mü ssten</w>
lan den</w>
k n
it t
is co</w>
ge d
g o</w>
g o
fol gende</w>
erwäh nt</w>
be ziehen</w>
ar tige</w>
an gesehen</w>
Um feld</w>
T en
Situ ationen</w>
Sch ool</w>
Re d
Prä sent
Mex iko</w>
Kult uren</w>
Korrup tion</w>
Ge m
Berei chen</w>
Berei che</w>
Bau ern</w>
Au ßen
An wen
A to
1 6
z ierte</w>
west lichen</w>
versor gung</w>
verfüg bar</w>
unterschie dlich</w>
t heit</w>
su che</w>
s ingen</w>
s ichtlich</w>
s heit</w>
pro ble
or gan
o va
mensch licher</w>
lan ger</w>
ge wissen</w>
entde ckte</w>
d o</w>
ch ter
berei ch</w>
So gar</w>
Sch lie
Gesprä ch</w>
Führ ungs
For t
Doll ar
Dinosaur ier</w>
Bil l</w>
Ausma ß</w>
ü hren</w>
zu sätz
win den</w>
wa chen</w>
ver ein
te x</w>
t .</w>
schla fen</w>
s h</w>
ma ß
m olek
grün den</w>
ger ichtet</w>
gen ü
gegen wär
ge beten</w>
erkan nt</w>
er gibt</w>
el li
ck sa
cht es</w>
be völker
Zwe ck</w>
Vö gel</w>
U -B
Temper atur</w>
Stre ss</w>
Se e</w>
Sch lei
Neu es</w>
Nation al</w>
Lan g
La den</w>
J an
F leisch</w>
Dro gen
Ber g
Be sch
nütz lich</w>
mer ken</w>
inspir iert</w>
ge spielt</w>
ge ment</w>
er setzen</w>
er mu
ch teten</w>
bau te</w>
b te</w>
Z immer</w>
Stu fe</w>
Spe zi
M el
Ker l</w>
Gewe be</w>
Da mals</w>
Ar me
2 .</w>
zü glich</w>
zugän glich</w>
wissenscha ften</w>
wachst um</w>
vermei den</w>
verbess ert</w>
unter sucht</w>
statt dessen</w>
qu asi</w>
persön liche</w>
kl et
hal t
ha ften</w>
h ie
gewor fen</w>
ar men</w>
ah l
Y ou
Telef on
Te en
Mikro ben</w>
Medi en
In sel</w>
Her r
De bat
Au ss
wel chem</w>
vor ne</w>
ver teilt</w>
trin ken</w>
ter in</w>
persön lichen</w>
l in</w>
grupp en</w>
ent stand</w>
c i
best and</w>
bein ahe</w>
an en</w>
a da</w>
Vir en</w>
Un gleich
Strate gie</w>
Ris iken</w>
Ex istenz</w>
Diskuss ion</w>
Br ü
Bed roh
Be weis</w>
übr ig</w>
ul pt
sol cher</w>
on y
n de</w>
mat ischen</w>
lang fris
kra ft
in tensi
i tionen</w>
hin ten</w>
ge sp
e sen</w>
bekan n
be suchen</w>
am i</w>
all en
W ech
Ver besser
V al
U N
Rück en</w>
Qu anten
Oper ation</w>
In halt</w>
Col lege</w>
Br ücke</w>
B un
Au ft
Ab schluss</w>
wi d
ver steht</w>
unterstütz t</w>
stär k
stra te
re alen</w>
r elev
qu alität</w>
p on
ner v
mp f</w>
mp f
lok alen</w>
kompli ziert</w>
h ül
flä chen</w>
feh l
er ei</w>
dunk le</w>
dig lich</w>
di ent</w>
ck en
ber eiten</w>
bekan nte</w>
Wesent lichen</w>
Vol k</w>
T onnen</w>
Stra h
Lei der</w>
In dustrie
Gu tes</w>
Flü cht
Erinner ungen</w>
Defin ition</w>
Ander son</w>
zusammen zu
wei le</w>
vertr aut</w>
sy n
st rei
seit dem</w>
rit ten</w>
p ien</w>
mp en</w>
leben den</w>
kol lek
iz iert</w>
ic ag
gesell schaft
fül lt</w>
est er</w>
erstaun liche</w>
durchschnit tliche</w>
bl in
b ür
au en
Z ell
Re zep
Isra el</w>
H eu
F euer
Ch icag
än gst
zö s
ver stehe</w>
tr ieb</w>
produ k
per son
moder ne</w>
ma ten</w>
lö sung</w>
k al
hör ten</w>
ge legt</w>
g ö
fü gt</w>
elektr on
eindeu tig</w>
digit alen</w>
dar stellen</w>
bra ch</w>
beinhal tet</w>
at t</w>
Unterneh mer</w>
St au
Sp re
Sp ort
N ieder
MI T</w>
H i
Gegen d</w>
Galax ie</w>
Ein heit</w>
Dan ach</w>
Charak ter</w>
Aut or
An wendung</w>
ß end</w>
wei st</w>
un geh
ti gten</w>
spru ch</w>
p p</w>
o g</w>
mik ro
mein te</w>
m -
kar te</w>
internation alen</w>
hr op
h öh
ger ufen</w>
gen der</w>
fest stellen</w>
fahr t</w>
f undament
erh ielt</w>
ben den</w>
be weisen</w>
b lichkeit</w>
b ir
Wü ste</w>
T eu
Spra ch
Sch reib
Konfli kt</w>
Kombin ation</w>
Groß mutter</w>
Gr ü
Gesundheits wesen</w>
Ge mü
Ech tz
Dien st
D utz
9 9</w>
19 .</w>
ö k
z is
vorhan den</w>
vor zustellen</w>
sp i
schau ten</w>
p ft</w>
ment an</w>
le diglich</w>
k räfte</w>
ho ff
ge gründet</w>
ent hält</w>
effek tiv</w>
dau ern
dan k</w>
dan k
br ü
be sagt</w>
auf s</w>
auf nehmen</w>
Zivilis ation</w>
S kla
Pf ei
Kamp agne</w>
Gen om</w>
Geh en</w>
Er inn
Ein stein</w>
E v
Dar um</w>
Bedürf nisse</w>
An teil</w>
A stron
y mp
wen det</w>
tra fen</w>
tel ef
t oll
sp ät</w>
schwi mmen</w>
schein bar</w>
sau ber
h na
gefäl lt</w>
ge lebt</w>
g ni
fantast isch</w>
ex tre
eu r</w>
entfer nen</w>
ein gesch
e a</w>
dar unter</w>
d omin
d iert</w>
d eln</w>
aus gest
aufre gend</w>
a den</w>
Wohl stand</w>
Ver b
Stär ke</w>
Pf und</w>
Oze ane</w>
Ner v
L at
Geheim nis</w>
G et
D roh
D er
Ar z
über nehmen</w>
äuß erst</w>
zäh lt</w>
z eln</w>
wirk lichen</w>
wirk liche</w>
ver r
ver größ
urop ä
ter weise</w>
t op
t dessen</w>
so viel</w>
sei d</w>
schreck lich</w>
sa ßen</w>
rei che</w>
mög lich
mis sionen</w>
ko gni
imm er
gemein same</w>
g eist
ar me</w>
ar m</w>
agno st
a rab
Zuschau er</w>
Wür de</w>
Webs eite</w>
W äl
Statis tiken</w>
Stat tdessen</w>
Sob ald</w>
Poten tial</w>
Nach hal
La sst</w>
Krei s
G at
Frie den
Ein en</w>
Dia gramm</w>
Des wegen</w>
Chemik alien</w>
Bi bliothe
Ber g</w>
B ri
B or
A spek
200 8</w>
1 1.</w>
über winden</w>
wei ßen</w>
veränder te</w>
ver blü
ver ab
t um</w>
ro te</w>
posi tive</w>
ograph ie</w>
lin ie</w>
lich ste</w>
la sse</w>
l iger</w>
kehr t</w>
je wei
j unger</w>
i tik</w>
hin zu</w>
hier her</w>
ge ber</w>
beein druck
Wo w</w>
T rä
Sch ö
Li ter
L ü
Jam es</w>
Informa tions
Ge orge</w>
Erfin dung</w>
B lat
z ir
la chen</w>
k us</w>
internation ale</w>
inn ova
gere gt</w>
fro h</w>
f lex
f isch</w>
et h
blau e</w>
aus gesetzt</w>
ats äch
ak u
V i
T ä
Sü den</w>
St rei
Schat ten</w>
R hyth
O b</w>
Mo mente</w>
Mit t
Her ren</w>
Grund lage</w>
Ged äch
Gebur t
Franc isco</w>
E d
Dimen sionen</w>
Buchsta ben</w>
Aktiv itäten</w>
- F
än ge</w>
ähn lichen</w>
Ä hn
wär mung</w>
verwand elt</w>
ver brauch</w>
spr ung</w>
schri ft</w>
sa chen</w>
or s</w>
man chen</w>
los igkeit</w>
leist ungen</w>
krei eren</w>
kl ar
i den</w>
großar tigen</w>
glaub te</w>
gesch n
gefahr en</w>
ge we
funktion ierte</w>
feh lt</w>
erhöh en</w>
best ä
besch rieben</w>
b y</w>
b lu
b eln</w>
ah nen</w>
Wei hna
W en
Ver g
St off
Sk ulpt
Schla f
Progra mme</w>
Pau l</w>
Nor mal
N äch
Mich a
Mehr heit</w>
Kur s</w>
Jahrzeh nt</w>
G P
Bild ungs
A ben
6 00</w>
1 4
zentr um</w>
ver gan
t atsäch
su b
schwier iger</w>
mensch liches</w>
lieb te</w>
ive au</w>
hei sst</w>
gegensei tig</w>
faszin iert</w>
f lüss
et c
enor m</w>
en ga
dies elben</w>
bevölker ung</w>
akzep tieren</w>
Vo gel
T un
Süda frika</w>
Su b
Ste ve</w>
Pap ier
Kü ste</w>
Krie gs
Klass enz
Kaffe e</w>
Jahrzeh nten</w>
Innov ationen</w>
Il lu
Gi bt</w>
Gem äl
F rank
Ein stellung</w>
An ge
A gen
7 5</w>
zah l
weiter er</w>
vie les</w>
ver mögen</w>
unk ten</w>
tran s
telle ktu
sto ßen</w>
schau e</w>
s ig
ran g</w>
r a</w>
om ie</w>
nie der
medizin ischen</w>
kri min
kon fron
i len</w>
ge tragen</w>
dau erte</w>
da hinter</w>
bli cken</w>
bemer ken</w>
be züglich</w>
b iert</w>
an nt</w>
Wirk lich</w>
W ann</w>
Twi tter</w>
Tr en
Sat elli
R an
Plast ik
Nor da
Ma ga
Le ktion</w>
Ken ia</w>
Gl as</w>
Gesich ter</w>
Geräu sch</w>
Gebie te</w>
Fol ie</w>
Erd be
D ie
Bel oh
B lin
z err
vor bei
unglaub lichen</w>
sto ffen</w>
sichti g</w>
sel be</w>
schrei bt</w>
schlu g</w>
prof ess
mei ster</w>
liefer t</w>
hin aus
grü nen</w>
fül len</w>
för mi
ex plo
erweiter n</w>
echn ologie</w>
be komme</w>
ar tig</w>
W är
Vor teile</w>
Vor her
Sta ats
Sign ale</w>
Se ele</w>
Schla g
Sch ritte</w>
Richti g</w>
Na se</w>
Men gen</w>
K reis</w>
Interess an
Harv ard</w>
D et
Ach se</w>
A ss
19 5
ment s</w>
la ss</w>
k el
jen er</w>
it är</w>
ier tes</w>
g keit</w>
fass ung</w>
etz en</w>
etc .</w>
einfa ch
ei en</w>
deu t
c yc
ber ichten</w>
be w
be sitzt</w>
b r</w>
an genommen</w>
a d</w>
Wirt schaft
Wirk ung</w>
Wil d
Ver ein
Stu hl</w>
Sch le
Re chte</w>
R et
N ah
Metap her</w>
Kir che</w>
K lu
Inter aktion</w>
Hel den</w>
Gu te</w>
Fortsch ritte</w>
Da ch</w>
Best and
Ö kon
zw an
y a</w>
wer k
verk auf
str ö
pro bieren</w>
o me</w>
n den</w>
men ge</w>
leich ter</w>
le i</w>
la tionen</w>
i Ph
frü her
fal schen</w>
c on
besser es</w>
auto matisch</w>
an sieht</w>
al a</w>
Unter r
Tex t</w>
Säu ge
Ph ot
Mis s
M ül
K le
Ju gend
Bli ck
B I
1 .
0 0
woh n
will st</w>
wei ße</w>
taus enden</w>
so was</w>
si ve</w>
mi c
grund sätzlich</w>
geb rochen</w>
e se</w>
der er</w>
dar gestellt</w>
besch rän
behaup ten</w>
b om
at men</w>
ar ia</w>
an fing</w>
Zun ächst</w>
Z erstör
Wei b
Vor stellungen</w>
Ver lust</w>
Sig nal</w>
S and</w>
Män nchen</w>
Hyp othe
Hin der
H andel</w>
Ger echtigkeit</w>
Gegen wart</w>
Durch schnitt</w>
Da zu</w>
Da für</w>
Char les</w>
CO 2-
Auf nahme</w>
Ama z
20 10</w>
ück sichti
über legen</w>
un ver
un ruh
um geben</w>
te mp
star ben</w>
spra che</w>
r ein
organis ieren</w>
is ol
ig ung</w>
ge braucht</w>
et ing</w>
durch zu
beispiel sweise</w>
bei bringen</w>
aus e</w>
Zau ber
Wettbewer b</w>
Tradi tion</w>
Sk el
S or
Prinzi pien</w>
Oh ne</w>
Niger ia</w>
Mi cro
M r
Lö cher</w>
Gemein schaften</w>
Da men</w>
Billi onen</w>
Ban k</w>
Angel es</w>
überrasch end</w>
wo für</w>
wir ft</w>
unter en</w>
sch utz
r et
p rei
p h</w>
n ett</w>
materi al</w>
m el</w>
le be</w>
kompli zier
interessan ter</w>
e uropä
durch führen</w>
digit ale</w>
d ent
aufge wachsen</w>
al -
Wel ten</w>
W h
Tie f
Terror ismus</w>
Stamm zellen</w>
St ücke</w>
Re spekt</w>
Pha se</w>
O l
O kt
K lang</w>
Instru ment</w>
Hei mat
F ru
Er st</w>
Be su
Afrik as</w>
wissenscha ft</w>
war f</w>
verk nü
um s
t he</w>
qu elle</w>
p en
o l</w>
mü h
moral ische</w>
lö st</w>
lok ale</w>
it i</w>
ing ern</w>
gew alt
gesam t</w>
fäl len</w>
ent halten</w>
edi a</w>
e wi
ch ron
bo den</w>
bemer kte</w>
and a</w>
afrik anischen</w>
Untersuch ung</w>
T ho
T -
St euer
Sch ätz
S an
Russ land</w>
Resul tat</w>
Part ner
Kli ma</w>
Kan ada</w>
J on
In ner
Graf ik</w>
G arten</w>
Chicag o</w>
An ima
zwei mal</w>
zi al</w>
ver lo
v it
um m</w>
tr ieben</w>
to p</w>
spei ch
selt sam</w>
schwar zen</w>
phys ikal
mutz ung</w>
mit glie
kor re
ität s
in for
ig stens</w>
ig ste</w>
hei ra
gesch aut</w>
ger en</w>
gemein samen</w>
gehol fen</w>
ge t</w>
ff en
dau er
bi ologische</w>
be sorgt</w>
au st
arbei tung</w>
Zu fall</w>
The ater</w>
Regier ungs
Präsent ation</w>
Nutz ung</w>
Mär kte</w>
Mo tiv
Ma ma</w>
M ulti
Di re
D au
C ra
B rie
B au</w>
Aussa ge</w>
An nahme</w>
Ab sicht</w>
1 .000</w>
tier ung</w>
stän dige</w>
star ken</w>
spez iellen</w>
sp on
sogenan nte</w>
ord in
lu s</w>
komplex en</w>
k rä
ic a</w>
h l
gi f
genü gend</w>
g ol
for mt</w>
faszin ierend</w>
ein iges</w>
antwor tete</w>
Zeit ung</w>
Zah n
Z ur
V oll
Unter haltung</w>
Schlüss el
Schlie ßlich</w>
Mal aria</w>
Kamer as</w>
Dar stellung</w>
DN A-
A bl
woh er</w>
wand eln</w>
veröffent lich
t ent
t al
sol ange</w>
selbst verständlich</w>
perfek te</w>
p en</w>
o zi
o gen</w>
na he
minis ter</w>
kontroll iert</w>
ie -
her vor</w>
geh ens
dar stellt</w>
be weg
ba ma</w>
Wör ter
Worl d</w>
Wil l
Wik ip
Vorstell ungskraft</w>
Versu che</w>
Ver wand
T reib
Restauran t</w>
P y
Nerv enz
Mu t</w>
Micha el</w>
Ma gie</w>
Kor allen</w>
In spi
Hol z
Größ en
F ün
Erleb nis</w>
Epide mie</w>
Di al
C an
Be vor</w>
B ein</w>
An statt</w>
Är a</w>
wün schte</w>
r en
pa z
off enen</w>
no mmen</w>
nation ale</w>
mu lation</w>
le gten</w>
konzentr iert</w>
kon su
ken nen
ka de
i o</w>
h um
h i</w>
gew iesen</w>
ge teilt</w>
fu hren</w>
fol genden</w>
betr ieben</w>
Sti mm
Regi onen</w>
R äume</w>
Pak istan</w>
Mü ll</w>
Mus li
Molekü l</w>
Lap top</w>
K i
J un
Ereig nisse</w>
Erei gnis</w>
Entfer nung</w>
Debat te</w>
Bun des
Be wer
Aus stellung</w>
Au ff
Ar me</w>
A rab
200 7</w>
0 ,
z z
wis st</w>
war tet</w>
ver steckt</w>
unter richten</w>
un abhän
tä glichen</w>
teil weise</w>
t ü
stopp en</w>
profess ion
p lan</w>
o te</w>
nan nten</w>
na chts</w>
ma tik</w>
lei stung</w>
lang samer</w>
la sst</w>
ka mer
i tiv</w>
hal f</w>
gen heiten</w>
frei e</w>
e k</w>
bü cher</w>
beteil igt</w>
be zeichnen</w>
an st
an hand</w>
You Tu
Vier tel</w>
Sch alt
Sc ien
S ens
Lebens mittel</w>
Jahrzeh nte</w>
Hunder te</w>
Hig h</w>
Geräu sche</w>
Ger ü
Erwachsen en</w>
Che mie</w>
At lan
är m
zusammen arbeiten</w>
vor bereitet</w>
von einander</w>
verschw unden</w>
ver glichen</w>
tr ug</w>
te ur
o .</w>
nach gedacht</w>
k apit
is la
gan da</w>
g h</w>
et er
en en
ehr en</w>
e te</w>
drück e</w>
dr it
dr in
cksa l</w>
bil det</w>
bet reiben</w>
beh ör
au spro
at oren</w>
a kt</w>
a ch
We gen</w>
Spie gel</w>
Schi cksal</w>
S h
R and</w>
Kontin ent</w>
Hand ys</w>
H unger</w>
Ge f
F liegen</w>
Durch schnit
DN S</w>
Chan cen</w>
Bo ston</w>
Bl ät
Bevölker ungs
Anti bio
An geb
Über leben</w>
zufrie den</w>
z ierten</w>
y woo
w n</w>
ur m</w>
ung st
sprech end</w>
sicht bar</w>
schri ften</w>
sch il
reag iert</w>
re par
oll ywoo
n end</w>
kla sse</w>
kap ut
i x
gro sse</w>
glück licherweise</w>
für s</w>
ff er</w>
fahr er</w>
einfa ches</w>
dr ingen</w>
do ku
br icht</w>
Ver breitung</w>
Univers ity</w>
Re publi
O hren</w>
Nul l
NA SA</w>
Mu tter
M au
Kön ig</w>
In iti
Groß e</w>
Gen au
Fa ktor</w>
Ele ment</w>
Dunk el
Compu tern</w>
Cha os</w>
B in
Arme e</w>
10 0.000</w>
wür dig</w>
wes halb</w>
wei ch
tra t</w>
syste ms</w>
st ill</w>
schein end</w>
re al</w>
p unkte</w>
op f</w>
om etr
m te</w>
m ob
lei hen</w>
komp lex</w>
ha m</w>
genet ische</w>
gek auft</w>
gebie t</w>
der selben</w>
c m</w>
br ennen</w>
begeg nen</w>
Wer k</w>
Te ams</w>
Stat us</w>
Qu ellen</w>
Par k
P ho
Mi o.</w>
Liter atur</w>
Krie ges</w>
Kra ft
In fek
Ent schul
Dia be
Auf nahmen</w>
wen igstens</w>
welt weiten</w>
veröffent lichen</w>
vergan genen</w>
verdi ent</w>
ver wirr
un mittel
ul ieren</w>
spe kt
redu ziert</w>
o ssen</w>
neu gier
mis st</w>
mis mus</w>
mbo l</w>
m y
leist ungs
la ss
ko s
k ette</w>
irgend eine</w>
ins besondere</w>
glaub ten</w>
flu ss
f ran
f liegt</w>
erhöh t</w>
enga g
e sten</w>
ck -
chem ische</w>
ar tigen</w>
an schaut</w>
an geht</w>
Win d
We st
Ver w
Ver tei
Schwe den</w>
Sch wel
Quad rat
Prot eine</w>
Poten zial</w>
N icht-
N at
Mus iker</w>
Ha t</w>
A l</w>
über qu
Öko system</w>
wissenschaft ler</w>
u e</w>
ti er</w>
t tern</w>
ster s</w>
posi tiv</w>
ne y</w>
mm a</w>
mittel s</w>
k ung</w>
k ein
ir e</w>
in tellektu
häu ser</w>
grü ne</w>
gesch ä
genie ßen</w>
for dern</w>
fol gendes</w>
feh len</w>
e e</w>
dru ckt</w>
dig es</w>
d i</w>
bin den</w>
be wirken</w>
be sessen</w>
aus einander</w>
ath ie</w>
ab stra
Zei traum</w>
St ein</w>
Ries en
Re gen</w>
Op ti
Mil itär</w>
Ma chen</w>
Klei dung</w>
Kapit el</w>
K ab
I t
Got tes</w>
Frank reich</w>
Flä che</w>
Fa st</w>
F lüss
Echtz eit</w>
E-Ma il</w>
Depress ion</w>
D ör
D yna
Chr ist
Aspek te</w>
200 5</w>
zw ungen</w>
wor auf</w>
wer ten</w>
vers orgen</w>
tie fer</w>
ta g
stand s
sen s
sel ten
schlie ßt</w>
s ur
mehr eren</w>
leh nen</w>
in n</w>
ig te</w>
ie gen</w>
hei len</w>
h en
gr au
gewis ser</w>
erneu t</w>
defin iert</w>
brei te</w>
be enden</w>
an gehen</w>
Zerstör ung</w>
Ver brechen</w>
St ä
Sonnen licht</w>
Schul d</w>
Pri v
Nul l</w>
Mitt ler
Kur ve</w>
Konsequ enzen</w>
J os
Inter essen</w>
Instru mente</w>
Hil fs
H üh
Gra s</w>
Gol f</w>
Gesch enk</w>
Gesam t
Gemäl de</w>
Führ ung</w>
Flag ge</w>
Fil m
Fan ta
Do ku
Cy ber
Blat t</w>
Ben utz
Arbei ter</w>
Ägyp ten</w>
Ä l
zü ge</w>
wor an</w>
wei ßt</w>
wech sel
ver stär
ver g
v ierte</w>
unter wegs</w>
uni ver
ta te</w>
ster o
st ir
sa b
merik as</w>
man ip
län e</w>
leben dig</w>
kü ste</w>
kosten los</w>
je k
j u
isch ung</w>
irgend jemand</w>
hinzu fügen</w>
hie ß</w>
gi k</w>
gest ar
en ergie</w>
ein st</w>
aus ch</w>
auf geregt</w>
Wil len</w>
Wikip edia</w>
V en
Teil nehmer</w>
Sicht weise</w>
Ne w
Lebens erwar
Le vel</w>
Koh le</w>
Ingenie ure</w>
Gew inn
Frei wil
Elefan ten</w>
E i
Dar win</w>
An führer</w>
5 0.000</w>
über wäl
ön t
wur f</w>
wis chen
wieder holen</w>
war d</w>
verursa chen</w>
verl iert</w>
un ehmen</w>
ssen dlich</w>
sp err
schw an
s eins</w>
re f
prof i
nieman den</w>
mäch tig</w>
mo mentan</w>
ma sse</w>
len ken</w>
leben de</w>
k rise</w>
k alt</w>
it ut</w>
gar an
g ül
fer n
ex pon
erfor scht</w>
elektr ische</w>
einge laden</w>
den heit</w>
c y</w>
ber ücksichti
bedeu tete</w>
be sie
bas ierend</w>
b it
W under
Ver stehen</w>
Ver kehr
Tie fe</w>
Sy mmetr
Stu dent</w>
Sp ort</w>
Pf le
Ner ven
Kapit al</w>
Inspi ration</w>
In seln</w>
Gefän g
Gebäu den</w>
Geburt stag</w>
Erwar tungen</w>
Erwachsen e</w>
De cke</w>
B G</w>
Algorith men</w>
Al ler
A stero
- C
Ü br
zusammen ge
zunehmen d</w>
wo von</w>
ver ste
v iert</w>
umzu gehen</w>
spez iell</w>
sp äten</w>
schwier ige</w>
schie ßen</w>
sch rieben</w>
sch ar
rü stung</w>
ol er
mar k</w>
ler nten</w>
lei b
kon ta
j ung</w>
höher e</w>
hinter lassen</w>
gi gen</w>
getr ennt</w>
gesell schaft</w>
g sten</w>
fün f
f ische</w>
en g</w>
dra h
d einer</w>
c t
bil der</w>
be zeichnet</w>
Zwei fel</w>
W ellen</w>
St and</w>
Schri ft</w>
Schla f</w>
Schi ff</w>
Sa gen</w>
S oll
Re aktionen</w>
R ichtungen</w>
Pr ü
Par is</w>
M ent
Kri min
Klassenz immer</w>
Isla m</w>
I mmer</w>
H unde</w>
H olz</w>
Fo kus</w>
Fa ktoren</w>
Entdeck ungen</w>
Bru st</w>
B all</w>
A sien</w>
2 1</w>
1 000</w>
zu geben</w>
vor sichtig</w>
vol les</w>
tig keiten</w>
stre ben</w>
spez ielle</w>
schlä ge</w>
re gul
plan en</w>
or e
letz ter</w>
k a</w>
izi enz</w>
ger ettet</w>
ger ech
genet ischen</w>
ern ähren</w>
er he
er geben</w>
er fassen</w>
entscheiden d</w>
einge führt</w>
eigen tliche</w>
dreh te</w>
dr auf</w>
brei ten</w>
bla u</w>
beg reifen</w>
be unruh
be suchte</w>
ander s
al ist</w>
Zu cker</w>
Z y
Wa gen</w>
Ver lauf</w>
Un s</w>
Trot zdem</w>
Tre ffen</w>
Tho mas</w>
S how</w>
R ot
R os
R I
Mobil telef
La ger</w>
L auf</w>
Heu tzutage</w>
Gewin n</w>
Geschä fte</w>
F ett
Erinn ern</w>
Elektr on
E th
Chin esen</w>
Beru f</w>
Anal yse</w>
Ab ent
A dam</w>
ätz e</w>
Überra schung</w>
zieh ung</w>
z ün
wunder baren</w>
v ater</w>
v an
stud iert</w>
st ation</w>
sen det</w>
seh t</w>
samm lung</w>
p reis</w>
ox id</w>
ober en</w>
na ja</w>
n d</w>
mb ol
lehr en</w>
le s
kauf te</w>
isch -
hunder t
hei m</w>
har te</w>
gs -
grundle genden</w>
gro ss
fo kuss
er re
en er</w>
e volution
e mal
den s</w>
d einem</w>
chn ungen</w>
bl ind</w>
a cht
Zei ch
Wol ken</w>
Win ter</w>
Wer be
W itz</w>
Vo gel</w>
Un ter</w>
The orien</w>
Syste ms</w>
Schu he</w>
Sch utz
Ro bert</w>
Prot o
Normal erweise</w>
N ähr
Medi zin
Kor allen
Jan u
Gol d</w>
Gegen den</w>
G en</w>
Einfa ch
Ar t.</w>
200 9</w>
0 0.000</w>
zeich nungen</w>
vor hin</w>
ver trau
schön es</w>
sam es</w>
pa ra
organis iert</w>
mitt elt</w>
met ho
lin ien</w>
kl op
it e
invest iert</w>
herap ie</w>
hei ß</w>
g ungen</w>
expon ent
eig net</w>
drei dimension
d ler</w>
cht um</w>
c e-
beh err
aus geben</w>
auf nahme</w>
Ziv il
Wah len</w>
Un fall</w>
U .
T in
Sy mbol</w>
So ur
Schi ff
Sa al</w>
Proble ms</w>
Platt form</w>
Plast ik</w>
Phys iker</w>
H öl
Gl üh
Gesch ma
Gan zen</w>
G han
Fr auen
Ernähr ung</w>
Dunkel heit</w>
Denk weise</w>
Bi enen
Beh in
Bedroh ung</w>
B and</w>
Aus wahl</w>
An gele
ät te</w>
zentr ale</w>
win kel</w>
ver folgt</w>
ung ss
traur ig</w>
techn ischen</w>
sta at</w>
schu tz</w>
scho ck
ro vis
ph en</w>
ob el
mul ieren</w>
mach st</w>
leu chten</w>
it er</w>
interessan ten</w>
ier ungs
ho f</w>
her unter</w>
gro ssen</w>
ges unden</w>
flie ßt</w>
fa ch</w>
den selben</w>
be vorzu
be kämpfen</w>
anzu sehen</w>
Welt krieg</w>
Wei sheit</w>
Su ch
Sta at
Psych ologie</w>
Proje kten</w>
Na cht
N iveau</w>
Lebenserwar tung</w>
Inner halb</w>
Fabr ik</w>
F al
Ex tre
Ex plo
Eigen schaft</w>
Di plo
Deta il</w>
Co mm
Bu s</w>
Blu men</w>
A ir
üt end</w>
Än derungen</w>
zurück kehren</w>
wahr nehmen</w>
w em</w>
te i</w>
ste te</w>
stan dar
sogenan nten</w>
so ft</w>
sch ten</w>
p ern</w>
nation alen</w>
m ern</w>
lei det</w>
kultur elle</w>
krea tiv</w>
ich tete</w>
hol te</w>
hei m
har ma
grün dete</w>
glück licher</w>
ge -
fantast ische</w>
erklär te</w>
di agnost
d on
c t</w>
brin ge</w>
bemerkens wert</w>
be glei
b ot
an passen</w>
abil ität</w>
a tiven</w>
Zu g</w>
Verg nü
Ur sprung</w>
Syste men</w>
Sti ftung</w>
Scha den</w>
R itu
P lötzlich</w>
Mül l
L äch
Kat ze</w>
Kapit alismus</w>
Funk tionen</w>
Da me</w>
Bet rie
Ber ge</w>
An stieg</w>
zen z</w>
wör tlich</w>
wech sel</w>
we cken</w>
vor aus</w>
visu elle</w>
ver tei
ursprün glich</w>
un e</w>
stru ktur
so weit</w>
si mp
ser va
sen de</w>
schwer e</w>
schi ckte</w>
ro man
re ss</w>
nei gen</w>
mer kt</w>
län dlichen</w>
j enen</w>
iv en</w>
ik t
iPh one</w>
i ten</w>
grü n</w>
g ig
f alten</w>
dank bar</w>
ch sen</w>
bi ologischen</w>
bei gebracht</w>
be sit
al em</w>
ak tive</w>
Wissenschaft lern</w>
Weib chen</w>
Wahrschein lich</w>
Tri ck</w>
Ta ges
Symp tome</w>
Sch icht</w>
Satelli ten</w>
Re cht
Persön lichkeit</w>
L eit
L ar
Kä mp
Kon stru
K ap
Inn eren</w>
I g
Gol f
Gl et
Gesprä che</w>
G as</w>
En d
Desig n
Ber icht</w>
B eu
B and
2 7</w>
ß es</w>
Über wach
y n</w>
wor um</w>
viel fäl
verschie den</w>
vern ünf
verblü ff
stir bt</w>
ster blichkeit</w>
schmer z
rei bst
regel mäßig</w>
ra mi
opti m
molek ul
ma ter
li mm
kümm ert</w>
kt on
isch erweise</w>
ind ischen</w>
gestar tet</w>
gan gs
g ress
fra u</w>
flie ßen</w>
ernst haft</w>
er inner
effizi ent</w>
chines ische</w>
bewu sst
besch reibt</w>
ben s</w>
be sucht</w>
b a</w>
a chtet</w>
Yor ker</w>
Welt bevölkerung</w>
Ver wendung</w>
Um ständen</w>
Tum or</w>
Spektr um</w>
Son n
Richti ge</w>
R önt
R ö
Privat sphäre</w>
Or ch
O bama</w>
Mot or</w>
Mitglie der</w>
Mil itär
M ig
Kur z</w>
Kol on
Kohlen stoff</w>
Is land</w>
Hö he
Hin blick</w>
HI V-
Groß en</w>
Gedäch tnis</w>
Ein richtungen</w>
E missionen</w>
Desig ns</w>
Dar über</w>
Au st
A R
3 D-
2 3</w>
öffent lich</w>
wa cht</w>
w ütend</w>
verschieden er</w>
teil ten</w>
sp er
so ur
schwar z</w>
ref lek
mess er</w>
ler s</w>
krea tiven</w>
konfron tiert</w>
höch sten</w>
hoh er</w>
gew ann</w>
geschn itten</w>
gehens weise</w>
fo ss
ens eits</w>
dunk len</w>
ander t
an stelle</w>
Zäh ne</w>
Z ur</w>
Wäl der</w>
Ver sor
Univers itäten</w>
Treib haus
Tran spar
Terror isten</w>
Teen ager</w>
T äu
Su bst
Se e
Schmer zen</w>
S ur
Ro ck
Pro ben</w>
Neu igkeiten</w>
Nachbar schaft</w>
M ale</w>
Lebens mittel
Katastroph e</w>
Janu ar</w>
J ohn
H an
Führ er</w>
Er ste</w>
E ur
Arz nei
Ander s</w>
Afrik aner</w>
A h</w>
6 5</w>
1 3
zw ingen</w>
z iel
viel mehr</w>
sta mmen</w>
sta mm
selt same</w>
re ale</w>
r äume</w>
pr ot
p ie
mit nehmen</w>
läu f
läch er
kön ne</w>
k lang</w>
ier ungen</w>
gän ge</w>
ges ichts</w>
ge te
g an</w>
f ig
e ktor</w>
bewahr en</w>
bet roffen</w>
ber ühren</w>
beh in
aus machen</w>
auf tau
Wie der</w>
W äre</w>
Techn iken</w>
Stre et</w>
Str and</w>
Sch reiben</w>
S orge</w>
N ar
Lab or
Ko mmen</w>
Ka bel</w>
Invest itionen</w>
Hum or</w>
Hot el</w>
Ha ie</w>
Ge fan
Eff ek
E uch</w>
Do ktor
Alterna tive</w>
Ökon omen</w>
zeu gung</w>
zeich nete</w>
z hei
win zigen</w>
wie viel</w>
vie ler</w>
un des</w>
tra k
schlä gt</w>
rech nen</w>
phys ische</w>
pa cken</w>
nerv ös</w>
mus ikal
mil itär
me t</w>
mag net
m in</w>
langwei lig</w>
l ies
k it
identi fizieren</w>
ha ssen</w>
grundle gend</w>
gest o
gesch windigkeit</w>
geb or
ge sprä
fran zös
et ten
et es</w>
erneu er
el a</w>
be sei
al tes</w>
W ähr
W ander
Ver fahren</w>
Va gin
Tr au
Strate gien</w>
Rück en
Rau b
Ra t</w>
Pol iz
Pa ar</w>
Met ern</w>
L aufen</w>
Kü che</w>
Kompon enten</w>
Inst itut</w>
Ha iti</w>
Gleich gewicht</w>
G it
Fün f</w>
Feh l
Di agno
De mokra
B rief</w>
Ab hän
äh en</w>
zurück gehen</w>
x is</w>
wa re
w ald</w>
ver läss
ven tion
stra tion</w>
st ücke</w>
sen heit</w>
rei se</w>
progra mm</w>
polit isch</w>
pa ckt</w>
p la
os exu
or et
mul iert</w>
moral ischen</w>
mi en</w>
lo ssen
lan det</w>
l ar
in fiziert</w>
i op
höher en</w>
hin unter</w>
hei raten</w>
ges und
gebie te</w>
g no
flo g</w>
ent gegen
ech tes</w>
de mon
da zwischen</w>
d el
besonder en</w>
ber g</w>
an ce</w>
alis ierte</w>
Z iel
YouTu be</w>
Wür den</w>
W and
Vor tra
Tra gö
Sens oren</w>
Scho kol
S itz
Prozess e</w>
Pati ent
Nachhal tigkeit</w>
Musk eln</w>
Man gel</w>
Lei den</w>
L og
Kohlen stoff
Kin des</w>
Ju li
Imp ul
Gr ie
Ge setz
G ö
F ünf
El tern
Einfach heit</w>
Desig n-
Br un
Beloh nung</w>
Aut ismus</w>
A lex
2 .000</w>
wunder schöne</w>
steh ung</w>
st lichen</w>
spir itu
spe zi
ries iges</w>
radi k
par t
ot s</w>
ot a</w>
off iz
mittler en</w>
mit zu
län ge</w>
jen em</w>
irgend einem</w>
inter pre
inspir ieren</w>
i o
hä ss
gewand t</w>
geb unden</w>
fän ger</w>
er kennung</w>
emp finden</w>
elektr ischen</w>
co m</w>
berech nen</w>
alis ierten</w>
Ver n
To ten</w>
Teu fel</w>
Szen e</w>
Ris iko
Re chen
Protot ypen</w>
Pa zif
No ten</w>
Medi um</w>
L ungen
Konfli kte</w>
Kar ik
K os
Ingenie ur
Ger icht</w>
E ier</w>
Dr eh
Da durch</w>
C ent</w>
B rit
B lei
Antibio tika</w>
All ge
änder te</w>
z a</w>
y l
wahr en</w>
tr ennen</w>
ter te</w>
tau schen</w>
schlie ßend</w>
o men
mm er
krea tive</w>
j ap
j ahr</w>
ins gesamt</w>
in ne</w>
ignor ieren</w>
gef ä
ge ord
fru str
fei ern</w>
erwäh nen</w>
dru cken</w>
co mpu
bil d
benutz e</w>
b ten</w>
aussa gen</w>
aus einander
ar gu
an spru
an scheinend</w>
ab l
Woh er</w>
Vor gang</w>
T anz</w>
Sp inn
Sa men</w>
S tern</w>
Pingu ine</w>
Organ e</w>
Micro soft</w>
Mar ke</w>
Ma mm
Küh l
Kong o</w>
K y
In tu
H ier
Fü ße</w>
Fla sche</w>
E he</w>
Diabe tes</w>
C enter</w>
Bo x</w>
ä ss
wo mit</w>
wa schen</w>
to c
st eine</w>
sich ern</w>
schön er</w>
schwer er</w>
schul dig</w>
schrän kungen</w>
schle ch
s um</w>
ruh ig</w>
olog ischer</w>
offens icht
neugier ig</w>
mus li
mul ti
mittler weile</w>
lie d</w>
le -
kna pp</w>
k reis</w>
k g</w>
ist in</w>
ip s</w>
in vol
hum an
hil frei
gewöh nt</w>
ges unde</w>
ger äte</w>
ge zwungen</w>
ent isch</w>
beru h
auf gaben</w>
analys ieren</w>
Ur sache</w>
Ta sche</w>
Stu dio</w>
Pflan ze</w>
Organis mus</w>
Mathema tiker</w>
Kon troll
Ko oper
Je denfalls</w>
In dem</w>
Fahr er</w>
Erdbe ben</w>
Ehr e</w>
D H</w>
Bu sin
Bi bel</w>
B ran
Auf bau</w>
An ruf</w>
Ak tion</w>
1 9</w>
ät ten</w>
x i
wunder volle</w>
weib liche</w>
wech s
w ein
ver pflich
un t</w>
um so</w>
u p</w>
u p
sta aten</w>
schla g
s a</w>
rit ten
repar ieren</w>
rei cher</w>
produ ktion</w>
ph y
om -
neben bei</w>
l len</w>
kur z
komm erz
klein ere</w>
k tis</w>
in klu
größ e</w>
er ie</w>
emp fin
den z</w>
bel ie
bei zu
be wäl
an zen</w>
ab gesehen</w>
Y e
Wil li
Ver brau
Unterr icht</w>
T op
Ru f</w>
Radi o</w>
R icht
Präsi denten</w>
Pro zent
Prei se</w>
Nach frage</w>
M ün
Kom m</w>
Jun i</w>
Gleich ung</w>
Ghan a</w>
Gei ste
G uten</w>
F ei
Ein komm
Eff izienz</w>
E li
D opp
Car to
Bi ologen</w>
Argu ment</w>
Anwen dungen</w>
An stren
An pass
Al ko
A li
Übr igens</w>
tr äumen</w>
t t</w>
schi enen</w>
sch ungen</w>
sch icht</w>
ro p
r ennen</w>
pro blem</w>
priv aten</w>
pot ent
mor d</w>
mon ie</w>
lo gen</w>
lat z</w>
kre u
k arten</w>
in zwischen</w>
hin gehen</w>
hervor ra
gra mme</w>
ger aten</w>
ger a
ge sammelt</w>
fa che</w>
emotion ale</w>
el s
dur fte</w>
du s</w>
der m
den de</w>
bei des</w>
außergewöhn lich</w>
arab ischen</w>
ar r
antwor ten</w>
an lage</w>
Zeh n
Wichti gste</w>
Wel traum</w>
Vor schlag</w>
Verk ehr</w>
S MS</w>
N ä
N obel
Mot or
Höhe punkt</w>
Ges ichts
Gemü se</w>
Gebie ten</w>
Fot ogra
Fin ger
Fein d</w>
C lo
Bü chern</w>
Be schrei
Ban k
Aut ob
A .</w>
2 2</w>
zu kommen</w>
win zig</w>
wieder holt</w>
wel len</w>
ver ließ</w>
tradition elle</w>
t na
stu hl</w>
stimm ung</w>
st eigen
sorg fäl
sor ge</w>
re al
ra l</w>
posi tiven</w>
ord nen</w>
nach denkt</w>
n y</w>
mpu s</w>
mo chte</w>
mel zen</w>
lich ung</w>
le gal</w>
la ger</w>
k ul
jähr lich</w>
jewei ls</w>
it en
inn ere</w>
il leg
her z
ges ün
fa br
f le
ex akt</w>
er öffnet</w>
er langen</w>
enor men</w>
chines ischen</w>
blo ck
benutz ten</w>
bei tragen</w>
aus drücken</w>
an nen</w>
Wet ter</w>
Vergnü gen</w>
Ver langen</w>
Ungleich heit</w>
Um stände</w>
Sti l</w>
St el
Resul tate</w>
Re a
Pre sse</w>
Philosoph ie</w>
Ox y
Mechan ismus</w>
Maß nahmen</w>
Lei d</w>
Kreu z
Kong ress</w>
Kon zent
Klin ik</w>
Her stellung</w>
Hei l
Flu g</w>
Dutz end</w>
Dru ck
Bud get</w>
Bibliothe k</w>
Bat terie</w>
Aus rüstung</w>
Aus nahme</w>
Auft ra
Ap p</w>
Al ter
A ch</w>
ö fter</w>
zu hören</w>
vor stell
verlo r</w>
verl etzt</w>
ver teilen</w>
unsicht bar</w>
stra ße</w>
repräsen tiert</w>
relev ant</w>
qu ellen</w>
plan t</w>
p e</w>
ord entlich</w>
kult ur</w>
kaput t</w>
inst all
id ge</w>
i de</w>
höch ste</w>
gemein nütz
ge messen</w>
früher en</w>
fest gestellt</w>
erfül len</w>
ent s</w>
disku tieren</w>
d d
be freien</w>
b es</w>
aus gehen</w>
a k</w>
Wa sch
W ände</w>
W ein</w>
W ar</w>
Vor träge</w>
Vor der
Verbesser ung</w>
Ver teilung</w>
Ver suchen</w>
Ver hand
Ver anst
Train ing</w>
Tr end</w>
Schwe stern</w>
Schwar ze</w>
Schn itt
Schlag zei
Sch on</w>
Rei sen</w>
Pri or
Po st
Orig in
Man nes</w>
Man hat
Ma cht
Lei ter</w>
J er
Hand lungen</w>
Erkrank ungen</w>
Entwicklungs länder</w>
Dis zip
Dienst leistungen</w>
Co mic
Chin es
Bru t
Ba se
B enz
A kt</w>
200 4</w>
über setzen</w>
Än derung</w>
w e</w>
vor gestellt</w>
verk ün
ver langen</w>
ver häl
tan zen</w>
ta gs
t reibt</w>
stän digen</w>
st ets</w>
sozi aler</w>
sozi al</w>
schrei be</w>
s ein
re s
prä sent
po l</w>
p op
nahe zu</w>
m är
letz tlich</w>
kultur ellen</w>
kauf s
k einem</w>
jähr iger</w>
hr e</w>
ho r</w>
heu tige</w>
ha i</w>
h är
gef er
geb äu
frei wil
erh ielten</w>
en dete</w>
ele gan
einz iges</w>
ed ba
e gor
d or
ch ens</w>
c ol
bi a</w>
begrenz t</w>
be deckt</w>
anzu gehen</w>
aktu elle</w>
W ut</w>
Un i</w>
Tex as</w>
Techn olog
Ser ie</w>
Rönt gen
R en
Pass wör
No ti
Motiv ation</w>
Man a
M and
Lo gik</w>
Lin ks</w>
Li b
La ss</w>
K nie</w>
K enn
K e
J ähr
Ha are</w>
Geschle cht</w>
Gebäu des</w>
Fle derm
Er staun
En ga
De mon
C om
C .</w>
BI P</w>
B rei
An wäl
9 5</w>
200 6</w>
1 20</w>
ül ern</w>
über lebt</w>
zen ten</w>
w j
visu ellen</w>
ver stecken</w>
ver liebt</w>
ver gleich
ver gewal
ver arbeiten</w>
tie fe</w>
t ur</w>
ssy steme</w>
span nen
sicher heit</w>
r ollen</w>
off ene</w>
le eren</w>
iz on
il len</w>
igen d</w>
häu sern</w>
hr en
hin sichtlich</w>
gete stet</w>
gest altet</w>
gen ese</w>
ge öffnet</w>
ge langt</w>
f -
d iger</w>
chem ischen</w>
bril lan
bil lig</w>
benutz te</w>
be fassen</w>
auss etz
auf merk
au ten</w>
an fängt</w>
allge mein</w>
ak tiven</w>
Wur zeln</w>
Wirtschafts wachstum</w>
Wel trau
Wech sel
W äh
Trä nen</w>
St or
Se qu
Se ktor</w>
Samm lung</w>
Ra d
Prot ein</w>
Pfer d</w>
N ei
My t
Mor al</w>
Min is
Masch in
Ma ß</w>
Kn opf</w>
Ka paz
Hör en</w>
Hig gs-
Gol d
Fig ur</w>
Fe edba
Europ ä
E gal</w>
E benen</w>
D ün
Bor d</w>
Bla se</w>
Bel ast
Bedürf nis</w>
A mp
0 .</w>
Über all</w>
zah lt</w>
verrück te</w>
ver mis
univer sel
tra ge</w>
tie fen</w>
techn ische</w>
span nt</w>
schreck liche</w>
schn ell
schlimm sten</w>
schla u</w>
schaff te</w>
rit t
ra h
r ö
pol itik</w>
net z</w>
men tiert</w>
ma ch</w>
kt ar</w>
krei ert</w>
in tu
in nt</w>
in -
her an
h üb
gel aufen</w>
ge mä
für chten</w>
ex tra
er ten</w>
dunk el</w>
be trägt</w>
aus macht</w>
at trak
an bieten</w>
Wer den</w>
Wa ffe</w>
Versor gung</w>
Val ley</w>
Unter wasser
U ganda</w>
Toil ette</w>
T hun
Soft ware
Re chts
Par tei</w>
P ollen</w>
Oxy toc
O ran
Mo der
Mil ch</w>
Me ere</w>
Läch eln</w>
Le sen</w>
Konzep te</w>
Kan di
Internet s</w>
Gr ö
Ged ichte</w>
Fu tter</w>
En zy
Ein heiten</w>
Dollar -
D ig
Co un
Berechn ungen</w>
An sichten</w>
2 50</w>
äl teren</w>
äl tere</w>
y stem</w>
wander n</w>
w ol
verschwin det</w>
verr ingern</w>
tro ver
st ö
spra ch
sin n</w>
scha u</w>
s ek
ru fe</w>
r äu
r unter
prä zis
programmi eren</w>
phys ischen</w>
mo so
mil li
lö s
lin e
iz op
is men</w>
intelligen te</w>
in ge</w>
hin auf</w>
hal ts
grei ft</w>
gel ehrt</w>
gegen über
gef ol
geb lieben</w>
fan gs</w>
erwar tete</w>
er ober
er fahr
ech ter</w>
di oxid</w>
d eta
be s
be fest
be darf</w>
b al
auszu drücken</w>
aus schließlich</w>
am in</w>
aktu ellen</w>
a c
Zu frie
Wir d</w>
To ur
T rupp
T reibst
T ja</w>
Sti ft</w>
Sch äd
S mit
Pro p
Part y</w>
Par la
Musli me</w>
Korallen ri
Kno chen
Hin weise</w>
Hand eln</w>
Glob alisierung</w>
Gener al</w>
Flug zeuge</w>
Et wa</w>
Durchschnit ts
Do ktor</w>
C E
Brust krebs</w>
A merikas</w>
A la
8 00</w>
3 2</w>
200 1</w>
1 -
Ü bung</w>
wer det</w>
umzu setzen</w>
ste ten</w>
sch äd
s ieh
ru ft</w>
mp fen</w>
m ten</w>
künst ler
kop f</w>
ko oper
kli cken</w>
kl ingen</w>
j enseits</w>
it s</w>
irgend welche</w>
inklu sive</w>
iel les</w>
gesch ützt</w>
g os</w>
g ner</w>
fol gte</w>
f läch
erle digen</w>
entwick lung</w>
el tern</w>
dr ü
bewe gte</w>
berüh mt</w>
bed ingungen</w>
b an</w>
aus reich
au sser
arch ie</w>
Wo chen
Ur kn
Um geb
Transpar enz</w>
Standar d
Scha ch
Ru he</w>
P M</w>
N et
Mos kit
Ma ch
M R
Lehr ern</w>
Konsu menten</w>
Kon zer
K rä
Höh le</w>
Har d
Ha cker</w>
H ollywoo
Gesch ichten
Frem den</w>
Fl ori
Fahr zeuge</w>
Dar auf</w>
Ch ip</w>
Br on
Beh ör
Be wohner</w>
Be darf</w>
Bar r
B is
B F</w>
An hän
ö r</w>
äu fer</w>
äu b
zukünf tigen</w>
welt weite</w>
vor wärts</w>
unter halb</w>
uns ich
un end
tra gung</w>
ti en</w>
t nis
st isch</w>
sexu elle</w>
sch me
r or
oll t</w>
lin ke</w>
lei stet</w>
künst liche</w>
kämp ft</w>
kon kurr
kan nten</w>
k tivität</w>
k auft</w>
ir ca</w>
inn eren</w>
ha ft
gew inn
gener ieren</w>
gel äh
ge leitet</w>
füh lten</w>
er setzt</w>
entde ckten</w>
einzigar tig</w>
ein gehen</w>
e sien</w>
de x</w>
de press
da ch
d umm</w>
d re
ck ung</w>
bedeut end</w>
bas ierte</w>
außergewöhn liche</w>
al terna
Wei ßt</w>
Sp ur</w>
Sch am</w>
Rei chtum</w>
R ab
Pop ulation</w>
Ox ford</w>
Op en</w>
Mitglie d</w>
M üh
Letz tes</w>
Kon kurr
Kommunik ations
Ju gend</w>
Jahr es
Höl le</w>
H ä
Gi pfel</w>
Flu ss
C lu
C li
Blät ter</w>
Bau ch
Aus gaben</w>
Auf stieg</w>
An griff</w>
Amaz on
A qu
20 .000</w>
19 4
öff nete</w>
ärm sten</w>
zukünf tige</w>
vorher sagen</w>
vor n</w>
ver lang
ur r
um in
the orie</w>
th et
tei lte</w>
t rei
steh enden</w>
sion s
ser maßen</w>
schli mm</w>
samm elten</w>
s al
ot t</w>
ord ent
ogra mm</w>
nutz ten</w>
nachhal tig</w>
mi ker</w>
lies t</w>
kun ft
k -
hin durch</w>
hei mlich</w>
gu t
gest iegen</w>
forma tion</w>
fer tigen</w>
fa ir</w>
f lich</w>
erle i</w>
ent täu
el ang</w>
einzu setzen</w>
da t</w>
d un
d .</w>
ch irur
br äu
behaup te</w>
be t</w>
be mü
ausge geben</w>
allge meinen</w>
afrik anische</w>
Wis sens</w>
Wer ke</w>
Ver sicher
Um gang</w>
Tür k
T ru
Stu dium</w>
Sto ck
Sti lle</w>
St ei
Spiel zeug</w>
Schne e</w>
Sch ä
Sch limm
Null su
Mil ch
Mar tin</w>
Ma ch</w>
Lu x
Li fe</w>
L E
Kre dit
Journ alisten</w>
In halte</w>
Hy per
H en
Groß vater</w>
Ge brauch</w>
Ent stehung</w>
Dien st</w>
Dial og</w>
Den noch</w>
Con ne
C am
Be denken</w>
Aut or</w>
Aus wirkung</w>
At em</w>
App le</w>
Anti -
7 00</w>
, 5</w>
über setzt</w>
äch er</w>
zweif elt</w>
zwei tens</w>
zu sätzlich</w>
zu lassen</w>
wissenschaft lich</w>
weis ungen</w>
wa ffen</w>
veran st
ver mittelt</w>
the oret
ta gs</w>
su s</w>
speich ert</w>
sech s
schn elle</w>
schlu ssendlich</w>
schaff ten</w>
sch lau
ri ck
religiö sen</w>
ra ge</w>
o ber</w>
nachhal tige</w>
men gen</w>
li ka
kra tz
kompli zierte</w>
i at
gesch la
freu en</w>
flu g</w>
fir ma</w>
et hn
er wachsen
er w
ent u
d ä
bedroh t</w>
be tre
b i</w>
ange kommen</w>
an ony
Wer ten</w>
W elle</w>
Video spiele</w>
V e
Tren ds</w>
Tele skop</w>
Ster nen</w>
St off</w>
Sch ülern</w>
Sat ur
Sat ell
S mar
Rei ch
Poli zei
Pap a</w>
P ause</w>
Op tion</w>
Okt ober</w>
Lie fer
Kön nte</w>
Kö pfen</w>
H itze</w>
Gla s
Gesundheit ssystem</w>
Gegen stände</w>
Fran k</w>
Flü gel</w>
Flie ge</w>
Fig uren</w>
Far b
Fanta sie</w>
Fahrra d</w>
F ur
F eu
Ehe mann</w>
E ver
Dig it
Diagno se</w>
Bei trag</w>
B äumen</w>
Angeb ot</w>
Al zhei
2 6</w>
über prüfen</w>
ähn liches</w>
Är zten</w>
zurück kommen</w>
win zige</w>
we senheit</w>
virtu ellen</w>
ver brauchen</w>
unterschei det</w>
um fass
ten -
spie lten</w>
spar t</w>
sich ere</w>
sen ken</w>
se el
schwier igen</w>
schie ben</w>
ri p
rei ste</w>
re spek
profi tieren</w>
op ar
no ch
n icht
merk ten</w>
l l
komm st</w>
ko chen</w>
k eln</w>
hoff nungs
h .</w>
gew innt</w>
ger s</w>
ger issen</w>
ge gessen</w>
fre ssen</w>
erst re
erk unden</w>
erinner te</w>
er o
el -
eh emal
de -
c le
bl ät
belie bt</w>
be denken</w>
at s</w>
angeneh m</w>
Zeit ungen</w>
V ier</w>
Tr ink
To m</w>
Te e</w>
Sü ß
Statis tik</w>
St rän
Se quenz</w>
Schw an
Schul ter</w>
Ru anda</w>
Ro t</w>
Ri o</w>
Pra xis</w>
Oper ationen</w>
Nervenz ellen</w>
Meer ess
Lebens qualität</w>
K iste</w>
Jo e</w>
Grü n</w>
Gri ppe</w>
Glüh bir
Ger uch</w>
Ger ade</w>
Flüss igkeit</w>
Er schein
E-Ma ils</w>
Dyna mik</w>
Dor f
Din ger</w>
D an</w>
Che f</w>
Blut gefä
Blick winkel</w>
Be schei
Abent euer</w>
Ab fall</w>
5 .</w>
2 .
über ein
än den</w>
zw öl
zusätz liche</w>
zeich nung</w>
z el</w>
wunder schön</w>
w al
ver ge
v em
um welt
sy mmetr
su per
so r</w>
sicher er</w>
schu fen</w>
sch ä
sch wei
sch e
s un
pri mi
per f
p rak
n ör
minis terium</w>
masch inen</w>
l eute</w>
konstru ieren</w>
komplex er</w>
kat astroph
it a
ho l</w>
glob al</w>
gewöhn lich</w>
gan g
g as</w>
fäl lig</w>
far b
erzäh lten</w>
er fordert</w>
effizi enter</w>
e ss</w>
demon str
dauern d</w>
co ol
c irca</w>
besch ei
ber gen</w>
be zogen</w>
aus gebildet</w>
Zu sammen</w>
Wei ter
Therap ie</w>
Temp o</w>
Sp äter</w>
Scien ce</w>
Schau spieler</w>
P unkten</w>
P A</w>
O st
Mensch lichkeit</w>
Lehr e</w>
L aut
Kö pfe</w>
K ür
Intu ition</w>
In se
G and
E ben
Dies en</w>
Depress ionen</w>
Betra chten</w>
Ba y</w>
B einen</w>
Aller dings</w>
Algorith mus</w>
8 5</w>
4 -
äu ft</w>
zen den</w>
wj et
weiter machen</w>
vi ce</w>
ver braucht</w>
unter halten</w>
tran spar
teil nehmen</w>
tei ligen</w>
t anz
sp unkt</w>
sicher stellen</w>
schu f</w>
pa rat</w>
ot t
om et
mit tag</w>
m äh
kon zep
jen ige</w>
is ierte</w>
h ü
gri ff
gewöhn liche</w>
gel te</w>
för dert</w>
fil m</w>
erz ieh
err ichten</w>
erfül lt</w>
er möglich
en kt</w>
dies mal</w>
d icht</w>
cht ungen</w>
ch tig</w>
brau ch
bewer ten</w>
besch ützen</w>
aus führen</w>
ar e
ange trieben</w>
allge meine</w>
Zufrie denheit</w>
Y o
Wohl befinden</w>
Wah n
Treibhaus ga
Stör ungen</w>
Strei t
Stand punkt</w>
Stan ford</w>
Schn itt</w>
S exu
Re al
Quad rat</w>
Poli tik
Poli o</w>
Po ster</w>
Pflan zen
P ilo
On kel</w>
Off ens
Lap top
L ichter</w>
Krie ge</w>
Klu ft</w>
Je den</w>
J ul
Institu te</w>
Illu sion</w>
Hin weis</w>
Hei m
Glück licherweise</w>
Fo ss
Fernseh er</w>
Erfol gs
Entschul digung</w>
D re
D ichte</w>
Bei de</w>
B ier</w>
An erkennung</w>
5 -
3 3</w>
200 3</w>
. com</w>
Ä th
Äth iop
zu stand</w>
zu gleich</w>
z a
wohl ha
wert voll</w>
war fen</w>
ver sagen</w>
ver mehr
v el
ungewöhn lich</w>
tä tig</w>
t ollen</w>
sozi ales</w>
sit ze</w>
se e</w>
schrei ten</w>
sch ü
rä ger</w>
ris k
regi on
prä gt</w>
programmi ert</w>
priv ate</w>
p fer
niedr ig</w>
li ve</w>
lei denscha
le se</w>
kor d</w>
kon tin
komm enden</w>
kom isch</w>
klu s</w>
kl ü
kehr te</w>
j ü
is st</w>
ier endes</w>
i mi
her an</w>
han del</w>
gen i
ge laden</w>
g ier</w>
funk tion</w>
erz ielen</w>
er maßen</w>
einz iger</w>
d ü
be endet</w>
auf recht</w>
ari o</w>
Welt all</w>
Weihna chts
W u
W ollen</w>
Versu ch
Untersuch ungen</w>
Unterneh men
U. S
U l
Tragö die</w>
T än
T y
Stä mme</w>
Strah lung</w>
Sti r
St ein
Schn ell
S no
Ro man
Rat ten</w>
R N
Py rami
Priv ile
P fa
Off enheit</w>
Norda merika</w>
Nachr ichten
Mod ell
Mittler en</w>
Mit ta
Mei ster
Manhat tan</w>
M ur
M ahl
Leist ungen</w>
L är
Kopf -
It alien</w>
Intervie w</w>
Ig nor
Her an
H aust
Gen e
Gebur ts
Fel sen</w>
F alle</w>
Er lau
Ent wurf</w>
Enga gement</w>
Energie verbrauch</w>
En er
Ein mal</w>
Del fin
D ist
Chr o
Cam br
C al
Bla u</w>
B re
B lü
B ig</w>
An zeichen</w>
Allge meinen</w>
Al b
A tem
8 0ern</w>
über prü
woh nen</w>
wei chen</w>
vie ler
v ille</w>
ursprün gliche</w>
ungeh euer</w>
um ent
ulti ma
tä gliche</w>
tro ck
tr äch
toll es</w>
ti c
the se</w>
ter ung</w>
t on
sto ß</w>
star tete</w>
sinn voll</w>
ro mis
re gung</w>
pp en
perf ekten</w>
or a</w>
m isch</w>
lo ser</w>
li ber
lan dete</w>
krie ge</w>
irgend was</w>
inst itu
ig ten</w>
i te</w>
hilfrei ch</w>
her ein</w>
gän ger</w>
gra d</w>
glück liche</w>
gig ant
genet isch</w>
ge la
finanz ieren</w>
f ess
exis tier
er fuhr</w>
entscheiden de</w>
ek tion</w>
durch s</w>
be dienen</w>
b rochen</w>
b nis</w>
aufmerk sam</w>
au ssen</w>
arch ite
an ne</w>
an kommen</w>
Vie l</w>
Un abhän
Symmetr ie</w>
Stat t</w>
Sta mm</w>
Schw anz</w>
S ar
S W</w>
Pol y
P ul
Me ga
M äuse</w>
M ischung</w>
L K
König in</w>
Ku h</w>
Kooper ation</w>
Hü gel</w>
Flä chen</w>
Flori da</w>
Fabr iken</w>
F ör
Er wärmung</w>
Emp athie</w>
Col a</w>
Chro moso
C ap
Brü der</w>
Bi ot
Auff ass
Ant hrop
Abhän gigkeit</w>
A mer
ü bt</w>
ö l</w>
zur ech
ze m
zem ber</w>
wunder schönen</w>
west liche</w>
we h</w>
wa y</w>
w olle</w>
w -
ver besser
ven tion</w>
v e
ur teilen</w>
unterr icht</w>
ungspro zess</w>
train ieren</w>
tig sten</w>
strate g
st ün
spei chern</w>
son sten</w>
schlu ss
schi ckten</w>
schi ckt</w>
schaff ung</w>
sch lei
r um</w>
pr et
on en
o o</w>
mo ur
mb ole</w>
m ungen</w>
leidenscha ft
kur s</w>
krank heiten</w>
kombin ieren</w>
ja gen</w>
j ung
iv er</w>
is e</w>
irgend ein</w>
ier er</w>
ich teten</w>
i ens</w>
häuf iger</w>
hal ben</w>
gu cken</w>
gesto ßen</w>
gere det</w>
gera de
ger in</w>
genau e</w>
gef logen</w>
ge füllt</w>
g arten</w>
finanz iert</w>
fa sste</w>
er atur</w>
ensch we
durchzu führen</w>
drei mal</w>
dra matisch</w>
dien st</w>
deta ill
den -
d bar</w>
bo t</w>
bl ö
bi t</w>
bewäl tigen</w>
beeindruck end</w>
be achten</w>
aus gewählt</w>
at t
anzu schauen</w>
ange passt</w>
an stellen</w>
an lagen</w>
an kommt</w>
an geschaut</w>
all zu</w>
Z ü
Z igar
Z enti
Vortra gs</w>
Vol ks
Viel zahl</w>
Vie tna
Ver zweif
Tri cks</w>
Ta ten</w>
T -S
Su mme</w>
Sti ck
St art</w>
Sa m
S ätze</w>
Pro be</w>
Para dig
Par tei
O ft</w>
Nutz er</w>
Mein ungen</w>
Medika menten</w>
Ma ße</w>
Ma s
Li ber
L änge</w>
Kön nten</w>
Kur zem</w>
Ku gel</w>
Komp romis
Kohlen dioxid</w>
Klima wand
Gü te</w>
Gleich heit</w>
Gest altung</w>
G y
Einfa ch</w>
E u
De zember</w>
Ber ühr
Aut oren</w>
Auftra g</w>
Ar ten
Ant ar
Ab sol
2 8</w>
17 .</w>
Ö ff
zü chten</w>
zwei tes</w>
zwei fel
z -
wün schen</w>
win z
vieler lei</w>
vermu te</w>
verhin dert</w>
verab schie
ver doppelt</w>
ver dopp
t or</w>
ste ck
spür t</w>
re volution
pro jekt</w>
p e
or es
nu kle
män ner</w>
mot or
ma cher</w>
m br
l is
kun st</w>
k ehr</w>
invol viert</w>
in mitten</w>
ik -
ier ender</w>
i gem</w>
herr scht</w>
gewis sermaßen</w>
geschä ft</w>
ger echt</w>
gel d</w>
gehol t</w>
gebäu de</w>
ge sucht</w>
fan ge</w>
et abl
ersch ien</w>
erle digt</w>
erkan nten</w>
ein stellen</w>
druck s
bru ar</w>
bil liger</w>
bedeu ten
be grü
an gesichts</w>
al le
aktiv ieren</w>
Zei chnungen</w>
Win kel</w>
Wieder auf
Wel len
Vor aussetz
Vern un
Ver trau
Ur he
Spr ung</w>
Sp en
Schwer kraft</w>
Sch izop
Sauerst off
S ä
Rei hen
Re gel
Produk tions
Po in
P eter</w>
Ma i</w>
Lö wen</w>
L ücke</w>
Krank heits
K lar</w>
Invest ition</w>
Institu tion</w>
Herz in
Her kunft</w>
Gra vit
Geheim nisse</w>
Gegen stand</w>
Gedan ken
Ge fahren</w>
G lu
G anz
Führ ungsp
Frü her</w>
Fe bruar</w>
F ro
Erfin der</w>
Effek te</w>
E ar
Drei e
Daten bank</w>
Bürger meister</w>
Blo g</w>
Besch äf
Be sten</w>
Band breite</w>
Auf lösung</w>
Ab stand</w>
3 .</w>
2 9</w>
ön e</w>
Über gang</w>
wunder vollen</w>
verk ehr</w>
ver heira
ursprün glichen</w>
ungs -
un en</w>
u e
u d</w>
ta tionen</w>
sy mbol
städ tischen</w>
ste ms</w>
st ä
sp lan
sch lü
ru s</w>
r ien</w>
proble me</w>
pr in
pa sste</w>
p l
neu lich</w>
na men</w>
los es</w>
lie fen</w>
lich keits
lei sch
lau b</w>
la dung</w>
irgend einer</w>
interessan tes</w>
inter vie
industrie lle</w>
iel ler</w>
h n</w>
gesellschaft lichen</w>
ger ungen</w>
experi ment
eg orie</w>
di t</w>
dau er</w>
berühm te</w>
beoba chtete</w>
behör de</w>
be zieht</w>
b le</w>
aut on
auss ah</w>
auf geben</w>
at or
ar do</w>
ak ul
Wär me</w>
Wet ter
Welt bank</w>
W ün
Völ ker
Verein ten</w>
V ul
Täu schung</w>
Tä tigkeit</w>
Transp ort
T anz
T ali
Stud ent
Sonnen system</w>
So mit</w>
Skulpt ur</w>
Schokol ade</w>
Sch lange</w>
S itz</w>
S S</w>
Restauran ts</w>
Relig ionen</w>
Re du
Prozess es</w>
P läne</w>
O s</w>
O hr</w>
Nah en</w>
Mitta gessen</w>
Mark eting</w>
Man ager</w>
Lebens raum</w>
Kä fer</w>
Kre aturen</w>
Krank enschwe
Kon ver
Kla vier</w>
J im</w>
Initi ative</w>
Imm uns
Hypothe se</w>
Hom o</w>
Hei mat</w>
H ut</w>
Gen en</w>
Fü ßen</w>
Früh ling</w>
Fett leib
Feedba ck</w>
Er forschung</w>
Do pa
De m
C re
Bud d
Beh aup
Autor ität</w>
Auf zeichnungen</w>
Anrei ze</w>
Anima tion</w>
Amei se</w>
Aben dessen</w>
überwäl ti
über lassen</w>
Über zeugung</w>
wu chsen</w>
wo zu</w>
wa hn
wa ff
vor kommen</w>
verda mmt</w>
ver ständ
ver langt</w>
ver hält</w>
ur ban
un endlich</w>
un dern</w>
u zin
tru gen</w>
t oler
syn thet
stei gern</w>
statt findet</w>
statt finden</w>
staat lichen</w>
st il</w>
sinn ig</w>
schi ff</w>
sch ein</w>
sam t</w>
ration al</w>
pro zess</w>
par k</w>
p al
oo d</w>
oh nen</w>
oh len</w>
og ie</w>
mäch tige</w>
mu sk
mo s</w>
mit teilen</w>
m alt</w>
lin gs
lin gen</w>
ler -
l etzt</w>
krä f
krei sen</w>
kon vention
ko pp
kl at
k ing</w>
k ern</w>
ie ch
gewe be</w>
gewal tige</w>
gest euer
gemä ß</w>
ge dreht</w>
g ur
g ru
g al
fort gesch
for tsch
for man
fol gten</w>
finanz iellen</w>
ff in
eingesch rän
ein zig</w>
der zei
der s</w>
brü che</w>
berühm ten</w>
ber ichtet</w>
ber fläche</w>
bemerkens werte</w>
begin ne</w>
be wirkt</w>
be treten</w>
b us</w>
aus ger
ab gest
ab gesch
Zu hör
Wol ke</w>
Wis sens
Wachst ums
Verzweif lung</w>
Verletz ungen</w>
Ver sagen</w>
Um frage</w>
Türk ei</w>
Te s
Taus enden</w>
Sy mbole</w>
St ahl</w>
Sp uren</w>
Rhyth mus</w>
Reich weite</w>
Re den</w>
Ra d</w>
Pol ar
Po e
P harma
Or gan</w>
Opti mismus</w>
Ol ymp
N ik
Mot oren</w>
Mar k</w>
M auer</w>
Kur z
Kinder sterblichkeit</w>
Kil o</w>
K einer</w>
I ma
Hum an
Hinder nisse</w>
H aut
Ge wohn
Ex tra
Do k
Der ek</w>
Bet ei
Beschrei bung</w>
Aut om
Au gu
Archite kt</w>
Arbeitsp latz</w>
Al pha
10 -
überqu eren</w>
zen de</w>
wid men</w>
vo ran</w>
verkauf te</w>
verfü gen</w>
ver zweifelt</w>
vem ber</w>
urop a</w>
u ver
te -
ta l</w>
t uren</w>
st ol
span nend</w>
sig n
sequ enz
schwer en</w>
sch ütz
rop ie</w>
re geln</w>
re det</w>
r t</w>
präsen tieren</w>
p lus</w>
oo t</w>
ne ss</w>
lü gen</w>
lo ss
lan ds</w>
kä me</w>
kur zer</w>
kon trolle</w>
klin ische</w>
kamer a</w>
individu ellen</w>
individu elle</w>
ho s</w>
hei ße</w>
he bt</w>
günst ig</w>
ges icht</w>
ger te</w>
gen der
geh oben</w>
ge wachsen</w>
ge lang</w>
führ enden</w>
erstaun lichen</w>
er fasst</w>
entsch lossen</w>
engl ischen</w>
ein schließlich</w>
e ste</w>
desig n</w>
der te</w>
brit ischen</w>
bar t</w>
b ahn
auf hin</w>
Wer t
W ale</w>
Vorher sagen</w>
Ver mu
Trot z</w>
TED Tal
Super markt</w>
Sti mmt</w>
Stau b</w>
Schw ä
Schlu ss
Sch ichten</w>
Sch au</w>
S E
Rob o
Ro man</w>
Rei ch</w>
Regen wald</w>
R ett
Poe sie</w>
Pf lege</w>
Obje kten</w>
Nullsu mm
N otwen
Mittel punkt</w>
Mat ri
Maga zin</w>
Mag net
L au
Kult ur
Kre b
J ä
Inter fa
Inst al
Ignor anz</w>
Hu b
Hel i
Ha ar</w>
Get rei
Ges icht
Ge or
Er ic</w>
Ener gien</w>
Einzel nen</w>
Ein richtung</w>
Diskuss ionen</w>
Chirur g</w>
Chin as</w>
Bro o
Beru fs
B C</w>
Aust ausch</w>
A tome</w>
A B</w>
3 .000</w>
1, 5</w>
über wachen</w>
zwei einhalb</w>
zu tief
wür dest</w>
wo durch</w>
wie gt</w>
w alt</w>
viel mals</w>
ver sen</w>
v in
v ierten</w>
unterr ichtet</w>
un wahrscheinlich</w>
u ch
transpor tieren</w>
tr ie
tik eln</w>
spr in
spekt akul
schwa ch</w>
s ha
qu al
pf ung</w>
p at
optim istisch</w>
o si
lu ms</w>
lieb ten</w>
l iste</w>
k ru
k i
ich en</w>
hier für</w>
her n</w>
ha fen</w>
gr enzen</w>
glück lichen</w>
getr ieben</w>
fotograf iert</w>
f or</w>
et tel</w>
erk rank
ent zün
ent gegen</w>
ei ls</w>
egor ien</w>
eben e</w>
durchschnit tlich</w>
drän gen</w>
drah t
desig ner</w>
defin itiv</w>
da n</w>
cha rak
cha ot
bet onen</w>
berech net</w>
be ängst
b ro
aktiv iert</w>
a ben
Z wil
Wohl tä
Wider spruch</w>
We st</w>
Vis u
Umgeb ungen</w>
To de</w>
Tit el
Te pp
T her
Stud ierenden</w>
Spre cher</w>
Sol che</w>
Sin ne
Schreib tisch</w>
S han
Robot ern</w>
Rich ter</w>
Reihen folge</w>
Psych ologen</w>
Produk tivität</w>
Oxytoc in</w>
Lie der</w>
Laptop s</w>
L unge</w>
Komment are</w>
Kin g</w>
Kat zen</w>
K B</w>
Inter pret
He m
Hard ware</w>
Gri ff</w>
Glau be</w>
Genau so</w>
Fel der</w>
Fahr zeug</w>
F lo
Explo sion</w>
Eur o</w>
Erkenn tnisse</w>
Er ziehung</w>
Entschei d
Cambr idge</w>
Ca f
C A
Bro w
Blo gs</w>
Betei lig
Beschei d</w>
Ange stellten</w>
20 11</w>
Über setz
zutief st</w>
vorher seh
virtu elle</w>
verur teilt</w>
vergröß ern</w>
v ari
tion iert</w>
t ie</w>
stud ierte</w>
steh ende</w>
stan de</w>
sor ganis
sicher zustellen</w>
sen si
se g
schw ing
sch mutz
ro ff
pp te</w>
oo men</w>
ne l</w>
mp ft</w>
mo ur</w>
mer kte</w>
lö schen</w>
lächer lich</w>
lei tung</w>
la gern</w>
l y</w>
korre kt</w>
kon stan
komplizier ter</w>
kompl ette</w>
kin der</w>
ka sten</w>
is h</w>
her umzu
h aufen</w>
großar tiger</w>
gewand elt</w>
flo gen</w>
erstaun t</w>
er öffnen</w>
er fand</w>
enz eit</w>
ein geschlossen</w>
ch el
ch e
bö se</w>
beantwor tet</w>
bas ieren</w>
ba i</w>
b aum</w>
at tet</w>
ant hrop
an halten</w>
ali en
Zwei ten</w>
Z wischen
Z e
Un gefähr</w>
Ten denz</w>
St eine</w>
Smit h</w>
Si mulation</w>
Sch e
R ollen</w>
R ennen</w>
Po st</w>
Orig ami</w>
Offens ichtlich</w>
Näch stes</w>
Menschen rechte</w>
M äu
M ich</w>
L a</w>
Ku chen</w>
Kol onie</w>
Ko ordin
Inter aktionen</w>
H altung</w>
Geschma ck</w>
Gat es</w>
Fa kt</w>
F ür
Erfin dungen</w>
Eis en
Dimen sion</w>
Bu sh</w>
Br ot
Besit zer</w>
Besit z</w>
Auffass ung</w>
Alterna tiven</w>
All tag</w>
A ffe</w>
. A.</w>
äu fe</w>
Ö k
Ä qu
zu sehen</w>
wü sste</w>
wechs elt</w>
wa chte</w>
w ehr
viel falt</w>
verrück ten</w>
verbrei tete</w>
un vermei
umge kehrt</w>
um setzen</w>
um her
tö tet</w>
ter er</w>
ter -
strei ten</w>
sthe orie</w>
sorgfäl tig</w>
sch rau
sch na
rei ßen</w>
ran ken</w>
r ie</w>
ph ilosoph
pf ei
o ft
moral isch</w>
l itt</w>
kö mm
kol lab
klu g</w>
ho p</w>
gr iech
gla mour
gefähr liche</w>
ge zeichnet</w>
ge eignet</w>
ge ben
fre ut</w>
fr öh
fa chen</w>
europä ischen</w>
dar zustellen</w>
ch tigkeit</w>
best ra
beschleun igen</w>
bereit ung</w>
ber au
bei zubringen</w>
b o</w>
b lieben</w>
b iz
aus wählen</w>
aus län
auf zunehmen</w>
auf tauchen</w>
ass ozi
anz unehmen</w>
ab sichti
ab geschlossen</w>
Woh nung</w>
Un glaub
Tro pfen</w>
Säuge tiere</w>
Str eit</w>
St ar</w>
St ap
Sk ala</w>
Schil d</w>
Rech ner</w>
Privile g</w>
Passwör ter</w>
Pan ik</w>
Pan de
Op en-
Off en
Ober flächen</w>
Neu gier</w>
N icht
N ic
Mr .</w>
Lär m</w>
Lehr erin</w>
Krei se</w>
Informa tion
Individu um</w>
Hun ger
Hor iz
Hilfs mittel</w>
Ha ck
Glet scher</w>
Gefäng nis
Flug hafen</w>
Exp edi
Dru cker</w>
Drit tens</w>
Dau men</w>
Chirur gen</w>
Car ol
C ro
Best imm
Bab ies</w>
B ol
B ob</w>
B en</w>
A kade
20 12</w>
18 .</w>
äu mt</w>
wü ssten</w>
wunder voll</w>
wachsen den</w>
wachsen de</w>
wa hl
ver bran
um -
u chen</w>
tief greif
teil s</w>
ta in
t ur
t schen</w>
st euert</w>
spezif ischen</w>
sk al
sa s</w>
s äu
religiö se</w>
recht s
r über</w>
prak ti
normal es</w>
nieman dem</w>
n test</w>
männ liche</w>
mu tig</w>
mod elle</w>
mit ät</w>
log isch</w>
lo kal</w>
l i</w>
l -
kon serva
kon kre
klass ische</w>
ke schön</w>
k ab
je denfalls</w>
intelligen t</w>
i anischen</w>
i Po
hin g</w>
har ten</w>
hand elte</w>
groß em</w>
g licher</w>
g h
freund lich</w>
flu g
fa ktoren</w>
f eln</w>
ex ter
et ts</w>
einzigar tige</w>
ein gestellt</w>
eigen tlichen</w>
eff e
d roh
c or
br eit</w>
be teiligen</w>
ba ten</w>
auf treten</w>
auf nahmen</w>
auf einander</w>
anzu wenden</w>
aller erst</w>
Wörter buch</w>
Wei ßen</w>
We g
War en</w>
Ver pflich
Ver mögen</w>
Tali ban</w>
T sun
Stu dien
Stre cke</w>
St abilität</w>
Spre chen</w>
Spei cher</w>
Span nung</w>
Sp ar
Son g</w>
Satur n</w>
Roll stuhl</w>
Radi o
Produ kten</w>
Para si
Pal äst
Mot to</w>
Mo de
Mikro skop</w>
Merk male</w>
L ot
Kon do
Klimawand els</w>
Je doch</w>
Groß eltern</w>
Ge ben</w>
Fru cht
Erlau bnis</w>
Ent ropie</w>
En des</w>
Einkomm ens
Dopp el
Co us
Besu ch</w>
Bal ance</w>
B ul
B am
Astero iden</w>
Arbeitsp lätze</w>
All gemein
19 3
üh en</w>
ü mm
äl le</w>
zwöl f</w>
wis cht</w>
wi tz
wer ben</w>
wen dig</w>
war st</w>
wahrschein licher</w>
w ähr
versch mutzung</w>
ver sagt</w>
v es</w>
transpor tiert</w>
ter ten</w>
techn ologie</w>
techn isch</w>
st ische</w>
st el</w>
sin ken</w>
schei tern</w>
ro s</w>
rech er
re sul
ra h</w>
p ein
os is</w>
noch mals</w>
mm s</w>
mechan ik</w>
krei s
konsu mieren</w>
klet tern</w>
kla ppt</w>
kein erlei</w>
k o</w>
k no
hun gr
hren ie</w>
hol z</w>
her ein
hal fen</w>
h au
großar tiges</w>
glob aler</w>
gi o
gerei st</w>
geläh mt</w>
gel ingt</w>
freu e</w>
fir men</w>
fantast ischen</w>
eur er</w>
erlau bte</w>
entfer nten</w>
end ste</w>
ein ig</w>
e uren</w>
dr über</w>
d in
ch test</w>
bur g</w>
besser er</w>
beschleun igt</w>
ban den</w>
ausreich end</w>
au stau
al tete</w>
Zenti meter</w>
Ye ah</w>
Wichti gkeit</w>
Verk auf</w>
Ver lu
Tö chter</w>
Tau ch
St un
Sour ce</w>
Solar energie</w>
Smar t
Skla ver
Schlagzei len</w>
Schizop hrenie</w>
Sch lä
Rezep t</w>
Republi kan
Re por
Rak ete</w>
R and
Proje kts</w>
Produ kt
P iz
O li
Notwen digkeit</w>
Nor wegen</w>
Ner ven</w>
Mel o
Meeress pie
M er
Lie bes
Leist ungs
L ein
Kop ie</w>
Komment ar</w>
Kol lege</w>
Koh le
Kla ssen
K ris
Impf stoff</w>
Ho ward</w>
Hir n</w>
Gewinn er</w>
Geschichten erzäh
Ge setzen</w>
Fettleib igkeit</w>
Ein wohner</w>
Durch messer</w>
D s</w>
C el
Berechn ung</w>
Be feh
Ball on</w>
B ör
B lau
Alzhei mer</w>
Al tern</w>
Ad re
20 -
2, 5</w>
über greif
über denken</w>
ätz t</w>
ätz en</w>
äl testen</w>
zu letzt</w>
woh nern</w>
ver brennen</w>
ven tionen</w>
v o</w>
ung sa
unda tion</w>
ul d</w>
tä ten</w>
tig ste</w>
ti l
ter es</w>
su m
st öß
st ap
spr ü
sit z</w>
schn itte</w>
schlimm ste</w>
schle un
schle chtes</w>
ro bu
repräsen tieren</w>
radi kal</w>
r o</w>
mit hilfe</w>
merk wür
lei ter</w>
lau ter</w>
l aus</w>
klin ischen</w>
ist ischer</w>
ind ische</w>
ilis ieren</w>
ie ßen</w>
ich e</w>
ho b</w>
her stellt</w>
groß zü
gel ten</w>
gel s</w>
gel ben</w>
gef il
ge plant</w>
fäh igen</w>
eu ten</w>
erwäh nte</w>
erg än
ent le
el ler
dr innen</w>
dr aussen</w>
bi ologisch</w>
beschrän kt</w>
besch äd
beg ei
be griffen</w>
bar ung</w>
ar zt</w>
ant reiben</w>
an re
an isch</w>
akzep tiert</w>
ab le</w>
Z a
Urkn all</w>
Un sicherheit</w>
Toil etten</w>
Syn dro
Sto ck</w>
Sti pen
Sil ic
Sen dung</w>
Scha ff
Robot er
Ra sse</w>
Psych op
Programmi erer</w>
P ort
Neben wirkungen</w>
N el
Medi a</w>
Ma ss
M A</w>
Le ber</w>
Kreis lauf</w>
Kranken häuser</w>
Kor tex</w>
Kor ea</w>
Kor an</w>
Kat egorie</w>
Intervie ws</w>
Interess ante</w>
Indi ens</w>
Horiz ont</w>
Her steller</w>
Hei lung</w>
Hal b
Gel ände</w>
Geiste s
Ge wis
G ore</w>
Erkrank ung</w>
Elektron ik</w>
Dan keschön</w>
D ichter</w>
Col le
Bu ches</w>
Bran che</w>
Blo g
Besonder s</w>
B I</w>
An weisungen</w>
Amazon as</w>
Alter s
Alko hol</w>
9 0ern</w>
4 .</w>
üt te</w>
Über zeug
Äthiop ien</w>
zentr alen</w>
wor t
we ge</w>
vi a</w>
verwen deten</w>
verheira tet</w>
vergewal tigt</w>
ver rin
ver raten</w>
ungs weise</w>
un denen</w>
ul ar
train iert</w>
tent eils</w>
te uren</w>
stärk sten</w>
stru kturen</w>
stie ß</w>
steh len</w>
st ück
sich eren</w>
se y</w>
schätz t</w>
schie f</w>
sch üch
sa g
ru ss
reg is
pro be</w>
om s</w>
mensch lich</w>
mensch en</w>
mein t</w>
mathe matische</w>
mass ive</w>
lika tionen</w>
le er</w>
kt ischen</w>
kombin iert</w>
klein eren</w>
is on</w>
industrie llen</w>
imp rovis
ie le</w>
hol e</w>
hei l
h m</w>
h imm
gew ohnt</w>
get au
gest euert</w>
ger ing
gemein t</w>
gemein schaft
geh eim
gefol gt</w>
geb ro
for schen</w>
fokuss ieren</w>
finanz ielle</w>
ewi g</w>
erweiter t</w>
erst mals</w>
er geb
ent schul
einzigar tigen</w>
ein nehmen</w>
ein heit</w>
durch laufen</w>
drän gt</w>
der -
da zu
d äch
d licher</w>
ch -
bur gh</w>
br en
bewusst sein</w>
bel eu
be griff</w>
be auf
b or
auf stehen</w>
antwor tet</w>
an ischer</w>
ag gress
a i
Zu cker
Zeh n</w>
Wor tes</w>
Wider stand</w>
Wel ches</w>
Wasser stoff</w>
W ein
Versch mutzung</w>
Ver rück
Va ters</w>
Tür en</w>
Tele skop
T yp
Stra f
Standar ds</w>
Sch mu
S eit
R B</w>
Phy si
P lätze</w>
Müh e</w>
M ob
M einer</w>
Le on
Lat ein
L iv
Konzent ration</w>
K au
Invest oren</w>
Hi pp
Herzin far
Hand lung</w>
Größen ordnung</w>
Fo undation</w>
Fahrra d
F ett</w>
Erzäh lung</w>
Erzäh ler</w>
Er weiter
Ein zige</w>
Comm un
Busin ess</w>
Blin d
Bet re
Beoba chtung</w>
Bab y
B auch</w>
Anal ogie</w>
Alex ander</w>
6 .</w>
20 50</w>
19 60</w>
ökonom ischen</w>
zu einander</w>
zir k</w>
wahr haf
ver z
ver setzen</w>
v an</w>
unter brochen</w>
typ ischen</w>
typ ische</w>
trans for
techn ologische</w>
t u</w>
stimm e</w>
spr ingt</w>
spezif ische</w>
sol ches</w>
sk rank
sin kt</w>
schwar zes</w>
schrei en</w>
schreck lichen</w>
schi ha
ries iger</w>
pa rat
p lätze</w>
organis ation</w>
omet ern</w>
nutz te</w>
natür licher</w>
nach läss
motiv ieren</w>
min i
men tierte</w>
mel den</w>
mei ster
mar sch
lich t
le ger</w>
l itten</w>
kogni tive</w>
je der
il legal</w>
i ck</w>
i as</w>
haft es</w>
gewal tigen</w>
g a</w>
fu er</w>
frei heit</w>
foss ilen</w>
fa mi
f s</w>
et on</w>
et en
errei chte</w>
ein gebaut</w>
effek tiver</w>
echn ik</w>
durch aus</w>
dr ingt</w>
co ole</w>
charak ter
ch eln</w>
c es</w>
archite kton
an -
Zur ück</w>
Wör tern</w>
Wir bel
Vor bild</w>
Ver öffent
V äter</w>
V in
Un fälle</w>
U S</w>
Train ing
Subst anz</w>
Stre ben</w>
Spiel s</w>
Sp er
Son der
Smart ph
Sklaver ei</w>
Shan g
Sei l</w>
Sei fe</w>
Se con
Schä del</w>
Schla g</w>
Sch alter</w>
S qu
S lums</w>
Ran de</w>
RI S
Quanten mechanik</w>
Poliz isten</w>
Ne o
Mär kten</w>
Mik e</w>
Mess er</w>
Mei le</w>
Mar ken
L iter</w>
Kon tra
K ev
Ingenie ur</w>
Gerü st</w>
Ga rage</w>
G ig
Frieden s
Fot ografie</w>
Flücht linge</w>
F angen</w>
Er nst</w>
Ein blick</w>
D schiha
D ikt
D em</w>
Conne c
Charak ter
C lin
C hol
Broo kl
Be müh
B ir
At hei
Ar m
Antar ktis</w>
Anhän ger</w>
An dre
5 5</w>
4 .000</w>
ä le</w>
zwan zig</w>
zw .</w>
zu verläss
zu gehen</w>
wirtschaft lich</w>
wichti ges</w>
wel le</w>
war tete</w>
veröffentlich te</w>
verb oten</w>
ver fahren</w>
v ig
unter e</w>
um her</w>
um fasst</w>
tatsäch lichen</w>
strah lung</w>
strah len</w>
st itu
spre cher</w>
schu ss</w>
samm elte</w>
rück wärts</w>
ra th
ra d</w>
präzis e</w>
per t</w>
ori um</w>
ord net</w>
ometr ie</w>
offen bar</w>
mit gebracht</w>
kl are</w>
ken s</w>
jen es</w>
il and</w>
hol ten</w>
he y</w>
ha ar
gen tlich</w>
geh st</w>
fortgesch ritten
f leisch</w>
f isch
experi mentieren</w>
ersch reck
erfolgrei che</w>
entu ell</w>
ent setz
emotion alen</w>
elektron ische</w>
ein führen</w>
denk st</w>
da t
d ichte</w>
d elt</w>
ck el
bre cher</w>
benö tigte</w>
ben s
beein druckt</w>
bedeu tende</w>
bed in
be fand</w>
b zw.</w>
ant reibt</w>
an gewandt</w>
ab schließen</w>
a st</w>
Zu hören</w>
Weltrau m
Vernun ft</w>
Ur sprün
Ul tra
Treibst off</w>
Transp ort</w>
Tradi tionen</w>
T V</w>
Stu fen</w>
Str ö
Sel ektion</w>
Se el
Schätz ung</w>
Schla cht</w>
Sch aut</w>
S ir</w>
S ho
Raum es</w>
Rat te</w>
Po cken</w>
Plan ung</w>
Ph ant
Per io
Pazif ik</w>
Nähr stoffe</w>
Netzwer ken</w>
Nel son</w>
Min der
Matri x</w>
Lo u
Lin col
Kör pern</w>
Kong ress
Kolon ien</w>
Ko chen</w>
Kandi daten</w>
K ün
Je sus</w>
Irgend wie</w>
Interpret ation</w>
Interessan terweise</w>
I di
Heimat stadt</w>
Ha i</w>
GP S-
G är
G än
Funk tions
Fil ter</w>
Fil me
Fa sern</w>
F li
F i
Elektro den</w>
Dör fer</w>
Dok ument
D .
Bla sen</w>
Behör den</w>
Ban ken</w>
Bak teri
Auss ehen</w>
Anrei z</w>
Ander erseits</w>
An trieb</w>
An nahmen</w>
An liegen</w>
Ab ra
7 0ern</w>
4 2</w>
3 -
199 8</w>
ökonom ische</w>
zur ei
zieh e</w>
wo anders</w>
will kür
wel l</w>
w einen</w>
verknü pft</w>
v ieren</w>
unabhän gige</w>
um ines
tr a</w>
tatsäch liche</w>
sü chtig</w>
stand s</w>
span ne</w>
so wieso</w>
schüt teln</w>
schätz e</w>
schlä gen</w>
schen ken</w>
ro bot
re stlichen</w>
re cken</w>
r äumen</w>
physikal ischen</w>
phys isch</w>
ot el
neu esten</w>
motiv iert</w>
mod ell
mitglie der</w>
lehr t</w>
l em</w>
krit ische</w>
krie gt</w>
kontin u
konstru iert</w>
klein sten</w>
kl er</w>
k il
je gliche</w>
isten t</w>
ir gend</w>
intelligen ten</w>
integr iert</w>
hin gegen</w>
ha ber</w>
grün deten</w>
gr unde</w>
glob ales</w>
gesün der</w>
gen er</w>
flu ores
fil men</w>
fer tig
fel der</w>
f au
ermu tigen</w>
ent sprech
ele ktro
drin gend</w>
diagnost iziert</w>
des mal</w>
der e</w>
deh nt</w>
dan eben</w>
d sten</w>
ci al</w>
ch el</w>
bo gen</w>
bli cke</w>
biz ar
bew iesen</w>
be treffen</w>
be frie
auspro bieren</w>
aus gebil
aufre gende</w>
auf wuchs</w>
auf gestellt</w>
angeb oten</w>
ange zogen</w>
anders wo</w>
an schau
alt ungen</w>
abhän gt</w>
Z ehen</w>
Woh nungen</w>
Woh in</w>
Wissenschaft s
Werk zeugen</w>
W att</w>
Völ ker</w>
Ver sprechen</w>
Ver schw
V it
Ta l</w>
Stör ung</w>
St ahl
Span ien</w>
Schwel len
Schla cht
Sch ad
S öh
S inn
S ex
Re fer
Ra y</w>
Qu e
O el</w>
N G
Mu sch
Met all
Lü gen</w>
Land schaften</w>
Kon sum</w>
Kat egorien</w>
Kapaz ität</w>
Jul i</w>
Interessan tes</w>
In ten
Höh len</w>
Hunder t
Hil f
He ktar</w>
Ha st</w>
H it
G ru
For d</w>
F unda
F ischer</w>
En kel</w>
Durch bruch</w>
Dire ktor</w>
D ür
D E
Computer -
Bri an</w>
Bild schir
Beweg ungs
Bestand teil</w>
Ber gen</w>
Bel eu
Behand lungen</w>
Bal ken</w>
Angele genheit</w>
An gesicht</w>
A st
4 8</w>
3 D</w>
200 2</w>
üh len</w>
Är ger</w>
zwei t
zu samm
zu hause</w>
zu grunde</w>
zi t</w>
z it
y le</w>
y er</w>
wün sche</w>
woh nt</w>
wer ken</w>
wen igsten</w>
war m</w>
vor schlagen</w>
vers etzt</w>
vermu ten</w>
verdopp eln</w>
ul l</w>
tz ei
to ff
te gra
stür zen</w>
spie gelt</w>
schu len</w>
rück en</w>
ries ig</w>
re cyc
persön licher</w>
p ur</w>
oo d
on ach</w>
ob jek
nega tiv</w>
na p
mü sst</w>
möglich st</w>
mäß ige</w>
männ lichen</w>
musli mischen</w>
mm eln</w>
mein ten</w>
läuf ig</w>
lieb sten</w>
klär en</w>
je kte</w>
je derzeit</w>
ist otel
ir on
ile mma</w>
il li
höch st</w>
he f
haf tet</w>
größ tenteils</w>
größ eres</w>
gesch le
gener iert</w>
freiwil lig</w>
flex i
fla ch</w>
ent sprechend</w>
el f</w>
ein bringen</w>
den den</w>
demokrat ische</w>
ch se</w>
bis lang</w>
beweg ungen</w>
besch rieb</w>
berücksichti gt</w>
be qu
auszu probieren</w>
auspro biert</w>
ausge drückt</w>
auf halten</w>
anspru chs
an ner</w>
an hören</w>
an fingen</w>
ak tiver</w>
ah me</w>
aben ds</w>
a ter
Zentr al
Ver gewal
Urhe ber
Trink wasser</w>
Tre ppe</w>
To ur</w>
Tal ent</w>
T h
St ück
Skulpt uren</w>
Silic on</w>
Satell iten
S ieben</w>
Re serv
R äumen</w>
Qu ar
Proble m
Pro ze
Pre mier
Por tra
Par ks</w>
O sta
Nach mittag</w>
Na del</w>
Mög liche</w>
Mor al
Met han</w>
Mark et
Mar y</w>
Ma ssa
L eh
Küh e</w>
Kü sten
König reich</w>
Kur se</w>
Konver sa
Kno ten</w>
Kan al</w>
Kal orien</w>
Ju den</w>
John son</w>
H ül
H i</w>
G or
G lie
G am
Führungsp er
Foss il
For mel</w>
Fisch er
Fel s
Entwick lungen</w>
Ein schränkungen</w>
Droh nen</w>
Det ro
Dan k
D ir
Comic s</w>
Co ck
C ur
Bom be</w>
Bet on</w>
Bak terium</w>
B ären</w>
B M
Aus land</w>
Ato men
Anpass ung</w>
An fän
An deren</w>
Al ters</w>
Aktiv isten</w>
A b</w>
6 0ern</w>
3 ,
199 0</w>
üh le</w>
äch ter</w>
ä sser</w>
zuzu hören</w>
zu halten</w>
y o</w>
wär ts
will kommen</w>
wa i
w n
w ich</w>
veröffentlich ten</w>
versor gt</w>
versch mutz
ver teilung</w>
ver lust</w>
ver leihen</w>
unter neh
ul iert</w>
u mp
u lationen</w>
ts ch</w>
to ten</w>
t her
syste men</w>
stro m</w>
spr äch
span nen</w>
sol le</w>
sh a</w>
schla ge</w>
rig ht</w>
rei ten</w>
qu er</w>
psych ische</w>
pp er</w>
polit ischer</w>
pflan zt</w>
p ul
ot ische</w>
olog isches</w>
oh en</w>
niedr iger</w>
nen de</w>
nega tiven</w>
mü de</w>
maß nahmen</w>
mat isches</w>
kr ö
kollek tiven</w>
ka mpf</w>
jähr iges</w>
jahr elang</w>
ion s
interpre tieren</w>
integr ieren</w>
ig ern</w>
identi fiziert</w>
histor ischen</w>
hier bei</w>
haf ter</w>
gr en
gewöhn lichen</w>
gest re
gesch ei
ger -
gebie ten</w>
ge glaubt</w>
führ e</w>
för der
furcht bar</w>
fin dung</w>
fa cht</w>
f eu
exis tierte</w>
ev entuell</w>
er lebte</w>
dire kte</w>
dig te</w>
de pri
d y
d s
betra chte</w>
betr ü
bestä tigen</w>
beschäf tigte</w>
b ab
ange wendet</w>
ange mess
analys iert</w>
Zeich nung</w>
Willi am</w>
Wa ffen
Verhaltens weisen</w>
Ven e
UN -
Ta stat
Spezi al
Sp ir
Sei den
Sech s</w>
Se i</w>
Schwar z
Schw eine</w>
Schrift steller</w>
Ritu ale</w>
Ret tung</w>
Re gul
Ra te</w>
Pro vin
Pro gno
Pri maten</w>
Po wer
P C
Oze ans</w>
Mär z</w>
Me eting</w>
Ma c
L ob
L ichts</w>
L aut</w>
Klin iken</w>
J ag
Innen stadt</w>
Immuns ystem</w>
I m
High -
Heran gehensweise</w>
He mis
H ob
H als</w>
Gü ter</w>
Gla mour</w>
Gesch wis
Gen ome</w>
Geh ör</w>
Gef ä
G ast
Fel d
Fe yn
Elektr onen</w>
Ein führung</w>
E C
Dist anz</w>
D ek
D V
D A</w>
Bo hr
Bo den
Ben j
Be dauern</w>
Be am
Ban gla
B ä
B M</w>
Aus gabe</w>
Augu st</w>
Anwäl te</w>
Ab sichten</w>
3 0.000</w>
ür zt</w>
öffent licher</w>
zah lung</w>
z ungen</w>
win dig
wil d</w>
wesent lichen</w>
w ette</w>
verletz en</w>
verk ör
verein t</w>
ver wirklichen</w>
ver treten</w>
v ide
unter suchten</w>
unter einander</w>
und -
um gesetzt</w>
u en</w>
tter t</w>
trä gen</w>
toll er</w>
tig keit
tie fer
tau cht</w>
t ner</w>
stimm te</w>
star teten</w>
staat liche</w>
st ein
ssy stems</w>
sp ä
sp itzen</w>
sp enden</w>
schnei det</w>
ru m
rie fen</w>
rie cht</w>
recher ch
ra ffin
r el
pro zen
pli zieren</w>
or ig
o se</w>
nation al</w>
medi zin</w>
lö ser</w>
li en</w>
lei tungen</w>
lei tete</w>
lei se</w>
le t</w>
l it
kommun ik
ko ordin
k leben</w>
k alten</w>
it äre</w>
intensi v</w>
institu tion
in ens
ill a</w>
hän ge</w>
halb es</w>
h aut</w>
gewal tig</w>
gerech net</w>
gener ell</w>
gel be</w>
gehör igkeit</w>
gefähr det</w>
ge fügt</w>
garan tiert</w>
früh e</w>
fest zustellen</w>
fest halten</w>
ermöglich te</w>
er a</w>
en g
en erg
ein fluss
ein einhalb</w>
eh mi
effe kt</w>
e p</w>
deu ten</w>
demokrat ischen</w>
d sch
d krö
co de</w>
brit ische</w>
bran che</w>
bli ck
bestä tigt</w>
besei tigen</w>
ben annt</w>
bel ast
bel a
au th
ander erseits</w>
an sonsten</w>
alt ungs
al teten</w>
abge le
ab sichtlich</w>
ab druck</w>
a chtung</w>
Wichti ges</w>
Wal d
W ä
Verletz lichkeit</w>
Ver trag</w>
Ver schie
V aku
Ur laub</w>
Unter hal
Treibhausga se</w>
Ta schen</w>
T öne</w>
Standar d</w>
St urm</w>
Sp it
So ut
Shang hai</w>
Secon d</w>
Schwei gen</w>
S O
Rücken mark</w>
Rück seite</w>
R auch</w>
R -
Quadrat meter</w>
Qu al
Pyrami de</w>
Prot he
P ä
P rie
Orch ester</w>
Neu e</w>
Myt hos</w>
Mon ter
Mon d
Mo un
Mc Don
Mand ela</w>
Journ alist</w>
Jahrhunder te</w>
J H</w>
In der</w>
Hel d</w>
Haus es</w>
Haus aufgaben</w>
Hall uzin
Gleich ungen</w>
Gele genheiten</w>
Führungs kräfte</w>
Fin den</w>
F ischen</w>
Ergeb nissen</w>
Er n
Die jenigen</w>
Da von</w>
Brie fe</w>
Bot schaften</w>
Bestand teile</w>
Bed in
Baum kr
Bangla des
Aus schnitt</w>
Arten vielfalt</w>
App laus</w>
An zeige</w>
An lage</w>
Ab weich
A g
4 7</w>
10 0-
über nommen</w>
üb lichen</w>
Über tragung</w>
zu stimmen</w>
z one</w>
x -
wo möglich</w>
wick elt</w>
weit aus</w>
weib lichen</w>
vorstell bar</w>
vier tel</w>
veränder ten</w>
verwirr t</w>
verwand t</w>
verl äuft</w>
ver tik
ver ständnis</w>
unmittel bar</w>
unk lar</w>
un ion</w>
um gewandelt</w>
tr ö
ti gem</w>
t t
su per</w>
star kes</w>
spon tan</w>
sie ben
schmerz haft</w>
schmer zen</w>
scha ffe</w>
s ess
ro r</w>
regis tr
regi on</w>
r ichtet</w>
produ kte</w>
pa p
p ä
ot te</w>
on en-
ograph ic</w>
näher n</w>
normal er</w>
neben einander</w>
natür liches</w>
mon at
materi alien</w>
m s
lan gte</w>
l ohnt</w>
künst lichen</w>
kör per</w>
kä men</w>
kunft s
krei se</w>
kor rig
ke spe
k ro
k ele
k eines</w>
jahr e</w>
iv al
ignor iert</w>
i x</w>
hal tens</w>
gerin ger</w>
ger ing</w>
ge formt</w>
füh ls</w>
fotograf ieren</w>
for scher</w>
fiz ierten</w>
faszin ierende</w>
fall s
f ett
eur em</w>
er schafft</w>
ent hül
en gen</w>
emp fangen</w>
drit tens</w>
dig ungs
da k
bü chern</w>
bla sen</w>
beherr schen</w>
beglei tet</w>
auszu sehen</w>
auss eh
aus gelöst</w>
auf weisen</w>
auf stellen</w>
an sprechen</w>
an kam</w>
all gegenwär
al ter
absol ute</w>
absol u
Zu taten</w>
Wor t
Wei sen</w>
Vari ationen</w>
V an
Unternehmen s
U N</w>
Transp lan
Ton y</w>
Therap ien</w>
Syndro m</w>
So wjet
Sha kespe
Sel b
Schön e</w>
S P</w>
Rück mel
Richt linien</w>
Republikan er</w>
Reg is
Re formen</w>
Re cyc
P ot
P ion
O s
Neuro wissenschaft</w>
Ne st</w>
Ne andert
My ster
Min er
Met all</w>
M üt
M ist</w>
Lincol n</w>
Letz tendlich</w>
Kev in</w>
Katastroph en</w>
Kan nst</w>
K ie
Irgend wann</w>
Interfa ce</w>
In don
Häu sern</w>
Herz -
H ell
Gri pp
Gra s
Ger äten</w>
Geh t</w>
Freiwil ligen</w>
Flu t</w>
Fil men</w>
Fahr t</w>
F ik
Experi menten</w>
Er klär
Emp fänger</w>
Eigen tum</w>
Eben so</w>
Ear th</w>
E -
Dschiha d</w>
Diszip lin</w>
D y
Ch ips</w>
Bi o-
Bewusst seins</w>
Beu tel
Bet racht</w>
Beispie len</w>
B it
B ele
Atlan tik</w>
An walt</w>
A M</w>
6 .000</w>
zu g
zu cht</w>
zer brech
zentr en</w>
z ielt</w>
wie gend</w>
wahr genommen</w>
verpflich tet</w>
vern etz
vergröß ert</w>
verblüff end</w>
ver zerr
ver arbeitet</w>
unglaub liches</w>
un dene</w>
un aus
u se</w>
tö dliche</w>
typ isch</w>
transpar ent</w>
temp eratur</w>
t oren</w>
t nissen</w>
t her</w>
ste uropa</w>
ste ckte</w>
ste chen</w>
stab il</w>
spie ler
sp u
son en</w>
si at
sh i
schwan ger</w>
sch es</w>
sau ber</w>
s ichts
qu ot</w>
prei s
pot enz
plat zieren</w>
orig in
op h
ol umines
nega tive</w>
mäch tigen</w>
mm el</w>
metho den</w>
mathe matischen</w>
ma -
lu d</w>
lang es</w>
land schaft</w>
körper liche</w>
komp on
klein ste</w>
kauf ten</w>
it ären</w>
isla mischen</w>
h on
gi ti
ges unken</w>
geno ssen</w>
genan nten</w>
gefer tigt</w>
ge prägt</w>
g ü
förmi ge</w>
fundament ale</w>
forma tionen</w>
extr a</w>
erwar teten</w>
er schwing
er em</w>
entschei det</w>
ens ei
engl ische</w>
engag ieren</w>
ein genommen</w>
effizi ente</w>
durch gehen</w>
di te</w>
d isch</w>
compu ter</w>
chen e</w>
c al</w>
bre m
br ennt</w>
bestimm tes</w>
belieb igen</w>
bein halten</w>
be wohner</w>
ausgest attet</w>
at em
anzu fangen</w>
an steck
an rufen</w>
an gebracht</w>
an c
all gemein
ab len</w>
Zivilis ationen</w>
Wohn zimmer</w>
Wieder hol
Verkehr s
Unter drück
U p
Tren nung</w>
Trans formation</w>
Tex t
Teil chen
Ta schen
Ta fel</w>
T eller</w>
Stud ierende</w>
Ste phen</w>
St reifen</w>
St euern</w>
Son dern</w>
Sk iz
Sin ga
Sich er</w>
Schwi mmen</w>
Schwe fel
Schw ein
Scha fe</w>
Sch ein
S I
R enn
Protot yp</w>
Pro stat
Pro banden</w>
Pro -
Premier minister</w>
Phot os
Per forman
Partei en</w>
P un
P enn
Ne ga
Musk el
Metap hern</w>
Mei ster</w>
Mechan ismen</w>
M ör
Li ban
L ungen</w>
Künst lern</w>
Konfli kten</w>
Kamp f
K ro
Jugend lichen</w>
Inst in
Impul s</w>
Hor mon
Hoff entlich</w>
Hen ry</w>
Gew alt
Forsch ern</w>
F leisch
F ic
Expedi tion</w>
Erzäh lungen</w>
Er be</w>
En gin
Ein satz
Ein kaufs
Delfin e</w>
D eine</w>
Coun ty</w>
Chr isten</w>
Char lie</w>
Ch ile</w>
C rick
C hil
Blu me</w>
Berühr ung</w>
Benj amin</w>
Be schleun
Atomen ergie</w>
Amer ic
All ein</w>
A cht
199 9</w>
19 50</w>
über s</w>
ö ss
ß te</w>
Überzeug ungen</w>
Än gste</w>
z weiter</w>
wür fe</w>
wär mer</w>
wirk sam</w>
wie gen</w>
wid met</w>
vor kommt</w>
voll ständige</w>
vi ol
vergleich bar</w>
verb lei
ver sicher
ver schaffen</w>
v a</w>
ur teile</w>
unter suchte</w>
u ung</w>
u mar
taus end
sü ß</w>
ster ung</w>
stel ligen</w>
sta tionen</w>
st unden
st s</w>
spro du
si mulieren</w>
sch rank</w>
s iert</w>
ro n</w>
re dete</w>
radik ale</w>
qu anti
produ kt</w>
pre sse</w>
pop ul
po st
p hin
om al
ol a</w>
ni ens</w>
m on</w>
langfris tige</w>
la sen</w>
la ppen</w>
kämp fung</w>
kur zes</w>
kt eur</w>
kop ieren</w>
kontinu ier
komp et
kl aren</w>
k ins</w>
it alien
is s</w>
ir dischen</w>
interess ierte</w>
inter ag
il z</w>
ier n</w>
i an</w>
höh e</w>
histor ische</w>
her kömm
gesprä ch</w>
gesch ossen</w>
gelö scht</w>
fül lung</w>
fol gender
fe sten</w>
fabr ik</w>
et ter</w>
ess e</w>
enscha ft</w>
end gül
en ge</w>
emotion al</w>
einig t</w>
durchschnit tlichen</w>
disku tiert</w>
bö sen</w>
bo hr
blo ck</w>
bil ität</w>
bie gen</w>
bewer tet</w>
berücksichti gen</w>
beein träch
be cken</w>
b y
b ahnen</w>
ar tiges</w>
ange messen</w>
an i</w>
Zu griff</w>
Zentr en</w>
Z unge</w>
Woh l</w>
Ver sionen</w>
Ver pa
Vagin a</w>
Ur sachen</w>
Unabhän gigkeit</w>
Tex te</w>
T ech
Sy rien</w>
Sta te</w>
St ur
St olz</w>
Skel ett</w>
Schwei z</w>
Schluss fol
Sa har
SE T
Re chten</w>
Re cher
R ela
Prior itäten</w>
P anz
P C</w>
Ob dach
Ni mm</w>
Neu seel
Mit leid</w>
Maschin en
Maga z
Lon g</w>
Lein wand</w>
Lebens unter
Le ser</w>
La st</w>
Kranken häusern</w>
Kor alle</w>
Kol um
Kl eine</w>
K nö
K länge</w>
Ir r
Ir onie</w>
Indon esien</w>
Hollywoo d</w>
Hemis ph
Haus halt</w>
Ha ar
Glob al</w>
Gene tik</w>
Ge ometrie</w>
Ge gner</w>
Fre quenz</w>
Fik tion</w>
Fe min
Far m</w>
Exper te</w>
Eth ik</w>
Erweiter ung</w>
Erfol ge</w>
Ent weder</w>
Ein ladung</w>
E cken</w>
Dör fern</w>
Dien ste</w>
Di ät</w>
Demon stration</w>
Dar aus</w>
D ü
Commun ity</w>
Che mot
Carol ina</w>
Ca mpus</w>
C H
Brookl yn</w>
Bet rieb</w>
Besonder es</w>
Bedin gung</w>
Bau steine</w>
Ar th
Ar istotel
An zug</w>
An genommen</w>
Agen da</w>
Adre sse</w>
Ab schnitt</w>
7 .</w>
3 6</w>
20 30</w>
10 .</w>
ühr t</w>
über sehen</w>
ör tlichen</w>
äu ßer
Öko systeme</w>
Är z
zwan gs
zusammen fassen</w>
y l</w>
woll t</w>
weiter zu
wei sung</w>
vor anzu
verschw and</w>
verrin gert</w>
ver wei
ver einfa
ungs mittel</w>
ung ern</w>
um wandeln</w>
tre ffe</w>
ti ver
ti ppen</w>
ten dieren</w>
t alen</w>
stär ken</w>
städ te</w>
stu dien</w>
star ren</w>
sta g
st unden</w>
st a</w>
ss el</w>
spro ble
sp itze</w>
selt samen</w>
se -
schwa chen</w>
schnit ten</w>
sch ritt
sch eu
rä der</w>
rie chen</w>
ran g
qu ali
pro ben</w>
ph än
ot ten</w>
ord nungen</w>
op s</w>
op ol
oft mals</w>
ober e</w>
niedr igen</w>
net te</w>
neh men
mäß igen</w>
mär kte</w>
mis ten</w>
metho de</w>
merk würdig</w>
mal te</w>
m ischer</w>
lüss eln</w>
lo cken</w>
lich ere</w>
leu chtet</w>
la st</w>
konzentr ierte</w>
komplex es</w>
komm en
kogni tiven</w>
k an</w>
it -
isol iert</w>
is ierten</w>
imp lan
hungr ig</w>
heraus fanden</w>
gr ä
get s</w>
ge speichert</w>
ge merkt</w>
ga s
für chte</w>
fiz ierte</w>
fik ation</w>
ffer enz
f on</w>
exponent iell</w>
ersch üt
er nten</w>
er heben</w>
ent nehmen</w>
en ke</w>
el ung</w>
do x
dimension alen</w>
di ck</w>
den d</w>
de e</w>
d ischer</w>
ch enen</w>
bl att</w>
beru ht</w>
be fanden</w>
außergewöhn lichen</w>
aut or
aus zur
at ten</w>
amerikan ischer</w>
all s</w>
ab sor
ab gel
a se</w>
Zu sätzlich</w>
Zei tra
Wech sel</w>
Wachst ums</w>
Vir gin
Verwand ten</w>
Veranst altung</w>
Ver fassung</w>
V eter
U-B ahn</w>
Techn iker</w>
T ut</w>
Szen ario</w>
St ich
Sp enden</w>
Sowjet union</w>
Singa pur</w>
Sei de</w>
Sch ie
Sal z
Sahar a</w>
Rett ungs
Ressour ce</w>
Red woo
R ä
R ing</w>
R in
Prü f
Prop he
Prei s
Pil ze</w>
Pho sp
Phant om-
Pande mie</w>
No vember</w>
Mus eu
Mit arbei
Meeresspie gel</w>
Liv e-
Lebens stil</w>
Konkurr enz</w>
K na
K ell
Ja ck</w>
I ran
Her bst</w>
H C</w>
Gra fik
Gr enz
Gest alt</w>
Ganz es</w>
Ga s
G ur
Forsch ungen</w>
Flederm äuse</w>
Fest iv
Fein de</w>
Fa szin
F BI</w>
Er schaffung</w>
Ein stellungen</w>
E M</w>
Detro it</w>
D ä
D auer</w>
Co u
Charak tere</w>
Bür gern</w>
Bemüh ungen</w>
B ein
B ahn
Auto un
Aristotel es</w>
An wesenheit</w>
An ten
An spruch</w>
AID S-
A ra
A pri
A ber
über ein</w>
öff neten</w>
ähn elt</w>
zur zeit</w>
zur echt</w>
zu legen</w>
zess ion</w>
z au
wa ch</w>
w ettbewer
vor lesen</w>
verl or
ver sion</w>
ver si
ver einen</w>
u men</w>
tro p
tr ennt</w>
to te</w>
ti tel</w>
teur er</w>
ta gen</w>
t anz</w>
sä ss
stu fe</w>
stre cken</w>
strate gie</w>
st ill
ss lich</w>
ss -
sp rit
sieh st</w>
sel b
schwa che</w>
schrän kung</w>
schn ellen</w>
sch ichten</w>
s ieb
regi onen</w>
ra sch</w>
phy sik</w>
on es</w>
nis ses</w>
ni fik
ner -
nen s</w>
mikro skop
mb ur
mass iven</w>
mark iert</w>
manip ulieren</w>
m i</w>
lie genden</w>
lie be
lehr e</w>
le gung</w>
kooper ieren</w>
ko st
ka mp
k ter</w>
irgend einen</w>
in ken</w>
imm ern</w>
ier bar</w>
i fest
hinter fragen</w>
heraus gestellt</w>
ha ra
gl äub
gew ohn
gemein schaft</w>
gei sterung</w>
gef r
ge treten</w>
ge setz
ge fühlt</w>
frei er</w>
folgender maßen</w>
f är
f ix
f ischen</w>
erst ens</w>
ermu tigt</w>
er schienen</w>
einzu gehen</w>
einzel nes</w>
eingeschrän kt</w>
einfach ste</w>
ein fallen</w>
do se</w>
dien st
deu tet</w>
der ten</w>
de mü
c u
c an</w>
bril li
bi ologie</w>
bet t</w>
bel ohnt</w>
be urteilen</w>
be graben</w>
b ie</w>
auss uchen</w>
aus gesch
auff äl
ats on</w>
angeb lich</w>
ange griffen</w>
an pass
an i
ak tions
a merika</w>
Z elt</w>
Z el
Wün sche</w>
Wen de
Wei ß</w>
Vo m</w>
Verb ün
Ver l
Ver brauch</w>
Unterneh mer
Um fang</w>
Tsun ami</w>
Top -
Tin te</w>
T K</w>
Stra fe</w>
Stimm ung</w>
Sti ll
St ation</w>
Squ are</w>
Sno w
Sicher heit
Schwi mm
Schach tel</w>
Re parat
Rau schen</w>
Proje ct</w>
Piz za</w>
Pfle ge
Pat ent
P lu
Or bit</w>
O ut
Nor th</w>
Nach denken</w>
Na chts</w>
Mo de</w>
Mit teln</w>
Mit ge
Mana gement</w>
M aus
Letz ten</w>
Ko ka
Kar t
K äl
Jon es</w>
Ha wai
Gei stes</w>
Geb il
G all
Fuß ball
Funda ment</w>
Frem de</w>
Freiwil lige</w>
Fr ont</w>
Fotogra f</w>
Flug zeug
Erschein ung</w>
Er den</w>
Droh ne</w>
Del hi</w>
D sch
D .</w>
Computer s</w>
Brun o</w>
Brenn stoffe</w>
Bom ben</w>
Bio sphäre</w>
Ber at
Beleu chtung</w>
Behin derungen</w>
Beh älter</w>
Be geisterung</w>
Be geg
Au ß
Ast h
Anstren gung</w>
An lagen</w>
Am y</w>
Ab hol
A be
7 2</w>
3 7</w>
3 4</w>
3 0-
3 .
ück t</w>
är gert</w>
ß ig</w>
Überwach ung</w>
Über setzung</w>
Über lebens
Ök ologie</w>
Ä u
zu folge</w>
verwen dete</w>
vertr et
verschie ben</w>
verkauf ten</w>
ver nachläss
ver lässt</w>
ver län
ver la
ver haftet</w>
unsicht baren</w>
unsich er</w>
un zäh
un heimlich</w>
tre u</w>
tran splan
tr äume</w>
to s</w>
t licher</w>
statt fand</w>
sperr t</w>
sp rang</w>
sp ol
son s</w>
serv iert</w>
schwi mmt</w>
schri ft
schock iert</w>
san g</w>
s man
s ieren</w>
s em</w>
re chn
psych ologische</w>
physikal ische</w>
pf el
p ut</w>
p hal
organis ierten</w>
op e</w>
on t
ol s</w>
ograf ische</w>
nutz e</w>
mi erte</w>
ment ar
mel det</w>
lätz en</w>
läch eln</w>
kurz fris
krit ischen</w>
krea tiver</w>
klass ischen</w>
it ts
ist isches</w>
inst ink
in j
in gegen</w>
ig ht</w>
hy per
hu si
ho ben</w>
heraus stellt</w>
hal le</w>
gier de</w>
gest anden</w>
gend ste</w>
gen öss
geh enden</w>
geh ende</w>
gefähr lichen</w>
ged ul
fil tern</w>
fahr e</w>
f ielen</w>
extre me</w>
errei ch
en .</w>
eig nen</w>
e dy</w>
dün ne</w>
dem selben</w>
da p
da mal
d ste</w>
d et
betr ie
besch wer
beru f
be zo
be waff
aufge zeichnet</w>
an stren
a ge</w>
Zy lin
War te
Wa is
W atson</w>
Vertei digungs
Vertei digung</w>
Verletz ung</w>
Verbrau cher</w>
Verbesser ungen</w>
Ver gessen</w>
Unterneh mens</w>
Tr äumen</w>
Tastat ur</w>
T un</w>
T iger</w>
Stär ken</w>
Ster nen
Sol dat</w>
Skel ett
Schwan ger
Schei be</w>
Sa g</w>
S im
S ender</w>
Ro ver</w>
Re präsent
Rau ms</w>
Ra ss
R ente</w>
Prof it</w>
Por tu
Phän omen
Pat ri
Parla ment</w>
Par kin
Pa ar
New ton</w>
Netz e</w>
Nerven system</w>
Nahrungs mittel</w>
N est
Mon ster</w>
Mo z
Me me</w>
Ma rath
Letz te</w>
Leon ardo</w>
Lebensunter halt</w>
Le ktionen</w>
La b</w>
L or
L G</w>
Kranken haus
Kra m</w>
Korallenri ffe</w>
Konstru ktion</w>
Komm t</w>
Ko ch
K it
Jer us
J ur
In dustr
Hoff nungen</w>
Halluzin ationen</w>
H ütte</w>
Gö tter</w>
Grund lagen</w>
Gro ss
Gravit ation</w>
Gr un
Glu ko
Gewin ne</w>
Geschäfts modell</w>
Gehir nen</w>
Geh alt</w>
GP S</w>
Flü sse</w>
Finanz ierung</w>
F undament
F au
Er füllung</w>
En kel
E ma
Du mm
Doku ment</w>
Da sselbe</w>
D P</w>
Büro s</w>
Bürger krieg</w>
Bö se</w>
Bru ch
Bron x</w>
Br ücken</w>
Bon ob
Blo ck</w>
Bla ck
Bild ungssystem</w>
Betra chtung</w>
Ber eit
Benz in</w>
Begin nen</w>
Be stes</w>
Bat terien</w>
Ba de
B ell</w>
Aus nahmen</w>
Aus einander
Arth ur</w>
Apri l</w>
Angele genheiten</w>
Anal y
An griffe</w>
5 000</w>
20 20</w>
16 .</w>
, 000</w>
äl teste</w>
Ü bungen</w>
Ö konom
zufäl lige</w>
zi v
zeich neten</w>
z we
z elt</w>
wär men</w>
wis ch
wert volle</w>
weit gehend</w>
wahrhaf tig</w>
w onach</w>
w eh
voll ziehen</w>
verstär kt</w>
verste ckte</w>
verg leicht</w>
verda mm
ver lei
ver bergen</w>
ur t</w>
tiv sten</w>
tion al</w>
t ischer</w>
t eu
stör ungen</w>
stie gen</w>
st ätte</w>
sch ru
sch loss</w>
sa gst</w>
roff enen</w>
rei chte</w>
re alisieren</w>
re aktion</w>
r ettet</w>
r eine</w>
progra mme</w>
pro zess
pf legen</w>
p an
organis ierte</w>
or te</w>
olog in</w>
niedr ige</w>
n der</w>
n ar
mäh lich</w>
mark ieren</w>
m ol
lei chte</w>
langfris tig</w>
kön ntest</w>
kämp ften</w>
ko mm</w>
kla gen</w>
kapit al</w>
kan al</w>
ist all
in iti
in e
in di
il a</w>
id entisch</w>
hunder ten</w>
hil fe
hil f
hand lung</w>
gr enze</w>
gew ün
gesch ütz
ger ten</w>
gen tin
gef ei
geb au
feh ler
far be</w>
f euern</w>
err y</w>
erfolgrei ch
er ing</w>
er ien</w>
entscheiden den</w>
end sten</w>
ein treten</w>
dur ften</w>
do berfläche</w>
der weise</w>
demonstr ieren</w>
d in</w>
ck s
bewer k
bevorzu gen</w>
bedeut sam</w>
bedeu tungs
be schaffen</w>
be gehen</w>
aus lösen</w>
aus geht</w>
aus breiten</w>
an näher
an gewiesen</w>
alterna tive</w>
all t</w>
a ß</w>
a f
Zuhör er</w>
Zeit spanne</w>
Wochen ende</w>
Wis st</w>
Wild nis</w>
Wil l</w>
W ett
Vin c
Verhand lungen</w>
U-B oot</w>
Twi tter
Trupp en</w>
Train er</w>
Ter min
Tat sachen</w>
T we
T olle</w>
Sü d-
Su ppe</w>
Stoff wechsel</w>
Stap el</w>
St euer</w>
Sp rit
Soll te</w>
Sk ep
Sen i
Seit dem</w>
Schwel le</w>
Scho ck</w>
Schlimm ste</w>
S am</w>
Rück gang</w>
Robo tik</w>
Ro ten</w>
Re p
R M</w>
Präsi dent
Programmi er
Pri m
Partner schaft</w>
Ni ck</w>
Mu stern</w>
Mobiltelef one</w>
Mobil ität</w>
Lehr en</w>
L .A.</w>
Kü chen
Kri tiker</w>
Kreis lauf
Kra b
Kol la
Kil ometern</w>
K ul
K lang
K eller</w>
J or
Infek tionen</w>
In tegr
In f
I sol
Hier archie</w>
Herr n</w>
Har ry</w>
Hand els
Ha w
H ätte</w>
H istor
Grie chen
Gr and</w>
Go uver
Gleich zeitig</w>
Gen ie</w>
Ge spräch
Ge ographic</w>
Fr ö
Fisch erei</w>
Fir men
Ex emp
Erklär ungen</w>
Er stes</w>
Er k
Entwicklungs hilfe</w>
Einzel ne</w>
E ro
Doku mente</w>
Den kens</w>
Demokra ten</w>
Dat a</w>
Chines isch</w>
Chemot herapie</w>
Carto ons</w>
Can y
C ent
Beschäf tigung</w>
Behand lungs
Autom obil
Auf klärung</w>
Astron omen</w>
Ass isten
Andre w</w>
An tik
An gio
An at
Amei sen
A gra
9 8</w>
9 0er</w>
8 .</w>
5 0-
3 1</w>
200 .000</w>
1 30</w>
über legt</w>
üb liche</w>
är er</w>
än ger</w>
ähn licher</w>
ä len</w>
Über fluss</w>
zusätz lichen</w>
zusammen zubringen</w>
zur ufen</w>
zel lu
y o
wäh lten</w>
wunder bares</w>
wor in</w>
wahn sinnig</w>
vor ge
verwen de</w>
ver sichern</w>
ver he
v al
ungspro gramm</w>
un glücklich</w>
um sonst</w>
tä tigen</w>
tensi v
syste matisch</w>
stra fe</w>
ster iö
spie geln</w>
spa zieren</w>
sh -
sen kt</w>
schw ä
scha den</w>
sch altet</w>
sauber e</w>
sa g</w>
r ungen
qu et
pro j
phän omen
pein lich</w>
pa aren</w>
or n</w>
oll is
o p</w>
n irgendwo</w>
n atur
mög lichkeit</w>
mö chtest</w>
my steriö
mis cht</w>
me er</w>
lei te</w>
l or
künst lich</w>
küh len</w>
körper lichen</w>
körper lich</w>
kop iert</w>
konta k
kon fer
k len</w>
j etz
ir dische</w>
interessan terweise</w>
innova tiv</w>
ie ber</w>
id ent
hoh em</w>
h -
gl än
gl o
gin ge</w>
gest altung</w>
gesch ichten</w>
ger äu
ger ingen</w>
gele gentlich</w>
gel ungen</w>
frustr iert</w>
fr eit</w>
etz e</w>
est izi
err ichtet</w>
erneuer bare</w>
er wachsen</w>
enttäu scht</w>
ent warf</w>
ent lassen</w>
en ha
en es</w>
ein beziehen</w>
dust ri
dun kler</w>
dr ing
doku mentieren</w>
de cke</w>
ch r
brei tet</w>
bra sil
br enn
bo ard</w>
beunruh igt</w>
bei getragen</w>
be zieh
be wunder
be merkten</w>
be freit</w>
b liche</w>
außer ordentlich</w>
auf gabe</w>
ari um</w>
an isches</w>
an geschlossen</w>
an g
ab geben</w>
a ds</w>
Zw ischen</w>
Währ ung</w>
W itze</w>
Vir tu
Ver mäch
U -
Ti me</w>
Temper atur
Ta sman
T im</w>
T ha
Stra sse</w>
Ster ben</w>
Stamm es
Sor te</w>
So mmer
Skla ven</w>
Se att
Sch rei
Sa ch
S ün
Ro m</w>
Ri ck</w>
Republi k</w>
Rei s</w>
Red ner</w>
Rech nung</w>
Re zession</w>
Prozent satz</w>
Progra mmen</w>
Prof il</w>
Pi x
Parasi ten</w>
Pa are</w>
P estizi
Oze anen</w>
Op tionen</w>
Nu kle
Nord pol</w>
Nicht- Nullsumm
Müt tern</w>
Mäu sen</w>
Molekü len</w>
Mis ser
Mess ungen</w>
Mei stens</w>
Mat he</w>
Man u
M um
Log o</w>
Lin k</w>
Land wir
La ser
L ücken</w>
L A</w>
Kün ste</w>
Kri tik</w>
Kompon ente</w>
Kl ar
Kar toff
Kapit al
Ja ck
Herzinfar kt</w>
Herz krankheiten</w>
H ür
Gra mm</w>
Getrei de</w>
Ge h</w>
Ge fühlen</w>
Fre e
Fran zös
Fot o
Erd gas</w>
Er satz
Er rungen
Eltern teil</w>
Dank barkeit</w>
Clo ud</w>
Bü cher
Br ille</w>
Br and
Bil des</w>
Bi ene</w>
Beoba chtungen</w>
Bei j
Bau ern
B ar</w>
Auf regung</w>
Au ßer</w>
Argu mente</w>
An forder
4 0.000</w>
198 4</w>
19 00</w>
15 -
. or
üb licherweise</w>
üb lich</w>
ör ung</w>
ör t</w>
äst he
Über ein
zy klus</w>
zu ständig</w>
z z</w>
z wischen
wäh lt</w>
wä gen</w>
wer f
vorherseh bar</w>
vorher r
vor an
vir us</w>
versch melzen</w>
ver geben</w>
unterschie de</w>
unsicht bare</w>
unend liche</w>
um bringen</w>
tra ten</w>
to -
tief grün
tal en
t ät
t end</w>
sätz en</w>
stra hl</w>
star r
star ker</w>
st ar</w>
ss inn</w>
sorganis ationen</w>
sk ep
sig nifik
schön sten</w>
schwi mm
schil d</w>
schar f</w>
ru tsch
risk ieren</w>
regul ieren</w>
psych ischen</w>
plat ziert</w>
ot tet</w>
n ull</w>
molek ü
mit tags</w>
mit machen</w>
ma r</w>
lan des
la tions
la st
l o</w>
ku gel</w>
kosten lose</w>
kar t
in i</w>
il -
ies e</w>
ie ten</w>
hin weisen</w>
hervor bringen</w>
her kommen</w>
gän gig</w>
gro ss</w>
gra de</w>
gl er</w>
gel b</w>
gef iel</w>
ged ei
ge spannt</w>
ge leistet</w>
ge h</w>
ge brauchen</w>
erklär e</w>
erfolgrei chen</w>
er wischt</w>
entwick el
end dessen</w>
dün n</w>
durch einander</w>
drück te</w>
d eines</w>
d .
cle ver
br ä
br ett</w>
bla se</w>
betra chteten</w>
beauf tra
be geben</w>
be ge
be arbeiten</w>
be acht
b ären</w>
b on
austau schen</w>
aufzu geben</w>
aufge geben</w>
auf hört</w>
atem berau
anzu passen</w>
ange sprochen</w>
andert halb</w>
an ziehen</w>
an sah</w>
ab läuft</w>
a ßen</w>
a mi
Zusammen bruch</w>
Zer e
Z wisch
Wol ken
Wider stands
War e</w>
Wahn sinn</w>
W it
Völker mord</w>
Vorher sage</w>
Vor gehensweise</w>
Veröffent lichung</w>
Vari ante</w>
Unter schei
U.S .</w>
U hr
U fer</w>
Tr aur
Temper aturen</w>
Te am
Tat to
Tan san
Söh ne</w>
Su cht</w>
St einen</w>
St .</w>
Spezi alisten</w>
Spa zier
Sout h</w>
Sicher lich</w>
Sc ott</w>
Rück kehr</w>
Roh stoffe</w>
Raum fahr
Rau chen</w>
R el
R eh
Posi tionen</w>
Plat ten</w>
Phosp hor</w>
Philosoph en</w>
Person al</w>
P I
O per</w>
Not fall
Nobel preis</w>
Nobel prei
No te</w>
Neuseel and</w>
Mikro -
Met a
Meeres boden</w>
M A
Lie b
Le s
Le go</w>
Le ber
La st
L en
Künst lerin</w>
Kunst werk</w>
Kr ähen</w>
Kop enha
Kon z
K unde</w>
K auf
Ju st
Jerus alem</w>
J ane</w>
J A</w>
Inter national</w>
Inn ere</w>
Imp rovis
H all</w>
Gre en
Gr au
Genau igkeit</w>
Ged uld</w>
Gand hi</w>
Funk tion
Frie d
Fort pflan
Feuer wehr
Fer ne</w>
Fa ss
Ess enz</w>
Er b
E D
Dru cker
Desig nern</w>
Den ker</w>
Del phin
Dar in</w>
D ilemma</w>
Com edy</w>
Col um
Bro wn</w>
Brie f
Bo ot
Bio masse</w>
Beteilig ung</w>
Ber kele
Be at
Bau er</w>
Ba sk
B ün
Aus gang
Auf grund</w>
Ato men</w>
Atlan ta</w>
At h
Ange stellte</w>
An ony
Americ an</w>
Abe d</w>
A ur
A pfel</w>
8 0er</w>
7 0er</w>
6 0er</w>
6 -
3 50</w>
ück en
über nimmt</w>
ök ologischen</w>
ö ch
äu ben</w>
äst het
är zte</w>
än e</w>
ä n</w>
Äl ter
zusammenge fasst</w>
zeit genöss
zehn tausende</w>
x im
w öch
verbra chten</w>
ver passen</w>
ver gi
un angenehm</w>
ultima tive</w>
temp or
teil zunehmen</w>
t ür
sub ti
stör t</w>
stell ungs
standar d</w>
skrank heiten</w>
schlie ssen</w>
sch licht</w>
sc annen</w>
s ität</w>
s end</w>
rü mm
ri d
ran nte</w>
pu mpen</w>
präsen tiert</w>
prin zip
persön liches</w>
person en</w>
per son</w>
pa ssten</w>
ot ischen</w>
offensicht liche</w>
neu tr
nachhal tigen</w>
mu lat
mil zt</w>
mikro b
ma cht
loss enen</w>
los werden</w>
le ere</w>
lauf e</w>
kt on</w>
krä ften</w>
kompli zierten</w>
ko ennen</w>
kenn tnis</w>
kein es
katastroph en</w>
jün geren</w>
is ra
intu i
intellektu elle</w>
iloso ph</w>
hor izon
heraus fand</w>
her bei
haf tigkeit</w>
ha se</w>
gän zlich</w>
gest ohlen</w>
gesell schaften</w>
gesch o
fra g
fr auen</w>
fiz ierung</w>
er lernen</w>
er leich
er holen</w>
elektron ischen</w>
einzel ner</w>
ein mal
ein laden</w>
ein hei
eigen er</w>
chirur g
bezah l
bewahr t</w>
beu gen</w>
bet h</w>
besch ul
berei tete</w>
ben ennen</w>
bemü hen</w>
be te</w>
be saß</w>
bau er</w>
ba stel
b un
b lichkeits
b elt</w>
aus sterben</w>
auf tritt</w>
auf gehört</w>
argu mentieren</w>
ar ien</w>
ar ch</w>
anzu bieten</w>
anal y
an schließend</w>
an fühlt</w>
an fangs</w>
all mählich</w>
all el
alifor n
ab sur
a siat
Zwei te</w>
Zwe cke</w>
Zu g
Z one</w>
Wür fel</w>
Wü sten
Wor über</w>
Weihna chten</w>
Webs eiten</w>
Wasser stoff
W all</w>
Vul kan
Voraussetz ungen</w>
Vor urteile</w>
Versu chs
Uni versen</w>
Uni on</w>
Un ru
Um setzung</w>
U p</w>
Todes ur
To k
Tit an</w>
Teu fel
Ter ra
Tepp ich</w>
Teil nahme</w>
Tansan ia</w>
Tab l
T sch
Sy l
Ster e
St ress
Solar zellen</w>
Ser vice</w>
Schwar zen</w>
Schnitt stelle</w>
Schalt kreise</w>
Sch langen</w>
Sa rah</w>
S oh
S lo
S ieht</w>
S hir
Rak eten</w>
R ü
R ah
Pilo t</w>
Pfa d</w>
Pen is</w>
Park platz</w>
P T
O ma</w>
Nor men</w>
Ne bel</w>
Mö bel</w>
Mum bai</w>
Mu ster
Monter ey</w>
Min i
Mar ken</w>
Ma ssen</w>
Ma is</w>
Lux us</w>
Latein amerika</w>
L T</w>
Kä se</w>
Krimin alität</w>
Kre atur</w>
Konsequ enz</w>
Komm and
Kin o</w>
Kil ogramm</w>
Jugend liche</w>
Jahrhunder ten</w>
Innov ations
Ingenie uren</w>
In tensiv
Ide ologie</w>
Heli kop
Har monie</w>
Ha be</w>
H ang</w>
H alt</w>
Griechen land</w>
Gr ön
Glie d
Gi ft</w>
Gew ässer</w>
Fotogra fen</w>
Fol ien</w>
Flücht lings
Flag gen</w>
F alten</w>
Ein sicht</w>
Dollar s</w>
Di r</w>
D ich</w>
Betrie b
Betra chter</w>
Best ech
Berkele y</w>
Ber lin</w>
Ber ichte</w>
Behin derung</w>
Be griffe</w>
Base ball</w>
B lö
B in</w>
B ald</w>
B -
Ar te
Anstren gungen</w>
An kunft</w>
Al gen</w>
A vat
9 6</w>
9 .</w>
4 3</w>
199 5</w>
äu ber</w>
ähn eln</w>
zusammen kommen</w>
zurech t
zu trifft</w>
zu -
zahl reiche</w>
z oomen</w>
wort wörtlich</w>
weiter entwickelt</w>
wa n</w>
vor nehmen</w>
vor aus
viel ver
verst or
verl aufen</w>
verknü pfen</w>
verantwor tungs
ver ließen</w>
ver arbeitung</w>
v enten</w>
unterschied licher</w>
un bekannten</w>
u ss
tö dlichen</w>
trä ger</w>
tr ü
tr auen</w>
teil ungen</w>
tan a</w>
t hr
sto ck</w>
sthe tik</w>
ste mp
st op
spie gel</w>
sp f
sk a</w>
si us</w>
sen der</w>
sel ek
se en</w>
schlä ft</w>
schlie ß
schlau er</w>
sau er</w>
s ar
räu m
ro sa</w>
respek tieren</w>
re deten</w>
pro biert</w>
orien tiert</w>
organis ationen</w>
or ten</w>
net ten</w>
mor e</w>
mitglie d</w>
militär ische</w>
ment ale</w>
mat ischer</w>
man a
mal a
ma xi
ma ssen</w>
m au
lä dt</w>
lie hen</w>
lan z</w>
kor rup
kor ea</w>
kom ische</w>
kat astro
kapit al
kan di
k ran
jün ger</w>
jeder mann</w>
iv a</w>
isra el
intelligen ter</w>
infor miert</w>
infor mieren</w>
il er</w>
ih u
iPo d</w>
i pp
i me
hoch wer
hinzu gefügt</w>
himm el</w>
herz lichen</w>
hei ligen</w>
ha sse</w>
grün de</w>
gro b</w>
glamour ös</w>
getau cht</w>
gesch lossen
gesch enkt</w>
ger echtigkeit</w>
geno mm
gegenwär tigen</w>
gefil mt</w>
ge malt</w>
ge ha
ge dauert</w>
führ ende</w>
frü he
französ ische</w>
fr isch</w>
fol gung</w>
feh lte</w>
f a</w>
extra h
existier enden</w>
europä ische</w>
et ings</w>
et -
erst mal</w>
errei chten</w>
erkrank ungen</w>
er a
du mme</w>
dis zip
dien ste</w>
de ffekt</w>
da y</w>
d ing</w>
d ichten</w>
bu ch
br ut
bli ckt</w>
bil deten</w>
best anden</w>
ber aten</w>
ben der</w>
bel ei
behaup tet</w>
auf gefallen</w>
annäher nd</w>
angeneh me</w>
alt h</w>
all täglichen</w>
al gorith
ak s</w>
ag on
abstra kte</w>
a stron
Zw an
Zeit schriften</w>
Zeit schrift</w>
Z i
X -
W unden</w>
Vö geln</w>
Vor les
Vol kes</w>
Visu alisierung</w>
Virgin ia</w>
Vermäch tnis</w>
Ver netz
Ver b</w>
Uns inn</w>
Trans ist
Tra g
The se</w>
Te d</w>
Super nov
Sti g
Spie gel
Sp innen</w>
Selbst mor
Seatt le</w>
Schwei zer</w>
Schla gan
Schei tern</w>
Sch er
Sch ale</w>
S M
Ro ute</w>
Ri ff</w>
Re pli
R unde</w>
R ent
Qu er
Q ai
Proje ktes</w>
Programmi eren</w>
Pil le</w>
Phänomen e</w>
Pat ente</w>
Paradig ma</w>
P unk
Not aufnahme</w>
Ne ws</w>
Musk el</w>
Mr d.</w>
Mo ha
Mitge fühls</w>
Merk mal</w>
Melo die</w>
Mahl zeiten</w>
Magaz ine</w>
Lin se</w>
Laut sprecher</w>
La mpe</w>
LK W</w>
Kämp fe</w>
Krä ften</w>
Krankenschwe stern</w>
Ko so
Ken ne
Kat al
Karr ier
Ka mel
K äf
K ollis
K lassen</w>
Jos ep
Je ff</w>
J F</w>
In tegra
I sa
Himm els</w>
Her o
Ha ss</w>
Ha mbur
Ha ken</w>
Grün der</w>
Grupp en
Gewe be
Get rän
Gesundheits versorgung</w>
Geschwis ter</w>
Frei zeit</w>
Fre qu
Fo ie</w>
Fla schen</w>
Feyn man</w>
Far mer</w>
Fa vor
Ever est</w>
Erzäh len</w>
Er der
En gel</w>
Ein samkeit</w>
Ein nahmen</w>
E l</w>
E i</w>
Den kt</w>
De f
Dan iel</w>
D omin
Clin ton</w>
Cli p</w>
Cel sius</w>
C hor</w>
C amp
Bri ten</w>
Br au
Bo gen</w>
Bin dung</w>
Belast ung</w>
B älle</w>
Auf wand</w>
Arab ien</w>
Antik ör
Amerikan ern</w>
Ali ce</w>
4 0
3 000</w>
199 4</w>
15 .</w>
00 0-
über holt</w>
änder ung</w>
äch ern</w>
ä uren</w>
Ägyp ter</w>
Ä sthetik</w>
zwei er</w>
zusammenzu arbeiten</w>
zusammen gestellt</w>
zusammen bringen</w>
zurückzu kehren</w>
zi vi
zellu l
zel len
z ettel</w>
wie viele</w>
weiter gegeben</w>
weiter geben</w>
weg zu
wander t</w>
w ale</w>
vor geschlagen</w>
visu ell</w>
verwand elte</w>
verhe er
ver sprechen</w>
ung s</w>
unbe grenz
um st
u le</w>
te ch</w>
te am</w>
stunden lang</w>
stu dium</w>
statt gefunden</w>
stat tung</w>
sta d
st euer
sex y</w>
sen sor
schwier igsten</w>
schu he</w>
schnell sten</w>
sam keiten</w>
ru in
rei f
reg ierung</w>
rech tzei
r ollt</w>
prakt ische</w>
oll te</w>
nör dlichen</w>
nö tigen</w>
nö tige</w>
ner in</w>
nen den</w>
ne ss
nah me
n eter</w>
molekul aren</w>
moder ner</w>
mo chten</w>
mar kt
man gel
m ungs
lau tete</w>
la mpe</w>
kur ve</w>
kt en
kre b
kol on
k lei
ju gend
je desmal</w>
ja gt</w>
j o</w>
is san
inspir ierend</w>
in seln</w>
in o</w>
il lu
iem lich</w>
icht ungs
i al</w>
häuf igsten</w>
hundert tausende</w>
ho m
hier mit</w>
hervor rufen</w>
heraus kommen</w>
her ab
h yp
h len</w>
h ell</w>
gri ppe</w>
gewis sem</w>
gerade zu</w>
gemeinnütz ige</w>
geh än
gef re
gebor enen</w>
ge mein</w>
ge liebt</w>
ge landet</w>
gan gs</w>
g alt</w>
fre quenz</w>
for sch
fläch en
flu cht</w>
flexi bel</w>
finanz iell</w>
ff s</w>
ergeb nisse</w>
er wecken</w>
er stellten</w>
er forder
ent sprechen</w>
ent kommen</w>
en ger</w>
el ie
dyna misch</w>
drei einhalb</w>
dra stisch</w>
da l</w>
d ierte</w>
ca -
br and
bie ter</w>
beängst igend</w>
bewe gten</w>
betr ug</w>
beschäd igt</w>
ber tät</w>
belieb ige</w>
be suchten</w>
b rot</w>
aus üben</w>
au gen
at ta
arbei ts
an gel
an erkennen</w>
al ei
abhän gen</w>
a kade
a ka
Zer o</w>
Z iemlich</w>
Wei ter</w>
Vor bereitung</w>
Vertr eter</w>
Verlu ste</w>
Ver arbeitung</w>
Tr auer</w>
To te</w>
Tin ten
The ater
Temp el</w>
Säu len</w>
Stor y</w>
Stel lt</w>
Stei gerung</w>
Ste ven</w>
St ür
Sol l</w>
Software -
Sk i</w>
Sie g</w>
Schul tern</w>
Schul den</w>
Schlei mp
Sch l
Sch all
SET I</w>
S ier
Ro ck</w>
Pu bertät</w>
Prü fung</w>
Platt formen</w>
Pho en
Phil anthrop
Pha sen</w>
Patient en
P rak
Nä mlich</w>
Neuro wissenschaftler</w>
Nei gung</w>
Ne un
Mobiltelef on</w>
Milli meter</w>
Mil len
Mein ungs
Mau ern</w>
M ie
Lu ther</w>
Lu st</w>
Lin ks
Lin ken</w>
Land karte</w>
L äden</w>
L y
Krebs zellen</w>
Kos mos</w>
Konversa tion</w>
Kondo me</w>
K og
Jä ger</w>
Ju p
Ja c
J oh
Information st
I kon
Hül le</w>
Hunder ten</w>
Hinder nis</w>
Hi mala
Hemisph äre</w>
He alth</w>
Hawai i</w>
Haupt stadt</w>
H ans</w>
Grö sse</w>
Grund schule</w>
Grie chen</w>
Gra b</w>
Gewohn heiten</w>
Gesichts aus
Geschäfts führer</w>
Gel b</w>
Gef ähr
För derung</w>
Funktions weise</w>
Fran zo
Fan g
F äden</w>
Erder wärmung</w>
Er spar
Entwick l
Entschei dungs
Ent hül
En deffekt</w>
Elefan t</w>
Durch fall</w>
Dsch un
DN S-
D. C.</w>
Brut to
Blo ck
Betra g</w>
Besu cher</w>
Beru fe</w>
Be dien
Be achten</w>
Aus rot
At men</w>
Ap oll
Angio genese</w>
Amerikan ischen</w>
Alb um</w>
Al tru
Al t
Al bert</w>
Ad op
A cht</w>
4 4</w>
3 8</w>
199 7</w>
19 80</w>
19 0
überra schen</w>
über gehen</w>
Ökonom ie</w>
Ähn liches</w>
zwangs läufig</w>
zu gs
zerstör er
x en</w>
wä sser
wi s</w>
wi der</w>
wesent liche</w>
wer tsch
wei ser</w>
war teten</w>
wa tt</w>
w ies</w>
vorzu bereiten</w>
volu tions
vol len
vertei digen</w>
verstär ken</w>
verschw anden</w>
verk ehr
verfüg baren</w>
ver sehen</w>
ver passt</w>
ver brau
unterneh mer
unter nommen</w>
ungewöhn liche</w>
um mi
u h</w>
tö tete</w>
t elt</w>
sätz liche</w>
sy l
stöß t</w>
städ tische</w>
sta dium</w>
st räger</w>
sprü che</w>
spek tive</w>
sp it
sor gte</w>
son anz</w>
sk rise</w>
sexu ell</w>
ser vat
san k</w>
s ster</w>
rip t</w>
reg net</w>
rechtzei tig</w>
re volution</w>
r .</w>
pro por
plat ten</w>
plan ung</w>
organ ischen</w>
organ ische</w>
op fern</w>
on ds</w>
o w</w>
o k
neh mern</w>
ne s
na ktivität</w>
mbo dsch
mat ie</w>
masch in
ma ten
la chten</w>
krimin ellen</w>
kre bs
kontroll ierte</w>
konkurr ieren</w>
ko stete</w>
ko cht</w>
klu ge</w>
klat schen</w>
ka tion</w>
k nü
jung es</w>
jap anischen</w>
ir ren</w>
in form
hinter her</w>
her stellung</w>
ha ie</w>
gr auen</w>
gest immt</w>
gesellschaft liche</w>
gesch ätzt</w>
gesch u
ges ie
gend sten</w>
geist ige</w>
gehör igen</w>
gehei m</w>
geh ir
geb auten</w>
ge widmet</w>
ge ometr
ge lung</w>
ga ben
fü ttern</w>
fäh iger</w>
for tzu
flüss ig</w>
flü ch
feh ler</w>
fantast isches</w>
fa ktor</w>
f st</w>
erz ogen</w>
erhe blich</w>
er gab</w>
entsch loss</w>
ent warfen</w>
ent a
emp f
ein richtungen</w>
ein bauen</w>
eg o
e ering</w>
dyna mische</w>
dunk el
dru ckte</w>
dreidimension alen</w>
dire kten</w>
dig ungen</w>
di fferenz
deu tlichen</w>
der selbe</w>
dauer haft</w>
chen der</w>
c om
br a</w>
boo t</w>
bom be</w>
bewerk stelligen</w>
besonder es</w>
benö tigten</w>
ben ach
bekann ter</w>
be folgen</w>
bau e</w>
b ik
b ak
auf nimmt</w>
attrak tiv</w>
ats ch</w>
ar ds</w>
an legen</w>
an fällig</w>
an de</w>
ag nen</w>
ad el
ab spielen</w>
a a
Zylin der</w>
Zwisch enzeit</w>
Zur ück
Zu stände</w>
Zivil gesellschaft</w>
Zie len</w>
Zei chen
Z oo</w>
Wu ssten</w>
Wichti g</w>
W inter
Ver haltens</w>
Vari anten</w>
Uns icht
Tun nel</w>
Telef one</w>
Technolog ie
T-S hir
Sy nap
Super hel
Strän ge</w>
Stir n</w>
Star t
Spit zen
Sonnen systems</w>
Soll ten</w>
Sexu al
Seh vermögen</w>
Schi ffe</w>
Schau spie
Sch na
Sal z</w>
S ich</w>
S A-
Ro y
Rei se
Regul ierung</w>
R iver</w>
Politik ern</w>
Ph ilosoph</w>
Pass wort</w>
P ress
P oll
P han
P et
Or ien
Mu tationen</w>
Moskit on
Mathema tik
M T</w>
Liban on</w>
La ser</w>
La ger
La dung</w>
L ak
Kühl schrank</w>
Kunst stoff</w>
Kos m
Kompromis s</w>
Komp et
Kl isch
Kar ten
K leider</w>
K ei
Jähr igen</w>
Josep h</w>
Jos hu
Ir land</w>
Instal lation</w>
In dex</w>
Impf stoffe</w>
Hy br
Hunger s
Hu hn</w>
Hon ig
Hon g</w>
Hom osexu
Hinter kopf</w>
Haus halte</w>
Ha i
Ha fen</w>
Glühbir nen</w>
Glühbir ne</w>
Ger ichts
Gel der</w>
Gefan gen
Gebil de</w>
Geb ir
Gan g
Fur cht</w>
Fro sch</w>
Fort bewegung</w>
Fo ot
Fer tig
Fan tast
Fak ult
F it
Et han
Erwachsen er</w>
Entscheid ungst
Eigen t
E mbr
E S
Dutz ende</w>
Di ffer
Che mie
Cany on</w>
Caf é</w>
Bö sen</w>
Bundes staat</w>
Bruch teil</w>
Betrie bs
Bet rü
Be glei
Base ball
B os
B eute</w>
B auen</w>
Aut h
Aus wahl
Aus löser</w>
Ar mu
App s</w>
An sammlung</w>
Amaz on</w>
Abra ham</w>
Ab teilung</w>
Ab folge</w>
A part
A ir</w>
A G</w>
1 2.</w>
- --</w>
ür e</w>
über aus</w>
öl fe</w>
z ell
wu er
wo w</w>
wirtschaft licher</w>
wider stehen</w>
we sten</w>
wasser stoff</w>
war te</w>
vorher igen</w>
verste ckten</w>
vers ität</w>
verbran nt</w>
ver drei
unzäh lige</w>
ung ssysteme</w>
un a</w>
umfass ende</w>
täu schen</w>
trin kt</w>
tran k</w>
tr en
tief sten</w>
theoret isch</w>
techn ik</w>
ta bel</w>
t chen</w>
ständ iger</w>
stän diges</w>
stei ger</w>
ste st</w>
stan des</w>
st ur
st ress
st ischen</w>
son st
sk y</w>
se arch</w>
schö pfen</w>
schwa mm</w>
schme ckt</w>
schlie ße</w>
sch ützt</w>
sa mer
ru ch</w>
roman tische</w>
rei st</w>
reflek tiert</w>
reflek tieren</w>
re l</w>
ra ck</w>
qu e</w>
prot est
pf ern</w>
per man
os kop
on e-
ob i
o is</w>
nutz ung</w>
notwen digen</w>
ne un
n ter</w>
n iger
musikal ische</w>
met ap
merk ung</w>
mater iellen</w>
mag ische</w>
lüss elt</w>
lie gende</w>
leh nte</w>
leben s</w>
l äh
l iges</w>
kür ze
kün fte</w>
krit isch</w>
kon fli
kollek tive</w>
kollab or
intervie w
interess iere</w>
intellektu ellen</w>
in ta
in genie
in den</w>
imi tieren</w>
i aner</w>
har m
h ig
grö sser</w>
gl as</w>
gew ichti
geschla fen</w>
gen auen</w>
gemein sames</w>
gel enk</w>
gehör te</w>
gef ör
ge setze</w>
gan zer</w>
fühl st</w>
fäh ige</w>
fru cht
flex ib
fla sche</w>
erwachsen e</w>
ern ährt</w>
ern ste</w>
er läu
er kenn
einge bet
der jenige</w>
d utz
ck ern</w>
ch tern</w>
c ar
besie gen</w>
besch ä
bele gen</w>
bei seite</w>
be dient</w>
bas ierten</w>
ban ken</w>
aus bilden</w>
ar er</w>
an ern</w>
an bauen</w>
alle l</w>
ak tivität</w>
adel ph
absol uten</w>
ab nehmen</w>
Zü ge</w>
Wil le</w>
Wiederauf bau</w>
Wende punkt</w>
Wei ße</w>
Wahl möglichkeiten</w>
W right</w>
W I
Vietna m</w>
Verpflich tung</w>
Ver zerr
Tän zer</w>
Tä tigkeiten</w>
Todes fälle</w>
To p</w>
Tha iland</w>
Tal ente</w>
TED- Vortrag</w>
T äter</w>
T isch
Süd pol</w>
Syl via</w>
Stu di
Stoff e</w>
Stand ort</w>
St unden
Spa ce</w>
Sour ce-
Sier ra</w>
Shakespe are</w>
Sequ enzen</w>
Selbst mord</w>
Schö pfung</w>
Schätz ungen</w>
Schw ein</w>
Schn urr
Schaff ung</w>
Sch ir
S omal
S hr
S her
Regi me</w>
R und
Psych i
Pro stitu
Phil adelph
Perspek tiven</w>
Performan ce</w>
Pass ag
Par tikel</w>
Pal ä
P etr
P E
Oze an
Neu gierde</w>
Nan o
Na mi
Mon tana</w>
Mod ellen</w>
Mo menten</w>
Mich el
McDon ald</w>
Materi al
Man ip
Ma cher</w>
M all</w>
Le wis</w>
Lar ry</w>
Kur ven</w>
Kor re
Koka in</w>
Ja zz</w>
Isra el
Internet -
I I</w>
I BM</w>
H ur
H op
H au
Glob us</w>
Gi b</w>
Geschäfts welt</w>
Gen oms</w>
Ge stern</w>
Gal erie</w>
Fuß gänger</w>
Fru stration</w>
Fot ograf
Fossil ien</w>
Fic tion</w>
Faceboo k-
F un
F ingern</w>
Er öff
Er sten</w>
Er nte</w>
E tik
Demokra tien</w>
D osis</w>
Bet on
Benutz er</w>
Behaup tung</w>
Bedroh ungen</w>
Be zahlung</w>
Bask et
Ba ck
Außen welt</w>
Autob ahn</w>
Aut on
Arznei mittel
Arch iv</w>
Arab isch</w>
Ap parat</w>
An sätze</w>
Ak teure</w>
Ac c
6 0.000</w>
5 0er</w>
20 15</w>
. -
ök ologische</w>
Über blick</w>
zu stande</w>
z iel</w>
z ern</w>
wor aus</w>
wer tung</w>
wer tes</w>
wand elt</w>
verursa chte</w>
versch wenden</w>
vernünf tig</w>
vermis cht</w>
verlang samt</w>
verlang samen</w>
verfü gt</w>
ver richten</w>
ver fein
ver bringt</w>
ver bringe</w>
unterschie d</w>
ungs los</w>
um gebracht</w>
ul tra
tiv em</w>
tier ter</w>
t nä
tnä ck
sü dlich</w>
su lin
stu denten</w>
stat ten</w>
st ig</w>
st chen</w>
sp uren</w>
skep tisch</w>
sich ert</w>
schwi tz
sch ritten</w>
sch melzen</w>
sch l
sa t
ris kan
ri gen</w>
r i</w>
produk tiv</w>
prakt ischen</w>
per ten</w>
pass end</w>
par allel</w>
pa rate</w>
p lötz
opti mieren</w>
oler anz</w>
nah en</w>
nach dachte</w>
mu seum</w>
mot or</w>
mit bringen</w>
min us</w>
min g</w>
min e</w>
mater ielle</w>
ma xim
ma tion</w>
lö ste</w>
län gere</w>
lich keit
lehr er</w>
le ten</w>
le giti
lan gten</w>
krie gs</w>
kla ppen</w>
kl äss
k ert</w>
jahr en</w>
iv es</w>
isch ste</w>
innova tive</w>
im mi
illeg ale</w>
ig eren</w>
iel d</w>
ie t</w>
häu s
histor isch</w>
hervorra gend</w>
herunter laden</w>
hal ter</w>
h öl
h h</w>
gl ä
gewöhn liches</w>
gesund heits
ges undes</w>
geist igen</w>
geh and
gefr oren</w>
ge steckt</w>
ge benen</w>
g os
g ala
fü gte</w>
for muliert</w>
fig u
fehl enden</w>
fa ssen
ess ent
erz e</w>
ern ähr
erfolgrei cher</w>
er mor
entzün dung</w>
en dem</w>
elektro magnet
ek s</w>
einzu führen</w>
einge sperrt</w>
ein verstanden</w>
ehr gei
dreidimension ale</w>
domin iert</w>
do x</w>
digit al</w>
der gleichen</w>
depress iv</w>
ch ester</w>
c en
bräu chten</w>
bom bar
bil dern</w>
bewu sste</w>
betra chtete</w>
behin dert</w>
begeg net</w>
beeindruck ende</w>
be weist</w>
be vor
be saßen</w>
be decken</w>
be am
bab we</w>
b ien</w>
ausge sprochen</w>
aus wendig</w>
aus gerichtet</w>
aus gelöscht</w>
auf zeigen</w>
auf geb
at te</w>
at met</w>
ar tikel</w>
antwor teten</w>
anal yse</w>
al ters</w>
al ten
al ie</w>
akade mischen</w>
Z umin
Z ens
Wäl dern</w>
Woh ler
Win den
Will kommen</w>
Wasser s</w>
Versch wendung</w>
Um lauf
Taus end</w>
Tages licht</w>
Ta x
TEDTal ks</w>
T or</w>
Süda merika</w>
Steuer ung</w>
Sequ enz
Selbst vertrauen</w>
Sei en</w>
Sech s
Se g
Schu lab
Schat z</w>
Raum schiff</w>
R aten</w>
Profess oren</w>
Pol en</w>
Plat te</w>
Pil z</w>
Pe er-
Pa ck
P -
Olymp ischen</w>
O ben</w>
O -
Nord o
Nervenz elle</w>
Nach kommen</w>
Mün ze</w>
Män ner
Moz art</w>
Moskit os</w>
Molek ular
Mo del</w>
Miss brauch</w>
M ul
Licht geschwindigkeit</w>
Lehr plan</w>
Le b
Lan de
L äh
L etzt</w>
Kämp fer</w>
Käl te</w>
Kri terien</w>
Kon serva
Kommunik ation
Kog ni
Kenne dy</w>
Kat he
Ka is
K ette</w>
J C</w>
Inse kt</w>
I .</w>
Hüh nchen</w>
Hü fte</w>
Hub schrau
Hoch zeit</w>
Hoch schul
Hipp o
Her de</w>
Haus halts
H os
Graf iken</w>
Glet sch
Gi ft
Gesch ö
Ge sten</w>
Ge ck
G ummi
G -
Fre undes</w>
Filme macher</w>
Fabr ik
F lex
Er st
Er neu
Er doberfläche</w>
En g
Eis en</w>
E volutions
Dopa min</w>
Dir igen
Diplo matie</w>
Dia gramme</w>
Di ck
Det ektor</w>
Connec tome</w>
Che miker</w>
Ber ater</w>
Beispie l
Beij ing</w>
Baum wolle</w>
Ban ker</w>
Ba ch</w>
B ist</w>
Auf ruf</w>
Al umin
Akade miker</w>
Ak zent</w>
Ab kommen</w>
Ab fall
8 6</w>
5 8</w>
5 0
-B om
überprü ft</w>
über mitteln</w>
är es</w>
Über re
Älter werden</w>
zurück ge
zeu gs</w>
z ierende</w>
z ielen</w>
z iele</w>
z end</w>
z ar
yp e</w>
y e
witz ig</w>
wil den</w>
we ckt</w>
wahr zunehmen</w>
voll em</w>
vielfäl tigen</w>
verw alten</w>
versch lu
verbin dungen</w>
verbin dung</w>
ver min
ver klein
v is</w>
unk er</w>
universel le</w>
un fähig</w>
un bewusst</w>
un bekannte</w>
umzu wandeln</w>
um drehen</w>
u ts</w>
trag bare</w>
ti gend</w>
teil haben</w>
teil chen</w>
ta in</w>
t etes</w>
strö me</w>
sti muliert</w>
ste tig</w>
spro zess</w>
spr üch
spezif isch</w>
spar tner</w>
sp en
selten en</w>
se t</w>
schüch tern</w>
schrei tet</w>
scho ss</w>
schli mme</w>
sch wu
sch mei
sa n</w>
s i</w>
rä te</w>
ri ft</w>
rech net</w>
real istisch</w>
re präsent
rau chen</w>
ra tet</w>
ra ss
ra ch
r ingen</w>
qu is
psych ologischen</w>
prä fron
profession elle</w>
po sten</w>
ph a</w>
orien tierten</w>
opp t</w>
op ft</w>
nu mmer</w>
neur on
na ckt</w>
mäch tiger</w>
mo di
leu ch
lei chten</w>
lehr te</w>
lass ung</w>
klet tert</w>
kla ho
k i</w>
jün gste</w>
jün gere</w>
ival ent</w>
is se</w>
intu itiv</w>
install iert</w>
install ieren</w>
in va
ie dr
hilf los</w>
ha r</w>
h ungern</w>
h ung</w>
grenz ung</w>
gno st
gerei cht</w>
ger ü
g ungs
g liches</w>
frem den</w>
fortsch rit
ff ern</w>
ff el</w>
f tet</w>
eth ischen</w>
eth ische</w>
ernst hafte</w>
er schö
er raten</w>
empfin dlich</w>
eh e</w>
dreh ten</w>
der art</w>
de bat
da von
da l
d ul
d sel
ct us</w>
ch ert</w>
br ie
bil lige</w>
bi ologischer</w>
bi enen</w>
besit z</w>
beruh igen</w>
ber ku
bemü ht</w>
bele ben</w>
be sorgen</w>
be ga
ausge führt</w>
aus gestellt</w>
auf wärts</w>
auf wachsen</w>
at z</w>
at h</w>
assozi iert</w>
an säss
an schließen</w>
ala i</w>
al bern</w>
aka dem
af ghan
a dr
a ber
Zumin dest</w>
Zei le</w>
Z ul
Wur zel</w>
Wh it
Wei zen</w>
Wa l</w>
W änden</w>
W K</w>
Vor lieben</w>
Vor gänge</w>
Vis ionen</w>
Vie h</w>
Verw altung</w>
Verb unden
U C
Tum ore</w>
Tie fen</w>
Teleskop e</w>
T ar
Syn these</w>
Sy mbol
Su per</w>
Su chen</w>
St op
Spiel ern</w>
Sp itz
So cial</w>
Smartph one</w>
Skelett musk
Sie d
Schwefel wasserstoff</w>
Schle chtes</w>
S wa
S ant
Rückmel dung</w>
Rhyth -
Rei fen</w>
Recher che</w>
Rea ktor</w>
Re search</w>
Re pu
Re gal</w>
Ra ssen
Qu ant
Pu zz
Pro pa
P ic
P ant
Ost küste</w>
Origin al</w>
Or gas
O klaho
Nan ot
Nahrungs mittel
Nahrungs kette</w>
Nach bar</w>
Moha mm
Mo unt</w>
Min en</w>
Meer wasser</w>
Me etings</w>
Mat t</w>
Mar ihu
Man n
Ma is
M isch
M ah
Lin sen</w>
Li ppen</w>
Lehr er
Lebens zeit</w>
Le se
Le e</w>
Lang zeit
Kontin ente</w>
Komp lex</w>
Kinder garten</w>
Kan sas</w>
Ka mbodsch
Jahr e
Häu f
Hormon e</w>
Hor mon</w>
Herr schaft</w>
Hei m</w>
He bel</w>
H ätten</w>
Glei ch</w>
Frü chte</w>
Fr is
Flug zeugen</w>
Fle ck</w>
Fahr en</w>
F inn
Extra -
Ein schränkung</w>
Ein klang</w>
Ein griff</w>
Ein -
Ehr lich</w>
E go</w>
E ast</w>
E U</w>
Diszip lin
Dia man
De sa
Dar m</w>
D ein</w>
D alai</w>
D R</w>
Cor tex</w>
Co ca-
Clu b</w>
C la
C N
Bot scha
Boo te</w>
Blu e</w>
Bl itz</w>
Bet t
Berg steiger</w>
Bedürf nissen</w>
Be schränkungen</w>
Be frei
Bas is
Aus gangs
Arbei ter
Ar du
Anima tionen</w>
Anforder ungen</w>
Anat omie</w>
An rufe</w>
Ala ska</w>
Al pha</w>
Ak zep
Aben ds</w>
Ab stra
A sp
A s
9 9
5 9</w>
über wacht</w>
über schreiten</w>
äuß eren</w>
är kt</w>
äl terer</w>
äd chen</w>
zusammen setzen</w>
zu ge
zu dem</w>
zieh ungskraft</w>
zi p</w>
zeich ne</w>
y en</w>
y an</w>
wissenschaft licher</w>
wil de</w>
wer tet</w>
w ehr</w>
vor bereiten</w>
visu eller</w>
versicher ung</w>
vernünf tige</w>
vern etzt</w>
ver wur
ver se</w>
ver handeln</w>
v in</w>
unter drücken</w>
un glücklicherweise</w>
un bekannt</w>
um gibt</w>
u s-
tö teten</w>
tö dlich</w>
tu st</w>
tro cken</w>
trei bung</w>
tre ff
traur ige</w>
syn chron
stu die</w>
st reifen</w>
st lich</w>
st immi
spür te</w>
spezi alisiert</w>
speich el
sorg ungs
sieh e</w>
selten er</w>
schwe ben</w>
schie ßt</w>
sch ool</w>
reich sten</w>
recht liche</w>
re spekt
r unden</w>
r olle</w>
r and</w>
qu ote</w>
pa l</w>
pa k
ot o</w>
osi tion</w>
or n
on d</w>
og er</w>
o de</w>
ni mm</w>
nach her</w>
n os
n ik</w>
mm el
mitt ler</w>
minis tra
mi um</w>
mechan ische</w>
mathe matisch</w>
manip uliert</w>
mag ischen</w>
mach bar</w>
m herz
läu fe</w>
län gst</w>
lä nen</w>
lin g
leidenschaft lich</w>
künstler ische</w>
küh lt</w>
kreis lauf</w>
kra tie</w>
korrig ieren</w>
kil ometer</w>
katastro phal
j our
iti s</w>
ir r
in ti
in stru
in einander</w>
in chen</w>
imp or
ig an</w>
ic o</w>
i um
i ro
i ce</w>
i bilität</w>
häss lich</w>
hervor heben</w>
heraus ra
her kommt</w>
h ut
grün dlich</w>
gro sser</w>
gleich ermaßen</w>
gewis s</w>
get ar
gesam tes</w>
geord net</w>
gei st</w>
ge sendet</w>
g on</w>
g leicht</w>
fundament alen</w>
fris st</w>
frem de</w>
fre sser</w>
französ ischen</w>
fol g</w>
fek tion</w>
fehl ende</w>
evolution ären</w>
evolution äre</w>
et tes</w>
er fuhren</w>
er freut</w>
entr um</w>
ent he
en a</w>
einzu fangen</w>
eingebet tet</w>
ein gerichtet</w>
ei len</w>
ei gen</w>
e ti
diszip lin
dig erweise</w>
den jenigen</w>
d son</w>
ck el</w>
chen -
c c
bür ger
br ieren</w>
blichkeits rate</w>
berech tigung</w>
ber icht</w>
ben ziel
ben es</w>
beh er
beh a
begrenz ten</w>
be denkt</w>
be arbeitet</w>
be -
bahn brech
b ungs
außer ordent
ausge dacht</w>
aus schalten</w>
aus richten</w>
aus löst</w>
aufzu hören</w>
auftau cht</w>
architekton ische</w>
ar te</w>
ar es</w>
an gerufen</w>
alt mod
allgegenwär tig</w>
ak ku
ab schneiden</w>
a issan
Zwei g</w>
Zusammen spiel</w>
Z immer
Wohler gehen</w>
Wo zu</w>
Winden ergie</w>
Werk statt</w>
Wahr heiten</w>
W s</w>
Vorder grund</w>
Ver kaufs
Ven us</w>
Vari ation</w>
Vaku um</w>
Unterschei dung</w>
Un mögliche</w>
Tu berku
Tief se
Ter ror</w>
Tele kommunik
Ta mi
Ta geb
T oleranz</w>
T hin
Symmetr ien</w>
Stä mmen</w>
Ster ber
Sta dium</w>
Sta di
St ie
St ell
Spiel zeug
Sp rech
Sp inne</w>
Sonn ensch
Son de</w>
Sel t
Se di
Schil dkrö
S A
Ru he
Ren aissan
Re s
R ein
R ap
Qai da</w>
Prie ster</w>
Poliz ist</w>
Poin t</w>
Pf licht</w>
Patient in</w>
Pat ent</w>
Part nern</w>
Panz er</w>
P ur
P l
P ip
P ier
P R-
Oklaho ma</w>
Nul len</w>
National park</w>
Na deln</w>
Mäd chens</w>
Mu si
Minder heit</w>
Materi als</w>
Mal ari
Ma gen</w>
MR T</w>
M ön
Leu cht
Ler nens</w>
Le x
L yn
L HC</w>
Kre dit</w>
Koso vo</w>
Kopenha gen</w>
Kontin enten</w>
Kon g</w>
Ko sten
Klar heit</w>
Kathe dr
Ka sten</w>
Ka mel</w>
K ak
Jour nal</w>
Je ffer
J ün
J enn
Interess ant</w>
Infek tion</w>
Indi aner</w>
In va
I mmi
Höh len
Höh en</w>
Hän de
Hin ter</w>
Hel ium</w>
He fe</w>
H alten</w>
H ab
Gu er
Gol dene</w>
Geschle chts
Gemein samkeiten</w>
Gel ehr
Gedäch tnis
Ge wissen</w>
Ge stein</w>
Ge ste</w>
Gar ten
Fü lle</w>
Früh stück</w>
Frem d
Fra ge
Fr on
Fortsch rit
For m
Fischer ei
Erleb nisse</w>
Ent wur
Energ ies
Emp fin
E wi
Drit te</w>
Dra ht</w>
Dar m
D än
D AR
Crick et</w>
Cra ig</w>
Cock ta
C u
C lar
C ents</w>
C at
Büh nen
Bu sse</w>
Brenn stoff
Bauch speichel
Banglades ch</w>
Ban anen</w>
Bakteri en
Aussa gen</w>
Ausgang spunkt</w>
Aus schau</w>
Aus bruch</w>
Aus breitung</w>
Armu ts
Ar gentin
Anal ys
An stelle</w>
An blick</w>
Am ster
Abhol zung</w>
Ab kür
A str
A lex</w>
A A</w>
8 -
5 0ern</w>
5 0.</w>
1, 3</w>
- System</w>
üt teln</w>
überwäl tigt</w>
äu f
ät s</w>
ä gyp
Ö ster
Ärz tin</w>
zweif eln</w>
z ität</w>
z iger</w>
y rin
y e</w>
wunder barer</w>
wieder zu
wider sprüch
we sens</w>
w ehren</w>
voll ste</w>
vertrau ens
vern etzen</w>
verbesser te</w>
veran schau
ver spreche</w>
ver ga
ver flo
unglaub licher</w>
ung lei
und eu
un erwartete</w>
u ss</w>
transfor mieren</w>
to m</w>
tiv ität
ten der</w>
techn ologischen</w>
te steten</w>
ta k
t lichkeit</w>
sü dlichen</w>
sub jek
stär ke</w>
ständ igkeit</w>
stimm ten</w>
stel lige</w>
steh st</w>
stat istisch</w>
st ert</w>
spr ich
spiritu ellen</w>
sicht baren</w>
sexu ellen</w>
schätz ung</w>
schrän ken</w>
schritt weise</w>
sch lossen</w>
s eu
richti ger</w>
res istent</w>
rei sten</w>
rech nung</w>
ra y</w>
prü ft</w>
propor tional</w>
pol ar
par tei
p unkten</w>
or in</w>
op er</w>
ol -
offen er</w>
o sen</w>
o mik</w>
o den</w>
nach richten</w>
n ützen</w>
mp t</w>
mon a
mit fühl
mier ten</w>
ment en
men de</w>
lü sse</w>
lu ft</w>
lu den</w>
lok aler</w>
lich ten</w>
lat ein
land wirtschaftlichen</w>
l st</w>
kt isch</w>
kreu zen</w>
kon trover
kompl etten</w>
klop ä
ken den</w>
kan n
k tion
k ind</w>
k etten</w>
jour n
it zt</w>
isch sten</w>
individu ell</w>
ik a</w>
ig n
ig keit
i cken</w>
hän dler</w>
hoh es</w>
hoch geladen</w>
het er
heraus stellte</w>
heraus kommt</w>
heraus forder
heira tete</w>
ha cken</w>
günst iger</w>
gän g
gru sel
greif bar</w>
gesprä che</w>
gesch rie
gerin ge</w>
ger es</w>
geheim nis
gehei me</w>
geför dert</w>
gef ror
gedei hen</w>
geb a
ge ment
führ ungen</w>
fokuss iert</w>
flü ge</w>
flie hen</w>
flie genden</w>
fett leib
fer s</w>
fahr ts
f i</w>
erzieh en</w>
erwar te</w>
ermor det</w>
erg reifen</w>
erf ährt</w>
entschul digen</w>
eit h</w>
einfach sten</w>
ein erseits</w>
ehemal ige</w>
eh l</w>
dra matische</w>
doku mentiert</w>
derzei tigen</w>
de kor
da ch</w>
cle ver</w>
chr ist
bö s
block iert</w>
block ieren</w>
bin dung</w>
bewu sster</w>
besch rei
ber ichtete</w>
bele gt</w>
bel ohnen</w>
beh eben</w>
befest igt</w>
bedeu tenden</w>
be gangen</w>
be fasst</w>
bas is</w>
aus denken</w>
aufge teilt</w>
astron om
anzu g</w>
an halten
an greifen</w>
an geben</w>
al tern</w>
ak te</w>
ah en</w>
ad o</w>
ab laufen</w>
ab geschnitten</w>
Zu dem</w>
Zigar etten</w>
Zeu ge</w>
Zehn tel</w>
Wissenscha ften</w>
Wichti ge</w>
Wa ch
Vor sit
Vor aussagen</w>
Vier tel
Versuch ung</w>
Vernetz ung</w>
Ver wen
Ur ban
Ungleich gewicht</w>
Un gerechtigkeit</w>
Um wand
Um fragen</w>
Ultra sch
Twitter -
Tran si
Training s
Tief see</w>
Tes la</w>
Ta i
T .</w>
Ste wart</w>
Staat es</w>
St ö
Spiel zeuge</w>
Spektr ums</w>
Spa ss</w>
Sp ruch</w>
Sol ange</w>
Ser ver</w>
Seh n
Schul bildung</w>
Schmer z
Schir m</w>
Schei ße</w>
Sa van
S l
Ru hm</w>
Ro se</w>
Ritu al</w>
Redu ktion</w>
Rechen leistung</w>
Rech te
Re chn
Prior ität</w>
Prin c
Pilo ten</w>
Philadelph ia</w>
Para dies</w>
P sy
P ep
P ek
Open- Source-
On k
Oli ver</w>
Okt op
O t
O ne</w>
O .
Nor m</w>
Ne u</w>
N r.</w>
N on
N ich
Mö chten</w>
Myster ium</w>
Mu tation</w>
Mu seen</w>
Moder ne</w>
Mit terna
Minis ter</w>
Mikro fon</w>
Mahl zeit</w>
Ma y
M ala
Lib ellen</w>
Lebens formen</w>
Le g
Land ung</w>
Lan des
La w
Ku mp
Kro ko
Kreu zung</w>
Kopf schmerzen</w>
Kontra st</w>
Konfer enzen</w>
Kolla ps</w>
Kla vier
Kan äle</w>
K eith</w>
Jup iter</w>
Inter nationale</w>
Inten sität</w>
Integr ität</w>
Imm obil
I -
Hän dler</w>
Hot el
Hem d</w>
H oll
H app
Gär ten</w>
Grün dung</w>
Gre en</w>
Geschle chter
Gesch eh
Gen es
Gat tung</w>
Fünf tel</w>
Fuß ball</w>
Frei tag</w>
Frei en</w>
Fli ck
Fle cken</w>
Festiv al</w>
Feh ler
F DA</w>
Exp an
Errungen schaften</w>
Er fassung</w>
Engin eering</w>
Ehr lichkeit</w>
Ed in
Dün ger</w>
Dschun gel</w>
Do wn
Disziplin en</w>
De mut</w>
Daten satz</w>
Coca- Cola</w>
Chromoso men</w>
Carto on</w>
C le
Brow ser</w>
Brenn stoff</w>
Br ig
Blind heit</w>
Blei sti
Bereit schaft</w>
Be weis
Be sser
Be er
Bauchspeichel drü
Ban gal
Bam bus</w>
Ba d</w>
Auth enti
Auss icht</w>
Aus sterben</w>
Astron omie</w>
Arznei mittel</w>
Aqu arium</w>
An gst
Al li
Al -
Ak tionen</w>
Agra r
Ab schie
A pfel
A na
A ku
A kteur</w>
9 7</w>
7 .
5 4</w>
5 2</w>
199 6</w>
199 3</w>
-S how</w>
überwälti gend</w>
über legte</w>
ör tliche</w>
öffent liches</w>
äuß ere</w>
Ähn lichkeit</w>
Ähn lich</w>
zufäl ligen</w>
wür digkeit</w>
wäh lte</w>
wirtschaft s
wir ren</w>
weiter gehen</w>
wein te</w>
weg nehmen</w>
wa t
vorherr sch
vor aussagen</w>
volu tionen</w>
vir en</w>
vermehr en</w>
verhäl tnisse</w>
verabschie den</w>
ver sammeln</w>
ver legen</w>
ver deutlichen</w>
v ö
v t</w>
unter nehmer</w>
unter brechen</w>
unbe absichti
unaus weich
unabhän gigen</w>
u el</w>
tr äu
tin ation
tig ungen</w>
tig keits
ti en
ti c</w>
tern de</w>
ter ielle</w>
ter ie
techn ischer</w>
tau chte</w>
t ap
steh end</w>
st ücken</w>
st ätten</w>
st unde</w>
st ige</w>
ssp e
sprech ungen</w>
sperr en</w>
sp ü
sonder lich</w>
soll st</w>
simp el</w>
si v</w>
schnell ste</w>
schlü sse</w>
sch äden</w>
s and
region ale</w>
recht fertigen</w>
rech ter
re kru
re en</w>
re a
posi tiver</w>
plan et
pa ss</w>
p un
p os
ot het
or es</w>
oper ieren</w>
ol ymp
ograph ische</w>
ober fläche</w>
o mar
neh m
nach ahmen</w>
mul tination
mu sik</w>
mp ro
mm i</w>
mil y</w>
met ter
mei stern</w>
medizin ischer</w>
mechan ischen</w>
mb ran</w>
mat isierung</w>
man ns</w>
man cher</w>
m ädchen</w>
läu fer</w>
li ter
leu g
leben der</w>
lauf enden</w>
langfris tigen</w>
la gert</w>
kümm erte</w>
kt ische</w>
konta kt</w>
komp ri
kommerz ielle</w>
klü ger</w>
kat hol
kamp agne</w>
ka mmer</w>
k kol
jün gsten</w>
jewei ligen</w>
ist ent
inspir ierte</w>
in neh
immer hin</w>
ier st</w>
ier en
i anische</w>
i a
hin einge
hin ab</w>
hier von</w>
herr schaft</w>
heraus kam</w>
hel l
hat test</w>
hal te
h s</w>
gö t
gu ckt</w>
gra f
gewöh nen</w>
gewäh lten</w>
gewohn heiten</w>
gesteuer te</w>
gen turen</w>
gel der</w>
gegenwär tige</w>
gegensei tige</w>
ge wartet</w>
ge spro
ge liefert</w>
ge kostet</w>
fün fte</w>
fu ß</w>
freund liche</w>
for schungen</w>
fe kt</w>
f und
extre men</w>
exter ne</w>
erz eit</w>
erw iesen</w>
erh äl
er ungen</w>
er eien</w>
ent mu
emp fehlen</w>
eig nete</w>
effek tive</w>
draht lose</w>
do -
deut schen</w>
deut sche</w>
desig nen</w>
den s
den er</w>
dat tent
d. h.</w>
cher ung</w>
ch end</w>
ca mpus</w>
bür ger</w>
bom ben</w>
blo g
bl ühen</w>
bis her
bezah lte</w>
betrü gen</w>
besei tigt</w>
beschrän ken</w>
bereit stellen</w>
berei che</w>
ben er</w>
begrü ßen</w>
bedin gte</w>
be suche</w>
be sprechen</w>
be für
be absichti
bar em</w>
b lichen</w>
ausger ottet</w>
aus gestor
aus bildung</w>
ar s</w>
ar d-
an o</w>
an cen</w>
aktu ell</w>
abgele genen</w>
a y</w>
a bru
a a</w>
Zusammen setzung</w>
Zeu gs</w>
Zei len</w>
Z in
Will st</w>
Wasch maschine</w>
War ten</w>
Wand els</w>
Vorles ungen</w>
Verfü g
Ver ur
Ver träge</w>
Ver la
V eg
Unterschie den</w>
Unter brech
Ti ck
Ther mo
T hr
Säuge tieren</w>
Stra ssen</w>
Stick stoff</w>
St rang</w>
St ich</w>
Spr ich
Sp ut
Solar zelle</w>
Selbst -
Schö n</w>
Schwanger schaft</w>
Schlussfol gerung</w>
Samm ler</w>
Ru ssen</w>
Roy al</w>
Rech enschaft</w>
Re mi
Re chts</w>
Rass ismus</w>
Psychi ater</w>
Prä sen
Pro- Kopf-
Portu gal</w>
Perio de</w>
Pek ing</w>
Parkin son</w>
Par allel
Nukle ar
Noti zen</w>
No chmal</w>
Neuro genese</w>
Neu n</w>
Neandert hal
NG Os</w>
Mor gens</w>
Mon tag</w>
Mitterna cht</w>
Mitarbei tern</w>
Miner alien</w>
Mil o</w>
Me eren</w>
Liebl ing</w>
Lebens weise</w>
Le der
La ma</w>
La gos</w>
L ith
L -
Ky ros</w>
Kreu z</w>
Kontin u
Konsu m
Kli enten</w>
Kir i
Karik atur
Kambodsch a</w>
Ka ss
K auf</w>
Jähr ige</w>
Joshu a</w>
Jor dan
John ny</w>
Jeffer son</w>
Jag d</w>
In ti
In halts
Imp lan
I mi
Hüh ner</w>
Hy dro
Hon ig</w>
Her stell
H olo
H mm</w>
Grön land</w>
Groß artig</w>
Glück s</w>
Git ter</w>
Gesich tern</w>
Gel des</w>
G ä
Frü her
Frö sche</w>
Frequ enzen</w>
For mul
Flu cht</w>
Fer tigkeiten</w>
F an</w>
Ereig nissen</w>
Er träge</w>
Er höh
Enzy klopä
En tz
Ein gang</w>
E mily</w>
E E
Dar aufhin</w>
Cro w
Cha mp
Cent ral</w>
Car ne
Car l</w>
C D</w>
C -
Busin ess
Bu s
Bro kkol
Bro ad
Brei te</w>
Br ett</w>
Bewusst sein
Bewer tungen</w>
Bewer tung</w>
Befrei ung</w>
Be zirk</w>
Be cher</w>
Be ach</w>
Bangal ore</w>
Austr al
Ausrot tung</w>
Auf gaben
Arte fa
Ar ktis</w>
An ästhe
Al len</w>
Ac t</w>
A mt</w>
A dr
199 1</w>
198 0ern</w>
19 70</w>
14 .</w>
1 80</w>
1 40</w>
.or g</w>
- Welt</w>
überein stimmen</w>
über geben</w>
ö se</w>
äss ern</w>
änder ten</w>
ä k
zuverläss ig</w>
zu werden</w>
zu gelassen</w>
zi tieren</w>
zi pa
z onen</w>
z ierung</w>
y ota</w>
wirk te</w>
wil len</w>
wer fe</w>
wahr es</w>
w ände</w>
vorher zusagen</w>
vor stellungen</w>
versch wen
vernetz ten</w>
verb undenen</w>
verb orgen</w>
ver stre
van ia</w>
v al</w>
us etts</w>
unter halt
un schuldig</w>
un beh
um kreisen</w>
um geht</w>
um fassen
ue ber</w>
tü mer</w>
tier tes</w>
ti enten</w>
te pp
tau chten</w>
t sche</w>
t om
syl vania</w>
stütz en</w>
stab ilis
st reichen</w>
ss eren</w>
spar ungen</w>
sour cen</w>
si a</w>
selten e</w>
selbst -
seit her</w>
schw ung</w>
schlu gen</w>
schlie sslich</w>
sch är
sch r
sa al</w>
russ ischen</w>
rin de</w>
richti ges</w>
ri k</w>
religiö s</w>
re zep
re produzieren</w>
rah lt</w>
radi o
r ennt</w>
pro vo
pp el</w>
pli ziert</w>
part ner</w>
pap ier</w>
pa ckte</w>
p ur
offiz iell</w>
o ze
näher t</w>
no t</w>
nation aler</w>
na hr
n on
n irgend
molekul are</w>
mittler e</w>
min ieren</w>
mherz igkeit</w>
ment al</w>
mechan ismus</w>
mechan isch</w>
lin gs</w>
li der</w>
leb igkeit</w>
lauf ende</w>
lan gem</w>
lan deten</w>
la de</w>
kür z
krimin ierung</w>
kor b</w>
kommun iziert</w>
kommerz iellen</w>
ko h
kläss ler</w>
kin dern</w>
kenn zeichnet</w>
kehr ten</w>
kat or</w>
j on
internation aler</w>
internation al</w>
instink tiv</w>
ing ton</w>
in land
in formationen</w>
ikt ori
ig ere</w>
ig a</w>
i Pa
her ab</w>
hei lige</w>
hand el
grün dung</w>
grö sste</w>
glei cher</w>
gewinn ung</w>
gew annen</w>
gest oppt</w>
geschle cht
ges etz</w>
ger lich</w>
ger iet</w>
geni ale</w>
gen ehmi
gehän gt</w>
gehei men</w>
ge pf
g .</w>
fühl s
fü ttert</w>
funk tionen</w>
flü sse</w>
fla schen</w>
fix iert</w>
fa ssten</w>
f is
f euer</w>
explo dieren</w>
erhöh ten</w>
erhöh te</w>
er stellte</w>
er m
er fanden</w>
entsprech ende</w>
entsch lüsseln</w>
engag iert</w>
energ ie
ek do
ein sam</w>
ei s</w>
eh nt</w>
e b
dyna mischen</w>
dutz ende</w>
drit tes</w>
di an</w>
depri miert</w>
d reck
d liches</w>
d ichter</w>
compu ter
chaot isch</w>
ch usetts</w>
c ra
bo x</w>
bl ä
bl a</w>
bewer ben</w>
bewe ge</w>
besit zer</w>
beschwer en</w>
beru flich</w>
beoba chteten</w>
begei stern</w>
be ständig</w>
be stehenden</w>
bat i</w>
b är
b ut</w>
b ol
auton ome</w>
ausge sucht</w>
auseinander setzen</w>
aus gehend</w>
auftau chte</w>
auf passen</w>
auf baut</w>
ap fen</w>
ange legt</w>
an wen
an ter</w>
an fühlen</w>
an dauernd</w>
aller ersten</w>
all as</w>
absur d</w>
abil it
ab y
Zu kunfts
Zentr ala
Zah l-
Z ir
Y u
Y R</w>
Wäh ler</w>
Wol fra
Wohltä tigkeit</w>
Wie viele</w>
Wen iger</w>
War nung</w>
W en</w>
W eit
Vogel grippe</w>
Veg as</w>
Ve ge
V ic
V enti
Unglaub lich</w>
Un glücklicherweise</w>
Um satz</w>
Ty ran
Tran sa
To des</w>
Tit an
Thun fische</w>
Te ch</w>
Tau cher</w>
Tan k
Ta sse</w>
T ü
T ante</w>
Sü do
Säu le</w>
Säu gl
Szen arien</w>
Stock werke</w>
Stipen dium</w>
Stick stoff
Ster blichkeit</w>
St ühle</w>
Spe ktro
Sp on
Sonn tag</w>
Snow den</w>
Skiz zen</w>
Sk y
Selbstmor dattent
Seh t</w>
Schwier igkeit</w>
Schne e
Schlaf zimmer</w>
Schlacht feld</w>
Schalt kreis</w>
Sch ritten</w>
Sch ande</w>
Sch all</w>
Sau r
S ieb
S .</w>
Robot er-
Repor ter</w>
Renaissan ce</w>
Reh abilit
Recyc ling</w>
Re volutionen</w>
Rak eten
Ra sen</w>
Provin z</w>
Prot e
Produ zenten</w>
Portra it</w>
Pingu in</w>
Pfer de</w>
Penn sylvania</w>
Para meter</w>
Par ti
Paläst ina</w>
P itts
P ie
On line</w>
O fen</w>
O EC
Niem als</w>
Neur on</w>
Na iro
N ieren</w>
N ennen</w>
Mör der</w>
Mö bel
Musik stück</w>
Milch straße</w>
Mich igan</w>
Massa chusetts</w>
Mar gar
Ma c</w>
Lib yen</w>
Lebens räume</w>
Lebens dauer</w>
Le one</w>
Le der</w>
Lan ge</w>
L isten</w>
L O
Kür zlich</w>
Ku ba</w>
Kor e
Konz ert</w>
Kon trover
Kiri bati</w>
Ker le</w>
Kat rin
K en</w>
K alten</w>
K A</w>
Journ alismus</w>
Je men</w>
Instin kt</w>
In sulin
I Q</w>
Hypothe sen</w>
Hot els</w>
Ho f</w>
Heil mittel</w>
H oh
Grü ne</w>
Größen ordnungen</w>
Grö ßen</w>
Gra ph
Gra m
Gr ä
Gr an
Git ar
Gesch ehen</w>
Gemein schafts
Gemein schaft
Gei ster</w>
G il
Fu tter
Fortpflan zung</w>
For ce</w>
Flu ktu
Feh lern</w>
Expan sion</w>
Ess ens
Erwachsen en
Ernähr ungs
Entwick ler</w>
Ent husi
Ele c
El end</w>
Edin burgh</w>
Dän e
Dunk eln</w>
Dis ney</w>
Dan ny</w>
Da mpf
D og
D ich
D I
Co ch
Chirur gie</w>
C O</w>
C I
Bör se</w>
Brutto inland
Brokkol i</w>
Blutgefä ße</w>
Blu men
Biot echnologie</w>
Beschleun igung</w>
Beloh nungen</w>
Beispiel sweise</w>
Begeg nung</w>
Befeh le</w>
Befeh l</w>
Be mer
Be achtung</w>
Barr ieren</w>
Bar rel</w>
B y
Aus richtung</w>
Aus land
Au di
An ekdo
Al an</w>
Abl auf</w>
Ab schluss
A ff
A cker
A S</w>
9 00</w>
8 .000</w>
4 6</w>
1, 2</w>
1 60</w>
0 .
überra schte</w>
Über lebenden</w>
Öko systemen</w>
zü gigkeit</w>
zusammen gesetzt</w>
zusamm ensch
zurück bringen</w>
zur ichten</w>
zu setzen</w>
zier enden</w>
zerstör te</w>
wür digen</w>
woh ingegen</w>
wieder herzustellen</w>
wei tes</w>
wander te</w>
wahr sten</w>
wach s</w>
wa ffe</w>
vor stellt</w>
vor m</w>
vor geht</w>
voll ständigen</w>
verw und
verw altung</w>
versch rieben</w>
verletz ungen</w>
verkör pert</w>
verb ieten</w>
ver ärgert</w>
ver sprochen</w>
ver schlech
ver mie
ver legt</w>
ungspro zess
un erwartet</w>
un auf
u x</w>
tz ellen</w>
to x
tiv ste</w>
tier ende</w>
te e</w>
tanz t</w>
tags über</w>
t un
t los</w>
t ing</w>
t et
su g
stör ung</w>
stu fen</w>
ster -
steigen den</w>
spol itik</w>
spei sen</w>
sor ien
simp le</w>
sha h
schwei gen</w>
schw äch
schlag ge
sch lüss
sauber es</w>
sau gen</w>
sa ssen</w>
s in</w>
rupp en</w>
rei ber</w>
regel recht</w>
rechn er
re y</w>
re konstruieren</w>
r einigen</w>
r auszu
r auf</w>
präsen t</w>
pr alei
polit isches</w>
perfe ktes</w>
pat en
pass iv</w>
par ks</w>
pal äst
op tische</w>
op fer
notwen digerweise</w>
nor p
net ter</w>
na iv</w>
mü tter</w>
mög licher</w>
mp fe</w>
miss braucht</w>
me dien</w>
mass iv</w>
man gel</w>
m sten</w>
län gen</w>
lich -
leben dige</w>
l isten</w>
kün digte</w>
kü ssen</w>
kultur eller</w>
ktor s</w>
konzep t</w>
kon zip
kon s
kol l</w>
katastroph e</w>
ka t</w>
ka paz
interpre tiert</w>
illeg alen</w>
il ep
ig ungen</w>
ig keits
ide alen</w>
ich ter
höher er</w>
hö flich</w>
häuf igste</w>
hinaus gehen</w>
hin -</w>
hervor zubringen</w>
h älfte</w>
h o</w>
gän gen</w>
großzü gig</w>
gren zen
gl att</w>
gif tigen</w>
gew u
gesch lossenen</w>
gen -
gehei ratet</w>
geh or
geh alt</w>
gef är
für chter
fün ften</w>
fü ge</w>
förmi g</w>
för derung</w>
funktion ierten</w>
fröh lich</w>
frei gesetzt</w>
fort fahren</w>
forder e</w>
fil me</w>
fel dern</w>
fal tet</w>
f euert</w>
ethn ischen</w>
et ho
es -
erz ielt</w>
erstaun liches</w>
er wor
er werben</w>
er tragen</w>
er e
entfer nte</w>
einzu beziehen</w>
ein drucks
ein bezogen</w>
e e
durch ge
dr ungen</w>
dit ation</w>
dis on</w>
dig ten</w>
di plo
di cke</w>
ck chen</w>
c re
bräu chte</w>
bo hren</w>
blo ße</w>
blin den</w>
bin det</w>
bil dungen</w>
bil dete</w>
bew undern</w>
betr ieb</w>
bet reibt</w>
beschäf tige</w>
be kämpfung</w>
be gründet</w>
be anspru
b änder</w>
b eine</w>
b ein</w>
b aus</w>
auto s</w>
aut o</w>
auss ahen</w>
aus wirken</w>
aus gestorben</w>
aus geb
au rus</w>
at han</w>
arab ische</w>
ange langt</w>
an schaue</w>
akzep tabel</w>
ak re
ab lehnen</w>
ab halten</w>
Zäh nen</w>
Zy klus</w>
Zun ahme</w>
Zivil isten</w>
Zeit ungs
Z wie
Worl d
Wolfra m</w>
Wo men</w>
Win do
Wi de</w>
West küste</w>
Werk zeug
Welt meister
Wel chen</w>
War ren</w>
W unde</w>
Vorstell ungs
Vor schläge</w>
Vor le
Vor haben</w>
Vor fall</w>
Vol umen</w>
Veter anen</w>
Vergewal tigung</w>
Verein barung</w>
Ver gleichen</w>
V ieh
Univers ität
Un ten</w>
Un recht</w>
UN O</w>
U shah
Tun n
Trä ger</w>
Teil nehmern</w>
Tei g</w>
Teen a
Su dan</w>
Stra ft
Str ing
Stoff wechsel
Ste ck
Sput nik</w>
Spr ung
Spr eng
Spie ler
Span isch</w>
Sp itzen</w>
Son gs</w>
Sl um</w>
Scien ce-
Schu h
Schlu ssendlich</w>
Schlei fe</w>
Schimpan se</w>
Schi ffen</w>
Schi enen</w>
Scher z</w>
Sch wach
Sch metter
Satelli t</w>
S ing
Rä der</w>
Rei hen</w>
Rei chen</w>
Re kord</w>
Re dak
R oger</w>
R it
Publik ums</w>
Psy che</w>
Präsen z</w>
Prä zis
Prostat akre
Propa ganda</w>
Progra mms</w>
Privat leben</w>
Plan kton</w>
Pil len</w>
Physi ologie</w>
Per u</w>
Partner schaften</w>
P ist
P ent
Osta frika</w>
Orien tierung</w>
Orch est
O sc
Nä chte</w>
Noti z
Netzwer ks</w>
Ne ben</w>
Nairo bi</w>
Nacht himmel</w>
N SA</w>
Mohamm ed</w>
Mo mentan</w>
Mittler weile</w>
Mit tag</w>
Mig rän
Marihu ana</w>
Mar ia</w>
Mamm ographie</w>
Mal erei</w>
M ücken</w>
M ol
M M</w>
Läh mung</w>
Lou is</w>
Lin e
Lie ben</w>
Lebens mitteln</w>
Le ere</w>
Lar ven</w>
L än
Körper sprache</w>
Ku rat
Kor rid
Kon sens</w>
Komp li
Ko st
Klima anlage</w>
Kle be
Klass i
Katrin a</w>
Karik aturen</w>
Kan ten</w>
Kal k
Kab el
K ep
Je ans</w>
Isol ation</w>
Intervie wer</w>
Interess en
Ingenieur s
In nern</w>
Imm un
Illu sionen</w>
Höh en
Häu ser
Hundert tausende</w>
Hoch schule</w>
Helikop ter</w>
Hand voll</w>
Grund stück</w>
Grun di
Gripp e
Gra ff
Goog le-
Glied maßen</w>
Gesam theit</w>
Gener al
Gemein de
Gal erien</w>
Ga y</w>
G oo
Frie de</w>
Franzo sen</w>
Fran kl
Flex ibilität</w>
Fil ms</w>
Fall schirm</w>
Fahr ten</w>
F unken</w>
F und</w>
F lö
F ans</w>
Ethan ol</w>
Erd öl</w>
Er leu
Enzyklopä die</w>
Entscheidungst räger</w>
Entfer nungen</w>
Ed ward</w>
ED I</w>
E D</w>
Däne mark</w>
Dorf es</w>
Dopa min
Do aa</w>
Die go</w>
Deu tschen</w>
Da ran</w>
D ächer</w>
D H
Colum bia</w>
Co des</w>
Chr .</w>
Carne gie</w>
Budd ha</w>
Bu ff
Br en
Bo w
Bemer kens
Bedeu tungen</w>
Be kann
Bar mherzigkeit</w>
Ba ss
Ba sen
B S</w>
B P</w>
B A-
Avat ar</w>
Auton omie</w>
Authenti zität</w>
Ath leten</w>
Astero id</w>
Anwen dungs
Anal pha
Alpha bet</w>
Alko hol
Ak tien
Ah a</w>
Absol venten</w>
Abl en
Ab stamm
Ab handlung</w>
A ffen
A O</w>
8 .
4 ,
19 45</w>
. ...</w>
ün kt
üh r</w>
übr igen</w>
ö sen</w>
ä lt</w>
Über legen</w>
zweifel los</w>
zw ang</w>
zurück geht</w>
zu vers
zu fügen</w>
z ungs
wär me</w>
wu ßte</w>
wissenschaft liches</w>
wer ker</w>
wand te</w>
wa che</w>
vö gel</w>
verwirr end</w>
vertr ieben</w>
vertr eter</w>
versu ch</w>
verst ümm
versch wendet</w>
verl auf</w>
verkün den</w>
verhäl tnis</w>
verbrei teten</w>
ver schicken</w>
ver gangen</w>
v ar
urr ik
unter such
unter drückt</w>
unge achtet</w>
un wohl</w>
un sten</w>
un schul
um kehren</w>
um fan
umfan grei
u tz</w>
u lar</w>
typ ischerweise</w>
tr iv
to wn</w>
tion -
ti lien</w>
t st</w>
t or
synthet ische</w>
sug ger
stre am</w>
stra ßen</w>
stra tionen</w>
ster te</w>
stei ge</w>
ste ckten</w>
st liche</w>
st in
ssp anne</w>
ss es</w>
sproble me</w>
spro blem</w>
sprech ung</w>
sp end
sozi al
soll test</w>
sit es</w>
serv ieren</w>
ser ven</w>
schütz er</w>
schen derweise</w>
sch milzt</w>
sa l</w>
ro gen</w>
ro ck
ret tete</w>
reich lich</w>
reich hal
re ckt</w>
ra tionen</w>
prü fung</w>
profession ellen</w>
pro je
pra che</w>
posi tion</w>
plat te</w>
pha se</w>
pa zif
p ig
ot on
on to</w>
on ica</w>
on er</w>
om t</w>
olog y</w>
ograph en</w>
o ster
o ben
nach denke</w>
na vig
mu lationen</w>
mp en
mob ile</w>
min ü
mi tz
mi c</w>
mer en</w>
mensch lichem</w>
me -
mathe matisches</w>
mat isieren</w>
m ex
lös ungen</w>
li s</w>
le vel</w>
l y
kür zer</w>
künst liches</w>
kultur ell</w>
kul tiv
ku chen</w>
kra b
konvention elle</w>
konsu miert</w>
konstan t</w>
konfer enz</w>
knü pfen</w>
kno chen</w>
klop fen</w>
ken de</w>
kan te</w>
kan ad
it or</w>
is tik</w>
ip -
ing o</w>
in sel</w>
imm en
im babwe</w>
illu str
ik ern</w>
igen den</w>
iat h</w>
hom osexu
ho fft</w>
hin unter
hin dern</w>
hin auf
herum laufen</w>
her s</w>
hei mischen</w>
har tnäck
hand lungen</w>
h ellen</w>
gl os</w>
gl ieder
gewu sst</w>
get äu
geschei tert</w>
genan nte</w>
gehand elt</w>
gefre ssen</w>
gefei ert</w>
ge zü
ge spr
ge seg
ge fordert</w>
ge druckt</w>
ge danke</w>
g- U
förmi gen</w>
fur cht</w>
fotograf ierte</w>
fl öß
fest gelegt</w>
fest gehalten</w>
fess el
fe ste</w>
fahr zeuge</w>
f in</w>
extrah ieren</w>
ex pli
ex p
eu s</w>
ethn ische</w>
erwäh nten</w>
erweiter te</w>
erschö pft</w>
erschwing lich</w>
erneuer baren</w>
er schließen</w>
er la
er halte</w>
er d
ent führt</w>
ens eite</w>
en ken</w>
elegan t</w>
el lo
el i
ei l</w>
ehemal igen</w>
e Bay</w>
durch qu
dreh e</w>
dr i
dr auf
detaill iert</w>
desig nt</w>
deh nung</w>
da le</w>
da go
d lichkeit</w>
chines isches</w>
ch ende</w>
c us</w>
c as</w>
bu s
bu dd
brillan te</w>
brem sen</w>
bl üh
betra t</w>
bestra ft</w>
bestimm ter</w>
ben an
bei trägt</w>
be kommst</w>
be frei
be fragt</w>
bar sten</w>
b ul
b ellen</w>
auszu tauschen</w>
auszu geben</w>
auszu bilden</w>
auss etzen</w>
auslän dische</w>
auf zeichnen</w>
ar t
ar ischen</w>
app en</w>
anti -
anpass ungs
anony m</w>
ange zeigt</w>
ange ordnet</w>
and -
an zeigen</w>
an steigen</w>
an geh
an erkannt</w>
aller erste</w>
all -
ah len</w>
aggress iv</w>
Zwan gs
Zu stimmung</w>
Zere monie</w>
Z orn</w>
Y -
Wais en
Voraussetz ung</w>
Vor züge</w>
Video spiel</w>
Vi ol
Verw altungs
Verpa ckung</w>
Verl ierer</w>
Vereinig ung</w>
Vene zu
Vari ablen</w>
V an</w>
Un end
Tur m</w>
Tuberku lose</w>
Tro pen</w>
Tor onto</w>
To maten
Tier arten</w>
Thun fisch</w>
Test oster
Tab elle</w>
TEDTal k</w>
T ot
Szen en</w>
String theorie</w>
Sti mulation</w>
Standar d-
St opp
Span nungen</w>
Sp ender</w>
Somal ia</w>
Sk al
Sim on</w>
Sil ber
Sexu alität</w>
Sen dungen</w>
Se gel
Se en</w>
Schön es</w>
Schwä chen</w>
Scho ß</w>
Schleimp ilz</w>
Schlei m</w>
Schiff fahrt</w>
Schei ben</w>
Sch äden</w>
Sc anner</w>
Sau di</w>
Sant a</w>
Sa at
SI e</w>
Robot ers</w>
Re flex
Raum schi
Ra ster</w>
R on
Qu ali
Press e
Pitts burgh</w>
Pip el
Phil ip</w>
Pfei fen</w>
Persön lichkeiten</w>
Pa ss</w>
P ool</w>
P S</w>
Origin al
Orgas mus</w>
Oran g-U
O z
O steuropa</w>
O bst</w>
No t</w>
Natur wissenschaften</w>
Nanot echnologie</w>
Nami bia</w>
Myt hen</w>
My zel</w>
My th
Mor d</w>
Mo ore</w>
Mittel schicht</w>
Mi x
Met ro
Mar sch</w>
Mar s
Ma in
M äch
M aler</w>
Lü ge</w>
Liber ia</w>
Li zenz</w>
Lebens lied</w>
Le ga
Last wagen</w>
Lab yrin
Lab oren</w>
L is
L as</w>
Käf ig</w>
Kunst werke</w>
Kroko di
Krankenschwe ster</w>
Kopf- Zahl-
Kop ien</w>
Konta kte</w>
Kli ck</w>
Kl einen</w>
Ke y
Karik atur</w>
Kamp agnen</w>
K ru
K lo
Juli a</w>
Jam ie</w>
Jahrzeh n
Ja y</w>
Integra tion</w>
Ins besondere</w>
In tel</w>
In stan
In sel
Impul se</w>
Imp fung</w>
Ima ge</w>
Hin gabe</w>
Higgs- Feld</w>
Hel fen</w>
Ha mmer</w>
H m</w>
Gol iath</w>
Gleich berechtigung</w>
Gewis sheit</w>
Geschichtenerzäh ler</w>
Geräu schen</w>
Geräu sch
Gehirn are
Gefan genen</w>
Führungsper sön
Freund schaft</w>
Frankl in</w>
Franc is</w>
Fra g
Fluss es</w>
Fakult ät</w>
Fahr räder</w>
Ex -
Engl isch
Elektro n</w>
Eis ber
Ein z
Ein wohnern</w>
Ein fluss
Ein erseits</w>
E ier
E ich
E con
Durch einander</w>
Dreie ck</w>
Dra chen</w>
D allas</w>
Ca mer
CO2- Emissionen</w>
C op
C her
Bün del</w>
Bruttoinland sprodu
Bru ce</w>
Brit ish</w>
Brenn stoffen</w>
Bra d</w>
Bonob os</w>
Blog ger</w>
Bil der
Betrieb ssystem</w>
Betra cht
Behaup tungen</w>
Be etho
Be cken</w>
B hut
Autoun fall</w>
Auswahl möglichkeiten</w>
Astron auten</w>
Asth ma</w>
Assisten ten</w>
Argentin ien</w>
Ar izon
Apoll o</w>
An ziehungskraft</w>
An dro
Amster dam</w>
Am ts
Altru ismus</w>
Akzep tanz</w>
Ab wesenheit</w>
A le
A ktu
8 7</w>
7 .000</w>
5 7</w>
4 9</w>
4 50</w>
20 13</w>
2 5.000</w>
197 5</w>
1 2-
ür tel</w>
über wiegend</w>
ö stlichen</w>
äuß ern</w>
är z
ängst lich</w>
Überein stimmung</w>
Äu ßer
Äqu ator</w>
Äl teren</w>
zun immt</w>
zu greifen</w>
zen e</w>
zahl reichen</w>
z igern</w>
yn these</w>
y on
x on</w>
wunder ung</w>
winz iger</w>
willkür lich</w>
wes wegen</w>
wes end</w>
wei ß
weg gehen</w>
war me</w>
wahr haft</w>
wahr er</w>
w ins</w>
versu s</w>
verschieden sten</w>
verkün dete</w>
verk ab
ver zö
ver wü
ver wunder
ver schafft</w>
ver misst</w>
ver mischen</w>
ver lasse</w>
ver einfachen</w>
ver däch
ver altet</w>
v .</w>
urban e</w>
ungs an
unge mein</w>
ung leich
undeu tlich</w>
unabhän g
un vorstellbar</w>
un besch
tre te</w>
trag bar</w>
tr ollen</w>
telef on
tel es
t urm</w>
sä m
strö men</w>
strah lt</w>
steigen de</w>
stab ilisieren</w>
sp unkte</w>
son n
sie deln</w>
si mul
si dent</w>
ser iö
selt sames</w>
se bene</w>
schreck liches</w>
schn eller
scha det</w>
sch ot
sch leu
sch ichti
san t</w>
samm lungen</w>
s angen</w>
rück gängig</w>
rei tet</w>
rei chten</w>
registr iert</w>
re ten</w>
re generieren</w>
re d</w>
re alisiert</w>
rach tens</w>
ra p
r und
r ischen</w>
quanti ta
prakti zieren</w>
phy si
paläst inens
orien tierte</w>
organis men</w>
or y</w>
opar den</w>
on ische</w>
olog ie
oh neh
ohneh in</w>
offen es</w>
o hr
o ch
netz werk</w>
nei gt</w>
nah ele
n ell</w>
mäch tigste</w>
mu g
mo dern</w>
mit te</w>
mini mal
militär ischen</w>
merkwür dige</w>
me s
m o</w>
läss ig</w>
lu ft
li zen
le ans</w>
lau ten</w>
lan de</w>
la cht</w>
l et
l end</w>
kämp fte</w>
kos mischen</w>
kor n</w>
konzentr ierten</w>
konstru k
kon sum</w>
kla gt</w>
kennen gelernt</w>
kat oren</w>
kat al
kamer as</w>
k .</w>
jü dischen</w>
iron isch</w>
interess e</w>
interag iert</w>
inter ne</w>
inter aktive</w>
intensi ve</w>
in es</w>
imp li
ik on</w>
id i</w>
hüb sche</w>
hüb sch</w>
hö chst
hän der</w>
hoffnungs los</w>
hoff te</w>
hinter en</w>
hin einzu
hier zu</w>
hier hin</w>
her steller</w>
gu tem</w>
griech ischen</w>
gra t</w>
gr auen
gl ück</w>
gi b</w>
gewe sen
getr unken</w>
gesp endet</w>
gesie delt</w>
gescha hen</w>
gener ation</w>
gehör ten</w>
gegenüber stehen</w>
ged äch
ge zahlt</w>
ge kennzeichnet</w>
ge fasst</w>
ge antwortet</w>
g in</w>
g ie
fäh igkeiten</w>
furcht baren</w>
furcht bare</w>
ft ungen</w>
früher e</w>
freu de</w>
foss ile</w>
form te</w>
forder te</w>
for scht</w>
flü gel</w>
figu ration</w>
fa ch
f ett</w>
et ter
erreich bar</w>
erfol gt</w>
er leiden</w>
en k
emp findet</w>
ele ment
ein her
ein flöß
dreh ung</w>
dra matischen</w>
digit alisieren</w>
di ente</w>
di a
de ckte</w>
d ney</w>
ch ar
c er</w>
budd h
bru chs</w>
brauch st</w>
blin de</w>
blau es</w>
bl auer</w>
bezieh ungen</w>
bet rogen</w>
bestra fen</w>
besch ützt</w>
beru hen</w>
ber ichte</w>
ber a</w>
bequ e
benziel gerät</w>
belieb testen</w>
bel l
begin nend</w>
bege hr
befest igen</w>
bed ürf
beauftra gt</w>
be stellen</w>
be setzt</w>
bal anc
ba ge</w>
ausser halb</w>
aussa ge</w>
aus geschlossen</w>
aus gaben</w>
augen blick
aufge zogen</w>
aufge fordert</w>
auf weist</w>
auf wachen</w>
auf rechter
auf lösen</w>
auf er
at emal
at e
as mus</w>
arbei tenden</w>
ansteck end</w>
ange seh
an gehalten</w>
an gefertigt</w>
all y</w>
al in</w>
ad op
ab gebildet</w>
Zwei -
Zusammen hänge</w>
Zu vers
Zie gen</w>
Z ip
Z imbabwe</w>
Wür mer</w>
Wi -F
War n
Wal des</w>
W at
Vorle sung</w>
Vor trägen</w>
Vor bilder</w>
Vit amin</w>
Versicher ung</w>
Verk äufer</w>
Verbunden heit</w>
Ver wirr
Ver sorgungs
Ver brecher</w>
Ushah idi</w>
Ur -
Unterdrück ung</w>
Umwelt verschmutzung</w>
Umwand lung</w>
Tö ten</w>
Toil etten
Tier welt</w>
Tes z
Teil s</w>
Tech -
Tal k</w>
Ta k
T ul
T om
Süß igkeiten</w>
Sy m
Still stand</w>
Sprich wort</w>
Sper mien</w>
Sozi ale</w>
Soh nes</w>
Schö pfer</w>
Schwer punkt</w>
Schwein e
Schri ften</w>
Schlagan fall</w>
Schla mm</w>
Schiff s
Schat ten
Sch rau
Savan ne</w>
Sa mu
S we
S na
S eu
S etzen</w>
S ab
Rücken mar
Rück kopp
Ru cksa
Ro ut
Richt linie</w>
Rel ation</w>
R on</w>
R eu
R O
R L</w>
Quadrat kilometer</w>
Qu alle</w>
Psych ologe</w>
Proje kt
Progno sen</w>
Princ eton</w>
Philanthrop ie</w>
Pestizi de</w>
Pak et</w>
PT CH
P fe
P R</w>
P A
Or leans</w>
Offen barung</w>
Nik e</w>
Nic ole</w>
Net wor
Natur schutz
Nat a
Na vig
N in
N ie</w>
N I
N C
Män n
Myth ologie</w>
Mobil funk
Mitglie dern</w>
Ment or</w>
Meer e
Me ditation</w>
Mas ke</w>
Markt es</w>
Market ing
Mar t</w>
Manip ulation</w>
M ä
M em</w>
M T
Lungen entzündung</w>
Lebens jahr</w>
Lebens form</w>
Lang lebigkeit</w>
La dungen</w>
L ine</w>
Kä stchen</w>
Ku geln</w>
Krie gen</w>
Kor rel
Ki bera</w>
Kar ib
Kapit än</w>
Kak erla
K leid</w>
K etten
K ennen</w>
Jung frau</w>
Jap aner</w>
Irr tum</w>
Inva sion</w>
Intensiv station</w>
Initi ativen</w>
Infra rot
In put</w>
In halten</w>
In du
Improvis ation</w>
Immi gr
Hör t</w>
Hoff nungs
High school</w>
Haw king</w>
Hand lungs
Hand gelenk</w>
H urrik
Gy m
Gu ar
Gram matik</w>
Gluko se</w>
Gesprä chen</w>
Gen i
Gel ächter</w>
Ga se</w>
Fuß abdruck</w>
For mat</w>
Finn land</w>
Finanz krise</w>
Fin anzen</w>
Feh len</w>
Fe der</w>
Far men</w>
Fal ken</w>
Fa zit</w>
Fa ch</w>
F und
F G</w>
Ewi gkeit</w>
Erwar tung</w>
Erleu chtung</w>
Enthusi asmus</w>
Ent würfe</w>
Engl ischen</w>
En te</w>
En den</w>
Eli te</w>
Einkaufs zentrum</w>
Ein sichten</w>
Ehr furcht</w>
Ehe frau</w>
Echtz eit
E rachtens</w>
E po
E hen</w>
E .</w>
Drucker presse</w>
Dre ck</w>
Do u
Diplo mat</w>
Dinosaur ier
Desa ster</w>
De an</w>
Dar f</w>
DV D</w>
Cous ins</w>
Co sta</w>
Chol era</w>
CA PTCH
C RIS
Bu cht</w>
Brü dern</w>
Bos nien</w>
Blü te</w>
Blut druck</w>
Billi on</w>
Bi olumines
Betre u
Bet ru
Bestimm ung</w>
Bestech ung</w>
Beru f
Beoba chter</w>
Beam ten</w>
Baumkr onen</w>
Bar bar
B ag
Aus beu
Arizon a</w>
Arbeits losigkeit</w>
Antikör per</w>
Anti depress
An zeigen</w>
An lass</w>
An fangs</w>
Abweich ung</w>
Ab grund</w>
Ab geord
A reale</w>
A di
A T</w>
7 6</w>
7 -
6 4</w>
197 0ern</w>
15 0.000</w>
1 10</w>
-S au
üh lt</w>
über trieben</w>
über tragung</w>
über stehen</w>
über schritten</w>
äu bt</w>
Öff nung</w>
zuzu geben</w>
zuvers ichtlich</w>
zusammen gearbeitet</w>
zi tiere</w>
zer ti
wäh le</w>
wirtschaft liches</w>
wirt schaften</w>
wil lig</w>
wieder ver
wertsch ätzen</w>
werk zeuge</w>
werk zeug</w>
w an
vor über
vor gehen</w>
vol ler
veränder nde</w>
versch wendung</w>
versch reiben</w>
verlo ck
verletz lich</w>
verlei ht</w>
verfüg bare</w>
verb undene</w>
ver schickt</w>
v ent
ur en
unvermei dbar</w>
unter suche</w>
unter graben</w>
ungeh eure</w>
un ster
un fair</w>
um fassen</w>
ul a</w>
tä tige</w>
tro pfen</w>
ti ca</w>
techn ologischer</w>
te s
t ypen</w>
t us</w>
stör en</w>
stärk ere</w>
stei l</w>
stat isch</w>
sta mm</w>
st ri
st eins</w>
st -
sspe zif
spon tan
sph är
spannen de</w>
son nen
so for
so eben</w>
sicher es</w>
si ens</w>
sess enheit</w>
sei tige</w>
schäd lich</w>
sch ee</w>
sauber er</w>
rot t</w>
ro vir
ro hen</w>
ris s</w>
ris iko
ri c
ration alen</w>
ra tions
r r
qu ar
proble matisch</w>
pro b
priv il
pri vat
pp s</w>
pla y</w>
ph il
pfei ler</w>
per to
pass ende</w>
pa are</w>
p t</w>
p end
p -
or ation</w>
oper iert</w>
opar dy</w>
op lan
oo h</w>
om o</w>
nähr ung</w>
non verb
nie der</w>
neh mt</w>
na me</w>
n ot
n iveau</w>
[...]
