#version: 0.2
t h
i n
a n
th e</w>
e r
o s
a p
a t</w>
o u
in g</w>
t o</w>
a r
ap os
& apos
i s</w>
&apos ;
e n
o f</w>
r e
an d</w>
t i
a l
o n
o r
e d</w>
th e
i n</w>
th at</w>
o n</w>
e s</w>
i t
s t
w h
o u</w>
e r</w>
i t</w>
l y</w>
v e</w>
o m
c a
y ou</w>
l i
a c
a s</w>
r o
a t
&apos; s</w>
l e</w>
w e</w>
n d</w>
o r</w>
er e</w>
s e</w>
n o
q u
e n</w>
b e
o t
h a
e l
T h
d i
A nd</w>
s t</w>
th is</w>
s i
m a
e c
r i
l o
a b
i l
l e
ou t</w>
qu ot
quot ;</w>
& quot;</w>
v er
l d</w>
u r
a n</w>
ar e</w>
m e</w>
ti on</w>
o p
i c
d e
u t</w>
a l</w>
k e</w>
en t</w>
w as</w>
a y</w>
al ly</w>
n e
f or</w>
s e
s h
c h
ha ve</w>
g h
u n
g o
c om
the y</w>
ou r</w>
r a
- -</w>
w it
ca n</w>
on e</w>
wit h</w>
w or
al l</w>
t s</w>
b e</w>
p e
o w</w>
o l
S o</w>
&apos; t</w>
p ro
wh at</w>
a s
ab out</w>
c e</w>
s o</w>
e x
r e</w>
g e
th in
s a
gh t</w>
ou ld</w>
l a
the r</w>
no w</w>
e s
no t</w>
c on
s om
s u
g e</w>
v i
u se</w>
t o
d o</w>
t er
d s</w>
d o
ver y</w>
m e
p er
f i
th ere</w>
&apos; re</w>
th ing</w>
t r
s p
op le</w>
c i
I t</w>
m y</w>
or e</w>
li ke</w>
u st</w>
pe ople</w>
m p
ro m</w>
t a
f rom</w>
it y</w>
ti on
t u
k ing</w>
v er</w>
u c
b ut</w>
an t</w>
e ar
ca use</w>
j ust</w>
f f
e a
u l
t er</w>
t ed</w>
W e</w>
p l
m i
er s</w>
d e</w>
g s</w>
m o
B ut</w>
the se</w>
Th e</w>
el l</w>
g i
at e</w>
i f</w>
b o
ur e</w>
i r</w>
h e</w>
u p</w>
b y</w>
u s</w>
go ing</w>
k now</w>
the m</w>
u s
p o
f or
a g
m ore</w>
lo o
w ay</w>
in d</w>
wh en</w>
be cause</w>
h i
e y</w>
p ar
ha d</w>
ic h</w>
ou n
W h
thin k</w>
som e
se e</w>
ge t</w>
p re
wh ich</w>
a d
h ow</w>
o ther</w>
w ere</w>
wh o</w>
y our</w>
the ir</w>
w n</w>
re ally</w>
t w
w ould</w>
os e</w>
t h</w>
o d</w>
i d</w>
an y</w>
t e
&apos; ve</w>
h ere</w>
ou nd</w>
g h</w>
t ing</w>
il l</w>
ti me</w>
tion s</w>
ou r
en ce</w>
b i
in e</w>
f e
com p
e t</w>
e v
tu ally</w>
Y ou</w>
wh ere</w>
c re
f a
&apos; m</w>
l l</w>
Th is</w>
ap p
the n</w>
y s</w>
k s</w>
a tion</w>
m ent</w>
os t</w>
wor ld</w>
h as</w>
d on</w>
y ear
b u
c o
f u
in to</w>
som e</w>
ab le</w>
i s
ac tually</w>
d ay</w>
ac k</w>
g o</w>
r ou
ac e</w>
st r
thin gs</w>
un d
year s</w>
g u
ca l</w>
w ill</w>
s el
m s</w>
N ow</w>
c h</w>
m b
al l
s s</w>
d ing</w>
w ant</w>
st ar
w a
en ts</w>
Th ey</w>
d y</w>
l it
c ould</w>
h app
be en</w>
g re
en t
di ff
p h
ma ke</w>
c l
v es</w>
y ing</w>
t le</w>
sa id</w>
h u
s o
t ri
k ed</w>
ri ght</w>
com e</w>
v e
a m
in ter
m ost</w>
some thing</w>
t al
r st</w>
v ing</w>
f e</w>
ch an
ti ve</w>
s c
d u
uc h</w>
th an</w>
t y</w>
t ure</w>
or y</w>
st e
on g</w>
m uch</w>
ec t</w>
i z
wor k</w>
th ose</w>
ti c
diff er
i es</w>
n o</w>
ou s</w>
p a
pro b
s y
tw o</w>
i mp
fi rst</w>
en ti
es s</w>
go t</w>
lit tle</w>
th ou
al so</w>
b ack</w>
it e</w>
a d</w>
g y</w>
0 0</w>
w i
ma n</w>
g r
Th at</w>
w e
loo k</w>
s ay</w>
f o
f ac
an s</w>
en d</w>
ne w</w>
st u
c e
o ver</w>
i r
on s</w>
ea r</w>
p os
si on</w>
d ed</w>
on ly</w>
b le</w>
a ge</w>
at ed</w>
m on
re e</w>
a r</w>
s ti
ar d</w>
li fe</w>
d n</w>
Wh at</w>
t ra
r u
bo dy</w>
si g
lo t</w>
ne ed</w>
m il
h is</w>
k ind</w>
m any</w>
g en
ch o
m in
fu l</w>
I n</w>
ver y
i de
a u
c oun
ev en</w>
bu il
t ec
ta ke</w>
sh e</w>
at er</w>
it s</w>
t ur
or t
f f</w>
m ar
k e
th rou
Th ere</w>
i m
ec on
di d</w>
ic e</w>
h er</w>
ar ound</w>
n ing</w>
m er
ac h</w>
go od</w>
al s</w>
differ ent</w>
n i
do wn</w>
d er</w>
&apos; ll</w>
tr y</w>
e very
or t</w>
f ri
f in
c ol
und er
t e</w>
el l
throu gh</w>
ec i
o k</w>
w s</w>
an d
p ri
I n
g a
com m
m at
w er</w>
i ma
s er
ti c</w>
re d</w>
e st
con t
ti es</w>
c all
sa me</w>
c ar
W ell</w>
re c
prob le
an k</w>
si de</w>
happ en
g ra
v ed</w>
e very</w>
s ur
be ing</w>
p u
p ut</w>
s en
un i
or s</w>
an ce</w>
do ing</w>
sh o
mp le</w>
I f</w>
l ar
H e</w>
h e
st ory</w>
mb er</w>
tec h
o b
in g
sel f</w>
s ol
n a
d re
di s
an y
at ing</w>
u e</w>
le ar
c ent</w>
s on</w>
a f
ar y</w>
e l</w>
call ed</w>
lo gy</w>
p r
ch il
wa ys</w>
sy ste
an s
at e
st s</w>
s ci
so ci
v el
ca me</w>
o l</w>
d uc
ti m
p i
b ra
per cent</w>
le a
li on</w>
&apos; d</w>
n ed</w>
ag a
th ree</w>
ma de</w>
t ly</w>
r on
ac h
f ore</w>
il l
C h
ex per
qu es
om e</w>
ex p
w r
m an
tion al</w>
w ell</w>
g in
h el
d er
imp ort
chan ge</w>
pl an
f ind</w>
t re
t ell</w>
c es</w>
wh y</w>
lo w</w>
b r
w om
re s</w>
u la
tech no
es s
v en</w>
de sig
y ear</w>
under st
n u
fac t</w>
sh i
hu man</w>
t ter</w>
g er</w>
o ld</w>
in t</w>
i c</w>
us ed</w>
s s
c our
le t</w>
B e
p ic
to day</w>
di dn</w>
b l
tal k</w>
ide a</w>
gre at</w>
at es</w>
o wn</w>
t en
star ted</w>
0 00</w>
k es</w>
s h</w>
c u
in gs</w>
la st</w>
f t</w>
a m</w>
b a
k i
p p
af ter</w>
sh ould</w>
c ou
w ent</w>
wi th
be li
thou ght</w>
gi ve</w>
i l</w>
w ing</w>
import ant</w>
cour se</w>
b it</w>
w an
be fore</w>
pl ace</w>
tim es</w>
bi g</w>
le ss</w>
t ting</w>
, 000</w>
mi ght</w>
be tter</w>
o ff</w>
h ear
al iz
ex a
an other</w>
c or
c an
Th ank</w>
st a
se e
s m
ne x
o m</w>
ter s</w>
w ater</w>
ne ver</w>
proble m</w>
k no
e ver</w>
g ro
ea d</w>
lo gi
me di
ge ther</w>
par t</w>
l es</w>
sti ll</w>
ag o</w>
inter est
il ity</w>
ar i
e se</w>
b ot
o le</w>
e en</w>
to gether</w>
star t</w>
g es</w>
si ble</w>
syste m</w>
p s</w>
s cho
bra in</w>
sh ow</w>
j o
hi m</w>
d at
an ds</w>
al i
nex t</w>
in v
e p</w>
do es</w>
f l
m u
comp le
exper i
c ul
f ound</w>
fe w</w>
re ad
aga in</w>
1 9
it ed</w>
d a
r os
c er
d d
c ess</w>
str uc
tw een</w>
ou s
e w</w>
e ach</w>
i ght</w>
w ar
si c
be tween</w>
Wh en</w>
me an</w>
techno logy</w>
de vel
for ma
e ve</w>
com es</w>
ca tion</w>
pro duc
po li
l ong</w>
A mer
ac t</w>
& #
&# 9
in s</w>
e ff
loo king</w>
m ents</w>
in cre
&apos ;</w>
to o</w>
y be</w>
po int</w>
li ght</w>
e st</w>
or i
d eci
t en</w>
exa mple</w>
sp ec
Be cause</w>
d one</w>
comp u
2 0
ques tion</w>
n at
j ect</w>
es n</w>
n s</w>
b re
s econ
dat a</w>
re as
lo ve</w>
do esn</w>
O n
wom en</w>
us ing</w>
dre n</w>
s ort</w>
o t</w>
n ec
or g
ab ly</w>
s k
f ul
wan ted</w>
gen er
H ow</w>
underst and</w>
c ap
al ity</w>
s pe
1 0</w>
li ve</w>
d ol
fa mi
wor king</w>
chil dren</w>
forma tion</w>
wh ole</w>
sel ves</w>
re al</w>
b li
ou gh</w>
th er
c all</w>
tr ying</w>
a way</w>
he al
l an
u m</w>
ne ss</w>
l ine</w>
ec ts</w>
econ om
ce p
r y</w>
mil lion</w>
al ways</w>
per son</w>
f ace</w>
scho ol</w>
gr ap
beli eve</w>
A fri
el e
m or
f our</w>
w al
ma y</w>
s es</w>
c en
a tions</w>
ar e
se ar
re sp
un ity</w>
fe el</w>
r an
pu bli
c k</w>
in ess</w>
er i
com ing</w>
d ri
in st
en er
m en
g ed</w>
devel op
u tion</w>
ti cal</w>
c ity</w>
m om
hel p</w>
c ur
ro om</w>
g ing</w>
z e</w>
for m</w>
coun try</w>
o od</w>
l dn</w>
al e</w>
su b
re e
thin king</w>
el ec
me ans</w>
S t
as k</w>
cre ate</w>
v al
t es</w>
h al
to ok</w>
po wer</w>
ki ds</w>
ti v
si c</w>
desig n</w>
d es</w>
s it
ou t
in formation</w>
l ed</w>
ell s</w>
in t
ma ybe</w>
m y
y p
c li
w er
m en</w>
ch e
b us
c ri
ula r</w>
st ri
sp ace</w>
h op
every thing</w>
e p
ot s</w>
nu mber</w>
p la
mon ey</w>
pre s
s ec
ne e
tr ans
org an
be come</w>
l and</w>
On e</w>
g ine</w>
ma king</w>
c y</w>
ent ly</w>
fi ve</w>
th s</w>
ge tting</w>
sen se</w>
stu d
o p</w>
lo b
en ough</w>
st er</w>
sm all</w>
si ve</w>
st or
qu ite</w>
o ff
w at
te ly</w>
tri es</w>
col l
read y</w>
go ver
Th ese</w>
h ard</w>
e y
cont ro
fo od</w>
b or
secon d</w>
ros s</w>
at h</w>
M y</w>
s ing
ab ility</w>
for m
uni ver
en ds</w>
v a
prob ably</w>
h ome</w>
be st</w>
t or</w>
d ge</w>
resp on
p as
wh e
on es</w>
ener gy</w>
buil ding</w>
qu i
p le</w>
le ft</w>
happen ed</w>
we e
pre t
op p
re la
l in
h ar
cl u
g rou
fu ture</w>
s on
b il
H ere</w>
i g
ph y
interest ing</w>
w ed</w>
sic ally</w>
ve l</w>
se t</w>
it ing</w>
re ad</w>
hi gh
tal king</w>
bo ok</w>
v o
soci al</w>
U n
ic i
shi p</w>
gover n
tic s</w>
bre a
wh i
pl ay</w>
c a</w>
s our
a se</w>
to ld</w>
stu ff</w>
re aliz
v en
lar s</w>
S he</w>
c are</w>
k en</w>
f ol
w on
c ra
ar t</w>
with out</w>
z ing</w>
L et</w>
l ing</w>
n er</w>
o f
pret ty</w>
en vi
par tic
coun tries</w>
c r
be au
li ves</w>
dol lars</w>
pi ec
buil d</w>
2 0</w>
in di
pl ac
ous ly</w>
to p</w>
any thing</w>
mo ve</w>
di c
th ers</w>
ta in</w>
d ra
w ard</w>
su ch</w>
ac k
d in
hal f</w>
b as
n or
mom ent</w>
Wh y</w>
fo re
se en</w>
b ro
ou se</w>
envi ron
ac ross</w>
si ons</w>
bi o
happ en</w>
5 0</w>
N o</w>
l on
en e
Ch in
sci ence</w>
me mber</w>
ent al</w>
su l
sa ys</w>
en d
min u
Afri ca</w>
sa w</w>
st re
li ving</w>
g lob
e du
y oun
h and</w>
A n
sear ch</w>
o ver
k et</w>
el se</w>
con nec
ma kes</w>
go es</w>
ha ving</w>
thou gh</w>
om e
in ce</w>
as ked</w>
sp eci
h ead</w>
ca se</w>
experi ence</w>
ch ar
an g
si mple</w>
el s</w>
p op
In di
wor ks</w>
su pp
l ater</w>
sci enti
k ay</w>
F or</w>
happen s</w>
b ad</w>
ne t</w>
ca r</w>
c ha
i d
fi c</w>
whi le</w>
ap s</w>
Amer ic
it al</w>
o o
be g
m m
a ma
In ter
thou s
sh ed</w>
da ys</w>
reas on</w>
pic ture</w>
m ind</w>
e ty</w>
m ic
fami ly</w>
su c
tur n</w>
proble ms</w>
in ed</w>
c le
lear n</w>
compu ter</w>
E ar
u p
j u
k in
hi gh</w>
A s</w>
f ron
c ed</w>
o c
lan gu
s ing</w>
s ure</w>
pro cess</w>
m ach
M a
A ll</w>
dis co
heal th</w>
ev ol
de p
ba sically</w>
mi s
tr u
bus iness</w>
in side</w>
fa r</w>
pos sible</w>
al most</w>
v ol
en ces</w>
c er</w>
pa ti
sa ying</w>
ge st</w>
cont in
s ity</w>
p or
gh ts</w>
cl as
y et</w>
ur al</w>
sing le</w>
wor ds</w>
vi de
tu res</w>
h an
e t
our s</w>
ol s</w>
gu y</w>
plan et</w>
b ri
p at
on ce</w>
f un
whe ther</w>
e mp
m ul
ate ly</w>
si on
h ea
youn g</w>
loo ked</w>
di se
comm uni
or der</w>
al ready</w>
spe a
is m</w>
l s</w>
publi c</w>
bot h</w>
pro ject</w>
pro gra
no thing</w>
ide as</w>
ex c
ic es</w>
0 ,000</w>
sc ri
some one</w>
incre di
Ear th</w>
with in</w>
ur y</w>
c ells</w>
ans wer</w>
N ew</w>
er y</w>
in f
hi story</w>
ta tion</w>
pro f
loo ks</w>
ar ti
i st
w as
wr ong</w>
mat ter</w>
ir d</w>
hear d</w>
an ding</w>
hop e</w>
di rec
my self</w>
bil lion</w>
ke ep</w>
beau ti
comm unity</w>
u ro
tr ue</w>
c op
0 s</w>
all en
of ten</w>
gi r
f lo
glob al</w>
tr an
3 ;</w>
1 ;</w>
&#9 3;</w>
&#9 1;</w>
is su
ur ing</w>
chil d</w>
sol u
ima gine</w>
al lo
si x</w>
br ing</w>
ser v
b er
T E
vi r
ic s</w>
d ro
ap e</w>
re member</w>
ge ts</w>
U .
E n
ch allen
p er</w>
h y
buil t</w>
organ iz
ac y</w>
ul t</w>
ti l</w>
op er
t able</w>
A l
op en</w>
os p
wor d</w>
won der
ti ci
ph ot
en s</w>
di es</w>
le ad
t on</w>
Un ited</w>
o grap
i gh
an im
h und
f il
tiv ity</w>
ti ce</w>
mon ths</w>
ula tion</w>
t ors</w>
s li
3 0</w>
in i
c ent
ac tion</w>
vi du
cou ple</w>
pos i
piec e</w>
beauti ful</w>
ve ly</w>
indi vidu
plac es</w>
b lo
mu sic</w>
mat eri
e d
contro l</w>
nat ure</w>
er ing</w>
ama zing</w>
fi g
e ly</w>
ap pro
ni ght</w>
vi ew</w>
b ly</w>
t un
si mp
re sul
per son
langu age</w>
can cer</w>
d ru
mo de
spec ies</w>
h er
be ha
f er
a ff
i a</w>
govern ment</w>
grou p</w>
en g
g n
li es</w>
sh ar
und er</w>
du ce</w>
mo ther</w>
is n</w>
c ess
at t
un til</w>
O K</w>
every body</w>
ec ted</w>
jo b</w>
h ouse</w>
ful ly</w>
ap er</w>
was n</w>
ac tly</w>
fri ends</w>
stor ies</w>
our selves</w>
is h</w>
ta king</w>
dd le</w>
p ol
be gin
vide o</w>
Inter net</w>
le vel</w>
phy si
comple tely</w>
beha vi
A r
qu ic
ca ted</w>
edu cation</w>
deci ded</w>
P e
univer se</w>
ru n</w>
gr ound</w>
ea h</w>
o s</w>
20 0
e -
stu dy</w>
j ects</w>
fron t</w>
the m
t in
mb ers</w>
ex actly</w>
ch ing</w>
St ates</w>
mode l</w>
be came</w>
L i
r un
o ce
bi r
s ed</w>
happen ing</w>
ap pe
stud ents</w>
re search</w>
do m</w>
anim als</w>
f el
bi g
tur ns</w>
k er</w>
i can</w>
cul ture</w>
f ic
. .
t -
wom an</w>
kin ds</w>
k new</w>
in ing</w>
st op</w>
it self</w>
.. .</w>
Indi a</w>
in no
n er
some body</w>
lear ned</w>
hear t</w>
g l
fi sh</w>
f -
R e
w in
us es</w>
m ust</w>
na me</w>
t ot
sti tu
s ince</w>
h ear</w>
1 00</w>
lar ge</w>
soci ety</w>
ti s
in st</w>
oun ds</w>
minu tes</w>
ar s</w>
Americ a</w>
re co
comp any</w>
sh are</w>
e qu
d ec
ques tions</w>
p ul
mi c</w>
logi cal</w>
happ y</w>
h aps</w>
li ons</w>
i se</w>
h ours</w>
a w
ou th</w>
them selves</w>
cep t</w>
ar ch
fi el
cre ated</w>
G od</w>
po wer
hu ge</w>
aga inst</w>
li st
ra ther</w>
opp ort
t yp
fo c
ph one</w>
y -
wor ked</w>
st ate</w>
ar ly</w>
a st</w>
in du
Amer ican</w>
tu al</w>
lit er
environ ment</w>
struc ture</w>
d ar
an ts</w>
Th en</w>
ver ed</w>
ou ldn</w>
ga me</w>
con si
cl os
st ra
O kay</w>
pro vi
ss ed</w>
wa r</w>
cent ury</w>
ch ed</w>
a tive</w>
a ir</w>
s or
me as
w on</w>
cou ldn</w>
ne t
d -
gu ys</w>
lea st</w>
at or</w>
k ly</w>
d en
s ound</w>
o thers</w>
some times</w>
na tional</w>
f und
diff ic
i st</w>
partic ular</w>
fig ure</w>
O h</w>
re st</w>
m ed</w>
enti al</w>
en gin
al ong</w>
k ers</w>
Chin a</w>
h or
t ea
ear ly</w>
as y</w>
am oun
tur ned</w>
te st</w>
p e</w>
thous ands</w>
ro w</w>
y ed</w>
bas ed</w>
v ari
st ed</w>
ga ve</w>
war ds</w>
str y</w>
pa st</w>
ad v
u r</w>
t om
sh ing</w>
k ey</w>
dise ase</w>
re li
ci r
n on
l ots</w>
E uro
b ab
F i
mar ket</w>
ta in
c ell</w>
syste ms</w>
tic ally</w>
nat ural</w>
inst ead</w>
every one</w>
f ar
c le</w>
at s</w>
am es</w>
u es</w>
kno wn</w>
hu m
de mo
ta ken</w>
chan ged</w>
I s
ne ws</w>
si ze</w>
ri s
in es</w>
e i
de v
at ure</w>
p ur
rela tion
enti re</w>
differ ence</w>
or d</w>
out side</w>
en ing</w>
li c
Y or
th ird</w>
m ental</w>
ma l</w>
ec tive</w>
pr in
un ch</w>
st ing</w>
sc ale</w>
e mo
te ach
lear ning</w>
in k</w>
s is</w>
v il
mo ving</w>
mach ine</w>
TE D</w>
cl ose</w>
th y</w>
h o
comp an
b ed</w>
pat ter
or din
b ur
sel f-
ell ing</w>
m p</w>
m es
engin e
y our
bo o
are a</w>
be h
tr ac
f ree</w>
d ent</w>
En g
an ima
p ot
o il</w>
fe el
A f
di st
O r</w>
ul es</w>
re gi
fa ther</w>
your self</w>
ate ver</w>
do c
per f
gi ven</w>
ci ties</w>
vi sion</w>
C on
c al
ag es</w>
S .</w>
per haps</w>
m ous</w>
elec tri
kno w
di ence</w>
e asy</w>
1 5</w>
par ents</w>
lea ve</w>
col le
di ed</w>
an ti
p sy
m ate</w>
fl u
N or
wal k</w>
ver age</w>
pop ulation</w>
cer tain</w>
ter ms</w>
ta kes</w>
exp la
e vi
at ten
ey es</w>
ex t</w>
c y
par ts</w>
ob vi
j our
b ility</w>
vi ol
sp i
re si
inv ol
diffic ult</w>
d ers</w>
nee ds</w>
se ven</w>
k ill
di g
con ver
see ing</w>
d ence</w>
begin ning</w>
fri end</w>
id enti
w ers</w>
wonder ful</w>
fin ally</w>
g le</w>
ma j
pr ac
beh ind</w>
in clu
su g
s qu
beg an</w>
st er
se qu
phot ograp
econom ic</w>
cur r
con di
can not</w>
c ost</w>
pos ed</w>
t ou
con su
ca te</w>
p t</w>
b an
U. S.</w>
d uring</w>
N A</w>
D o</w>
n ers</w>
compan ies</w>
h on
gro w
power ful</w>
ti vely</w>
simp ly</w>
ra di
comm on</w>
bl ack</w>
amoun t</w>
mi ddle</w>
l ate</w>
ima ge</w>
de al</w>
a ir
Yor k</w>
p aper</w>
ex tre
de fin
realiz ed</w>
Pe ople</w>
s ite</w>
nee ded</w>
know le
fiel d</w>
ar gu
lo cal</w>
d r
inno v
h ands</w>
S u
re sour
me an
de li
wh atever</w>
lon ger</w>
li sh</w>
h ol
s ha
pos si
f ra
ce i
A u
ve ment</w>
it h</w>
W or
d en</w>
ab solu
s cre
in ve
behavi or</w>
z ed</w>
o -
medi a</w>
li m
d ly</w>
S ome</w>
la r</w>
interest ed</w>
f ly</w>
e ight</w>
sur pri
oce an</w>
L o
tri ed</w>
gro w</w>
wee k</w>
sur vi
g one</w>
re ality</w>
car e
to m</w>
ci al</w>
mes sa
hel p
ful l</w>
fel t</w>
as tic</w>
par t
grow th</w>
ab or
u res</w>
m ol
lea se</w>
fun c
for ce</w>
cl es</w>
A t</w>
pre dic
a x
I s</w>
sp end</w>
sit u
m ing</w>
ex pl
ac ter
ver sity</w>
tran sp
ro bo
quic kly</w>
c os
arch it
val ue</w>
pre sen
ei ther</w>
per i
de scri
con f
T o
de ath</w>
b loo
an tly</w>
me t</w>
e ts</w>
b ack
ac c
str u
bor n</w>
sp ent</w>
tea m</w>
su al</w>
s it</w>
boo ks</w>
D NA</w>
hum ans</w>
er ed</w>
ic ally</w>
for ward</w>
po or</w>
de ca
sit ting</w>
sho ws</w>
mo d
fe et</w>
wee ks</w>
te mp
J ust</w>
pres ent</w>
po in
J o
k y</w>
on d</w>
sur face</w>
rou ght</w>
ne ur
ec tion</w>
as es</w>
anima l</w>
poli tical</w>
l ost</w>
cle ar</w>
opport unity</w>
li g
l u
en ding</w>
4 0</w>
wr ite</w>
p ay</w>
mic ro
li ke
us h</w>
for tun
wr it
comple x</w>
econom y</w>
T o</w>
ne y</w>
bu y</w>
Y eah</w>
year -
le g
hu man
fa il
ac e
knowle dge</w>
en cy</w>
c ing</w>
iz e</w>
e e</w>
ci vi
chan ges</w>
are as</w>
ste p</w>
sol ution</w>
r en
logi es</w>
tra di
g ar
incredi ble</w>
th re
fi ed</w>
d om
t ro
progra m</w>
gre en</w>
gi ving</w>
e at</w>
pati ents</w>
es p
fol lo
atten tion</w>
t elling</w>
f re
w ouldn</w>
ri ed</w>
mor ning</w>
f ur
ch es</w>
H a
gro wing</w>
a verage</w>
r ac
ill s</w>
bl ue</w>
an al
N o
challen ge</w>
mol ec
di e</w>
s le
re ds</w>
nu mbers</w>
Y es</w>
tur al</w>
realiz e</w>
h old</w>
f ree
enti ally</w>
u ght</w>
in ten
m ot
develop ed</w>
st ro
per form
im pro
su dd
st age</w>
reli gi
spea k</w>
qu e</w>
n al</w>
b rought</w>
O ur</w>
feel ing</w>
y er</w>
su per
N ot</w>
ss ing</w>
si a</w>
mil es</w>
m ine</w>
g en</w>
b ene
R ight</w>
ser i
M o
vi e
physi cal</w>
n am
gr and
f la
L a
si l
e mer
G re
su sta
si mil
com b
x i
inv en
ca mer
c ro
ro te</w>
pre ci
w rote</w>
v or
M ar
run ning</w>
sol ve</w>
see ms</w>
ca tions</w>
m os
in stitu
com pe
c ut</w>
N a
al one</w>
O n</w>
techno logies</w>
liter ally</w>
bot tom</w>
underst anding</w>
nor mal</w>
mo der
ma p</w>
bo ard</w>
the ory</w>
fund am
la u
o d
pro duce</w>
m a</w>
individu al</w>
b ar
ab o
1 2</w>
n ice</w>
mul ti
comp li
p an
mar ke
ing ly</w>
fa st</w>
e f</w>
cli mate</w>
va il
scienti sts</w>
s mar
ordin ary</w>
al low</w>
wh ite</w>
wat ch</w>
st e</w>
mp les</w>
hund reds</w>
C an</w>
star ting</w>
ne igh
resul t</w>
person al</w>
op en
con sci
ac cess</w>
C A</w>
reco gn
mo vi
like ly</w>
any one</w>
h ood</w>
chan ging</w>
cer tain
se a</w>
gi ves</w>
ch i
car b
S ome
Eng lish</w>
vil la
su ff
ima ges</w>
for ms</w>
au dience</w>
re p
mil lions</w>
est er
el lig
cre ating</w>
bo x</w>
au th
an t
to ols</w>
r ing</w>
evol ution</w>
sp ir
pla ying</w>
en ded</w>
comp as
re vol
pr om
n y</w>
mo ved</w>
gir l</w>
disco vered</w>
P ro
the ma
materi al</w>
k id</w>
h osp
fu n</w>
f ine</w>
D e
p en
m ale</w>
l os
issu e</w>
ea si
con v
ter ri
t y
car s</w>
me m
as king</w>
ac hi
A c
t op
f y</w>
Wor ld</w>
z y</w>
li ties</w>
ec han
c ks</w>
al es</w>
ul arly</w>
sh ort</w>
che mi
a vail
Euro pe</w>
6 0</w>
P ar
th ro
so on</w>
lo w
relation ship</w>
le as
dar k</w>
see m</w>
om s</w>
me t
ima gin
E very
st and</w>
so f
sho wed</w>
ou ght</w>
c lo
bloo d</w>
G oo
re qui
mo vement</w>
cen ter</w>
ig n</w>
foc us</w>
desig ned</w>
absolu tely</w>
t on
i sts</w>
e mb
develop ing</w>
uc k</w>
int ellig
d ou
typ e</w>
supp ort</w>
r ate</w>
pri v
il s</w>
se ver
rec ently</w>
s sive</w>
r it
all s</w>
produc t</w>
me ly</w>
co ol</w>
bene f
t ar
sour ce</w>
f ear</w>
year- old</w>
tal ked</w>
pati ent</w>
ur ity</w>
ris k</w>
on line</w>
la w</w>
indu stry</w>
gener ation</w>
s tic
psy cho
incredi bly</w>
chan ce</w>
st and
resour ces</w>
issu es</w>
beg in</w>
tici p
th ank</w>
sh ape</w>
ma thema
de ep</w>
at ors</w>
ag ed</w>
y es</w>
u m
reas ons</w>
h and
avail able</w>
adv an
in c
gen e
con cer
tin y</w>
re ly</w>
ma in</w>
innov ation</w>
wr iting</w>
d ings</w>
vo ice</w>
su p
re l
pa in
N e
t ele
kno ws</w>
gi c</w>
fil m</w>
develop ment</w>
t ect</w>
m echan
in spi
h our</w>
di men
b al
r an</w>
li ved</w>
ta ge</w>
r .</w>
invol ved</w>
ha ven</w>
di sc
uc le
sa ve</w>
o re
non -
b all</w>
situ ation</w>
clas s</w>
Chin ese</w>
B i
19 9
sion al</w>
maj or</w>
ter m</w>
de gre
de ed</w>
conver sa
connec ted</w>
compu ters</w>
ca mp
pic tures</w>
cho ice</w>
suc cess
qu ality</w>
net work</w>
di sp
z er
t an
nec ess
me et</w>
esp eci
especi ally</w>
b es</w>
ar en</w>
y ond</w>
perf ect</w>
evi dence</w>
dep end
be comes</w>
pre ss</w>
messa ge</w>
incre as
experi ment</w>
col or</w>
imp act</w>
e qui
big ger</w>
ver s</w>
tre at
ti z
h om
gre ss</w>
ex ist
bab y</w>
U ni
L e
wor th</w>
w ish</w>
u al</w>
b at
shi ps</w>
robo t</w>
pu tting</w>
en ly</w>
sm all
grou ps</w>
fa vor
eff ici
O f</w>
simil ar</w>
read ing</w>
pro tec
ori gin
on to</w>
lin es</w>
imp os
gir ls</w>
ex tra
brea k</w>
tw are</w>
T a
su ally</w>
speci al</w>
h un
gh ter</w>
mis sion</w>
gu ess</w>
expla in</w>
di stri
n ucle
m oun
b ul
C om
2 5</w>
ti ves</w>
stre et</w>
or ity</w>
c ru
b an</w>
S outh</w>
0 -
do or</w>
w all</w>
s ent</w>
ni fic
g al
eff ect</w>
be yond</w>
b acter
f le
d y
ca t
as s</w>
B y</w>
sti c</w>
m ent
ar ed</w>
tri bu
sof tware</w>
ra is
moder n</w>
1 1</w>
to wards</w>
r ules</w>
to wn</w>
pres sion</w>
medi cal</w>
medi c
la b</w>
con struc
w ea
tru th</w>
hund red</w>
f all</w>
dev ice</w>
Ma ybe</w>
cr acy</w>
ac tive</w>
a ds</w>
s end</w>
de ad</w>
Wh ere</w>
W i
Fi rst</w>
pp ed</w>
te ach</w>
sever al</w>
posi tion</w>
l and
g g
exper im
ec ture</w>
dru gs</w>
dri ve</w>
Lo ok</w>
tech ni
o w
beli ev
r ap
partic ularly</w>
anal y
susta in
str ong</w>
li fe
carb on</w>
pro per
li st</w>
h y</w>
cou ra
appro ach</w>
any body</w>
wal king</w>
u se
li z
fer ence</w>
ev en
8 0</w>
str on
scienti fic</w>
ob s</w>
ey e</w>
w in</w>
s ounds</w>
y ers</w>
pro cess
ga in</w>
Goo gle</w>
str an
st o
off ice</w>
h it</w>
com for
sy n
mon th</w>
app li
E very</w>
tr al</w>
ro ad</w>
or ies</w>
b s</w>
scho ols</w>
re cei
ste m</w>
sol ar</w>
sec urity</w>
minu te</w>
lar gest</w>
g ames</w>
de ep
ba sic</w>
materi als</w>
at ures</w>
aliz ed</w>
prin ci
pot ential</w>
st ay</w>
sho wing</w>
r ace</w>
obvi ously</w>
n ine</w>
la tion</w>
int ro
gra du
exa mples</w>
conf lic
ch ec
c in
am ong</w>
viol ence</w>
ser ve</w>
dru g</w>
certain ly</w>
ac tivity</w>
B u
rec or
g ot
ma ss</w>
en ter
en sive</w>
b it
as su
ac i
tot ally</w>
high -
wan ts</w>
ta il</w>
star ts</w>
pro te
iz ed</w>
an ces</w>
ac coun
S i
teach ers</w>
sp read</w>
pro jects</w>
po e
le ad</w>
devel op</w>
M e
st ers</w>
ob ject</w>
no body</w>
big gest</w>
ate st</w>
l y
extre mely</w>
ac her</w>
Af ter</w>
we b
sic s</w>
happ iness</w>
f oun
exc iting</w>
elec tr
M i
D a
B o
jour ney</w>
inter est</w>
dig ital</w>
t end</w>
re ach</w>
every where</w>
char ac
sy m
spe ed</w>
posi tive</w>
o kay</w>
mem ory</w>
meas ure</w>
S te
th i
se x</w>
resul ts</w>
nam ed</w>
l ose</w>
suc cess</w>
o es</w>
P h
M ic
C ar
sh e
com par
st ore</w>
ri ch</w>
patter n</w>
mean ing</w>
fur ther</w>
compas sion</w>
camer a</w>
H I
th o
stud ent</w>
se x
g as</w>
sa fe</w>
peri od</w>
no tice</w>
fortun ately</w>
do w
vel s</w>
ro r</w>
f er</w>
di ag
contin ue</w>
S a
D i
st anding</w>
respon se</w>
n ar
it ary</w>
ex tr
es ti
b er</w>
J ap
po ver
ad d</w>
C o
i m</w>
fi re</w>
E x
tim ate</w>
mod els</w>
leg al</w>
lead ers</w>
j obs</w>
ag ing</w>
se par
pover ty</w>
o x
le y</w>
high er</w>
demo cracy</w>
B ra
w ind</w>
pic k</w>
fol low</w>
favor ite</w>
ci tiz
c lear
H ar
tre es</w>
s un
i tion</w>
even tually</w>
Wh o</w>
D on</w>
wat ching</w>
sp o
mm er</w>
m per
individu als</w>
contin u
Jo h
pa in</w>
m er</w>
ill ing</w>
ear li
T w
g ri
de ter
sig nific
s al
r is</w>
m ers</w>
l er</w>
im medi
gener al</w>
fa ster</w>
bo y</w>
ar ds</w>
sec re
ma g
exp ect</w>
ess entially</w>
an ks</w>
P o
wor l
t ells</w>
plan ts</w>
jo y</w>
ic k</w>
fi r
cra zy</w>
H o
E ven</w>
C ol
1 8
w il
list en</w>
b om
5 00</w>
scre en</w>
ro le</w>
per spec
mar k
gre w</w>
condi tions</w>
te acher</w>
par ticip
cre ative</w>
ar m</w>
M ost</w>
villa ge</w>
ver sion</w>
thous and</w>
su n</w>
ru p
li ar</w>
G er
wor se</w>
sudd enly</w>
sk in</w>
s ou
g er
fin ding</w>
communi ties</w>
as se
str ate
sk y</w>
sho wn</w>
s ong</w>
revol ution</w>
prof es
pa ge</w>
b unch</w>
w ood</w>
sor ts</w>
nucle ar</w>
me ant</w>
coll abor
w ell
pre ss
ob jects</w>
m es</w>
gh tly</w>
gal ax
buil dings</w>
bra ins</w>
ther e
sup posed</w>
produc ts</w>
pl an</w>
ph en
p ose</w>
movi e</w>
S h
medic ine</w>
in deed</w>
form ed</w>
distri bu
colle ag
cho ose</w>
G e
2 00</w>
sug ge
r om
min ds</w>
impos sible</w>
co de</w>
cir cu
some where</w>
in flu
go al</w>
cul tural</w>
al ing</w>
S o
ta ught</w>
ri es</w>
ran ge</w>
poin ts</w>
f ant
extra ordinary</w>
ari ly</w>
Nor th</w>
fo ot</w>
fi gu
dre am</w>
sho t</w>
ph il
ill u
g ery</w>
fore st</w>
c k
bo dies</w>
a in</w>
S e
throu gh
smar t</w>
mor al</w>
kill ed</w>
heal thy</w>
fundam ental</w>
d ang
cont ext</w>
ad dre
ac ks</w>
W est</w>
Th ose</w>
wi fe</w>
we ver</w>
sig n</w>
lar ger</w>
en ter</w>
cre a
con st
ac tions</w>
v ot
om en
lo wer</w>
hi c</w>
d an
ca ses</w>
allo ws</w>
allo wed</w>
tra ining</w>
osp here</w>
c la
Ch ris</w>
u sually</w>
secon ds</w>
inclu ding</w>
fi ght</w>
e ting</w>
B ri
te mper
produc tion</w>
ol der</w>
n ect</w>
logi sts</w>
a ms</w>
M on
A re</w>
tradi tional</w>
piec es</w>
P er
Ch ri
ox y
ex ist</w>
con nect</w>
compli cated</w>
compe ti
tru ly</w>
sh ap
phen omen
on e-
ni a</w>
incre ase</w>
fo ot
d a</w>
wa it</w>
stu dies</w>
sc en
pr os
organiz ation</w>
lo ved</w>
indu stri
ec ting</w>
disc us
d ow</w>
ci es</w>
ali ve</w>
writ ten</w>
success ful</w>
ser ies</w>
n os
k ill</w>
in s
W ith</w>
wi se</w>
speci fic</w>
rec ord</w>
me ters</w>
m it
ir s</w>
fami lies</w>
cri tical</w>
be ings</w>
abo ve</w>
I ma
pro tect</w>
g ni
exc ited</w>
To day</w>
z z
vi sual</w>
th ree
sle ep</w>
plan e</w>
e ma
P a
ur s</w>
lo y
li gh
bio logy</w>
1 0
to ol</w>
hosp ital</w>
fin an
ach ed</w>
Americ ans</w>
up on</w>
tr ust</w>
t ree</w>
s mo
re mark
op s</w>
inter national</w>
in come</w>
er e
electri city</w>
doc tor</w>
cri sis</w>
HI V</w>
h ic
f as
eff ective</w>
d au
bacter ia</w>
ver se</w>
regi on</w>
pri ce</w>
perspec tive</w>
exp ensive</w>
do cu
bi le</w>
1 8</w>
star s</w>
sp ac
some how</w>
phy sics</w>
hi m
conversa tion</w>
bot s</w>
b and</w>
al ter
Wh ich</w>
seri ous</w>
ri ghts</w>
provi de</w>
patter ns</w>
ge ment</w>
d on
al th</w>
sh es</w>
ing ing</w>
i ly</w>
E ast</w>
t ory</w>
ra tion</w>
o h</w>
ke pt</w>
in te
fa mous</w>
H u
vi sible</w>
small er</w>
serv ice</w>
Afri can</w>
treat ment</w>
tr ou
re presen
m al
en or
colle ge</w>
any where</w>
three -
ro bots</w>
recogn ize</w>
got ten</w>
C an
s wi
ear s</w>
neur ons</w>
ma tic</w>
l ab
him self</w>
wa ste</w>
tre at</w>
ter r
si bility</w>
re fl
dow n
de b
T V</w>
wi de</w>
st om
ne w
le ss
h ot</w>
f our
doc tors</w>
di sa
archit ecture</w>
any more</w>
v al</w>
st opp
s ell</w>
ri se</w>
p lease</w>
fas cin
fac es</w>
ec h</w>
al ism</w>
a mp
ther ap
mil itary</w>
mach ines</w>
ar ri
W a
st y
ici al</w>
contro l
cont ent</w>
ac tual</w>
Li ke</w>
pl ant</w>
l ands</w>
is ms</w>
inve st
A no
tou ch</w>
to -
fami liar</w>
con tribu
ve hic
li ghts</w>
di versity</w>
con cept</w>
c ked</w>
ab i
L on
J u
well -
gre ater</w>
er ous</w>
earli er</w>
e ties</w>
deci sions</w>
be coming</w>
R i
Ano ther</w>
An y
y a</w>
won der</w>
we ight</w>
poli ce</w>
pe ace</w>
on y</w>
o logy</w>
list ening</w>
le gs</w>
l uc
i shed</w>
dri ving</w>
aw are</w>
y eah</w>
ti tu
sk ills</w>
perform ance</w>
ma ssive</w>
le -
g -
pp ing</w>
neigh bor
ep ing</w>
clear ly</w>
wer en</w>
through out</w>
solu tions</w>
engine ering</w>
wa iting</w>
tra in</w>
ra ise</w>
priv ate</w>
curr ent</w>
B a
tw o-
pro gress</w>
prac tice</w>
par a
inf ra
gen es</w>
de sp
consi der</w>
ur ban</w>
there fore</w>
logi st</w>
f low</w>
do g</w>
cos ts</w>
C ity</w>
t a</w>
inven ted</w>
cl ou
af ter
Ima gine</w>
no tic
mi sta
le vels</w>
h ur
f ru
ac ity</w>
ac ci
web site</w>
ta ins</w>
t or
hea d
free dom</w>
ex cept</w>
eng th</w>
direc tion</w>
de f
H e
tra vel</w>
tion ary</w>
ther n</w>
pl es</w>
intellig ence</w>
for th</w>
fant astic</w>
au tom
si ght</w>
s low</w>
re g
poli cy</w>
man u
in ation</w>
i an</w>
func tion</w>
cop e</w>
connec tion</w>
pul l</w>
mat h</w>
h ous
dang erous</w>
an g</w>
we ap
ot h</w>
gre atest</w>
en ced</w>
beau ty</w>
ac ting</w>
R o
pe di
or ts</w>
der ed</w>
c ket</w>
c ele
b its</w>
wal ked</w>
v ic
un e</w>
sub ject</w>
l ay</w>
ini ti
con ven
ad ap
rel ated</w>
ous ness</w>
oc cu
institu tions</w>
comple te</w>
W ester
sig n
land sc
fa ir
dra w</w>
deca de</w>
bu t
at ory</w>
Uni versity</w>
5 ,000</w>
vir us</w>
p leas
l li
it ation</w>
immedi ately</w>
d ation</w>
co ld</w>
ab les</w>
val ues</w>
su e</w>
mp tion</w>
j a
flo or</w>
eri a</w>
b la
19 8
underst ood</w>
ti vi
teach ing</w>
s sion</w>
me eting</w>
ta tions</w>
squ are</w>
re duc
me ter</w>
di vi
a head</w>
7 0</w>
t ex
ph ones</w>
obvi ous</w>
fe ed</w>
de mon
de m
cap it
W e
vari ous</w>
u t
st ance</w>
physi ci
mi le</w>
en coura
dis appe
conflic t</w>
typ es</w>
sustain able</w>
serv ices</w>
s ent
pol l
pi cal</w>
ma in
m us
human ity</w>
gene tic</w>
fin al</w>
deca des</w>
W ar</w>
stran ge</w>
remark able</w>
pa id</w>
op ti
lo g
in a</w>
i al</w>
gu e</w>
govern ments</w>
dol lar</w>
con clu
S econ
Lon don</w>
tu m</w>
qu ar
en ess</w>
care er</w>
a th
pr int</w>
par ti
ne ar</w>
j us
in stru
follo wing</w>
deci sion</w>
deci de</w>
de ser
s we
s -
mu si
inst ance</w>
fl ying</w>
bab ies</w>
as soci
al though</w>
F ran
w illing</w>
l a</w>
g ent
A d
terri ble</w>
R us
K en
wor k
tion ed</w>
sequ ence</w>
re por
r ay</w>
possi bly</w>
os y
eff ects</w>
d ness</w>
cho ices</w>
cep tion</w>
Y our</w>
9 0</w>
su s</w>
p ath</w>
os op
enor mous</w>
J e
s at</w>
oun ded</w>
mo tiv
fu el</w>
depend ent</w>
de si
cap acity</w>
use ful</w>
t al</w>
ss es</w>
sli de</w>
press ure</w>
poli tics</w>
ev ent</w>
e ding</w>
C ali
B ro
A I
vi d</w>
re sear
o ds</w>
marke ts</w>
it es</w>
f it</w>
er a</w>
environ mental</w>
de s
cu ri
challen ges</w>
any way</w>
F rom</w>
soci eties</w>
men d
com mer
co ver</w>
c ros
an e</w>
M us
re -
il ing</w>
d ance</w>
be es</w>
Tw o</w>
R a
we b</w>
tr ack</w>
sur r
spea king</w>
sli ghtly</w>
s at
ri c</w>
origin al</w>
help ed</w>
g la
for ces</w>
exp lo
dise ases</w>
comm it
Cali for
Af gh
stic k</w>
sen s
publi shed</w>
pr ene
ma gic</w>
d ate</w>
clas s
as p
ag ri
pl astic</w>
phil osop
on ic</w>
la ws</w>
l ap
ist an</w>
finan cial</w>
de stro
a k</w>
S y
C hi
- year-old</w>
uni que</w>
li e</w>
gra de</w>
e m
citiz ens</w>
cal cul
aliz ation</w>
ac ts</w>
wor st</w>
wor kers</w>
temper ature</w>
tele vision</w>
s wit
effici ent</w>
direc tly</w>
colleag ues</w>
chemi cal</w>
ac ked</w>
survi ve</w>
st ree
pre par
n ur
mos tly</w>
mo m</w>
In st
zer o</w>
st ates</w>
shar ed</w>
produc ed</w>
mo bile</w>
man i
ill ed</w>
g ly</w>
f os
cor rec
co o
be low</w>
arti st</w>
ac tivi
Califor nia</w>
wh ose</w>
v an
tre mend
tra vel
su mmer</w>
st ation</w>
s la
relation ships</w>
ra id</w>
progra ms</w>
h ole</w>
e ating</w>
bo ys</w>
bio logical</w>
V i
religi on</w>
re ma
pop ular</w>
fe male</w>
expl or
Wester n</w>
Joh n</w>
re pe
ph o
li ber
ent re
di o</w>
crea tivity</w>
an z
M any</w>
tur ning</w>
rec ent</w>
infra structure</w>
cor por
ca uses</w>
a id</w>
Na tional</w>
G u
1 6</w>
t ons</w>
serv ation</w>
organiz ations</w>
notic ed</w>
entre prene
ec h
differ ences</w>
cle an</w>
and -
addre ss</w>
I ra
Gre at</w>
Afgh an
signific ant</w>
mm ing</w>
impro ve</w>
g ers</w>
expl ore</w>
evol ved</w>
d ying</w>
ans wers</w>
Is la
D r.</w>
C a
Afghan istan</w>
A b
v y</w>
the tic</w>
supp ly</w>
re gu
manu fac
il ed</w>
dro p</w>
ap art</w>
and a</w>
S A</w>
w is
shi ft</w>
photograp h
m osphere</w>
k il
gl ass</w>
dau ghter</w>
d ents</w>
clos er</w>
camp a
al g
ter y</w>
sol di
se t
pla yed</w>
p ush</w>
me mbers</w>
l ack</w>
fun ny</w>
disco ver</w>
comfor table</w>
at mosphere</w>
am bi
M an</w>
Ch ar
3 00</w>
sur gery</w>
stopp ed</w>
ru le</w>
pas sion</w>
net works</w>
for get</w>
e es</w>
app ed</w>
af raid</w>
Mus li
1 4</w>
tw ice</w>
t ask</w>
s ch
quic k</w>
is tic</w>
h us
b ought</w>
ap h
ali st</w>
wor ry</w>
ti mat
te en
pur pose</w>
le s
intro duc
f ro
communi cate</w>
civi liz
cap ital</w>
ac cep
M ars</w>
t ext</w>
sa fe
ne ga
he at</w>
g ate</w>
comp on
bir ds</w>
Th ink</w>
R ic
Indi an</w>
stree ts</w>
stra ight</w>
st ar</w>
respon sibility</w>
hel d</w>
con duc
S p
H ey</w>
B er
19 7
w el
v ul
timat ely</w>
stre ss</w>
lon g-
l ying</w>
fe els</w>
ex ten
dom in
d ad</w>
Inst ead</w>
1 ,000</w>
un g</w>
st -
si des</w>
see med</w>
photograp h</w>
mi ssing</w>
fa shi
f ying</w>
experim ents</w>
easi ly</w>
car ry</w>
br inging</w>
an ci
ad di
achi eve</w>
Is ra
Euro pe
D ar
stand ard</w>
shar ing</w>
op pos
molec ules</w>
emo tional</w>
ec tively</w>
charac ter</w>
c ore</w>
bo at</w>
ad ul
TE D
T i
Q u
x es</w>
r ying</w>
ori th
min i
kno wing</w>
el lit
cro w
car to
bir th</w>
alter na
achi ev
tu red</w>
trou ble</w>
re al
plan ets</w>
pas s</w>
par ty</w>
oxy gen</w>
le v
differ ently</w>
degre es</w>
da ma
cre ates</w>
co ff
bro ken</w>
bas is</w>
b le
ali ties</w>
T ur
G i
tot al</w>
ter ed</w>
ro oms</w>
help ing</w>
experi ences</w>
con fi
cha ir</w>
alg orith
Th e
Bra z
x ity</w>
x ed</w>
re duce</w>
n ation</w>
inte gr
i cal</w>
desig ners</w>
ach ing</w>
M ex
sp ending</w>
ra in</w>
ne l</w>
h ot
foc used</w>
eng age</w>
cen tral</w>
bu b
att ack</w>
am a</w>
a vo
W om
Au str
1 0,000</w>
y el
sty le</w>
spe ech</w>
sat ellit
m el
lo ad</w>
le t
ess or</w>
er ci
e th
comple xity</w>
am p</w>
M u
Da vid</w>
Ac tually</w>
moun tain</w>
m it</w>
high ly</w>
fi x</w>
din os
de tec
communi cation</w>
ach es</w>
F ace
tu m
secre t</w>
scienti st</w>
pre v
ne arly</w>
me th
in ess
hy dro
diag nos
ar tic
ali a</w>
H is</w>
sy mp
n one</w>
la un
f s</w>
cor ner</w>
consci ousness</w>
cele br
A gain</w>
vol un
uni ties</w>
struc tures</w>
s al</w>
pri mar
ha ir</w>
gen ome</w>
fi gh
di a
cu stom
con ference</w>
we st</w>
u sual</w>
stud ying</w>
sh el
ro l
pas sed</w>
extr a</w>
et c</w>
e dge</w>
de st</w>
b oun
b ing</w>
AI D
tri al</w>
ro ck</w>
dev ices</w>
de ta
chec k</w>
char ge</w>
vul ner
tremend ous</w>
s ac
opport unities</w>
j ec
hear ing</w>
condi tion</w>
ch er</w>
ca de
bu d
M an
z ine</w>
ti sh</w>
pre ssed</w>
luc ky</w>
low -
landsc ape</w>
jo in</w>
fair ly</w>
aliz e</w>
Ta ke</w>
Face book</w>
win dow</w>
val u
sc ul
rais ed</w>
pri son</w>
oper ation</w>
mb le</w>
inspi red</w>
ema il</w>
ec osy
b ru
a st
T u
2 ,000</w>
s m</w>
respon d</w>
in tu
ear ing</w>
ver ing</w>
tran si
radi o</w>
coll ap
co gni
chil d
bri lli
bl ind</w>
al le
AID S</w>
sit es</w>
sa ving</w>
pre si
necess ary</w>
mu se
ke ts</w>
jour n
it e
imagin ation</w>
identi ty</w>
er ship</w>
cat ch</w>
anci ent</w>
Mi ddle</w>
vic ti
st at
re mot
pl at
l en
fore ver</w>
figu red</w>
e g
defin ition</w>
c t</w>
bus iness
ag ree</w>
a -
T al
F in
th row</w>
spac es</w>
religi ous</w>
phenomen on</w>
m b</w>
in ci
O r
G ood</w>
F r
ula tions</w>
rep li
oppos ite</w>
n it
lead ing</w>
jus tice</w>
hop e
dist ance</w>
dd en</w>
cre atures</w>
ci ence</w>
b one</w>
ari an</w>
1 3</w>
- up</w>
tra de</w>
possi bility</w>
o ther
la w
kil ome
fin ished</w>
f lies</w>
desp ite</w>
bir d</w>
be l
arti sts</w>
app ly</w>
an n
aff ord</w>
A t
1 .
z o
tici ans</w>
so ld</w>
respon sible</w>
neigh b
necess arily</w>
ma ga
industri al</w>
fi cation</w>
far mers</w>
el ess</w>
dre ams</w>
descri be</w>
degre e</w>
abi lities</w>
Th anks</w>
M il
parti cles</w>
par k</w>
on -
imp re
fail ure</w>
exp ec
ev ents</w>
easi er</w>
de a
ari a</w>
a h</w>
Secon d</w>
M c
Ira q</w>
2 4</w>
t ent</w>
si an</w>
pain ting</w>
no tion</w>
mom ents</w>
me mor
los s</w>
it ely</w>
ing ton</w>
ex erci
dou b
S an</w>
Jap an</w>
Europe an</w>
v ity</w>
v acc
quot e</w>
pa ir</w>
import antly</w>
ent ally</w>
ear th</w>
dimen sional</w>
ar t
an ce
Ge or
val ent</w>
ti n</w>
suff ering</w>
st one</w>
sor ry</w>
sic k</w>
rep ort</w>
r a</w>
gr y</w>
gi ant</w>
g yp
enti rely</w>
eff ort</w>
benef its</w>
be l</w>
argu ment</w>
a ster
O b
z en</w>
sequ ences</w>
rou gh
resp ect</w>
prof it</w>
le gi
inter act</w>
i ds</w>
ge ly</w>
call s</w>
ac cur
or al</w>
li c</w>
hol ding</w>
ha bit
grap h</w>
for d</w>
emp loy
consci ous</w>
coff ee</w>
ap preci
Ho wever</w>
F ren
tur ing</w>
pu zz
p al
o be
iz ation</w>
gen e</w>
f li
ele ments</w>
cre d
cra tic</w>
br ings</w>
K .</w>
Ha ve</w>
w ear</w>
th -
sen si
nega tive</w>
le ts</w>
hel ps</w>
f all
ec u
bri dge</w>
brea k
bil lions</w>
bal ance</w>
ad ver
V ery</w>
Some times</w>
A sia</w>
yel low</w>
vi sit</w>
va tive</w>
tra ined</w>
tion ally</w>
stu died</w>
sta ur
si mul
s and</w>
re staur
p ha
open ed</w>
no te</w>
n a</w>
mo ves</w>
mi r
cy cle</w>
competi tion</w>
at temp
ar ies</w>
M r.</w>
se ly</w>
ro ll</w>
re turn</w>
p rou
ou l
nu tri
mis sions</w>
met aph
mat es</w>
lead ership</w>
in -
fre qu
en gine</w>
en ed</w>
cl in
cap able</w>
c ot
back ground</w>
a di
u le</w>
s low
pu ts</w>
pre vi
pho to</w>
organ isms</w>
int ell
f ill</w>
deter min
cor ding</w>
be d
On ce</w>
O ver</w>
N ig
1 ,
wil d</w>
ste in</w>
sex ual</w>
p ounds</w>
oce ans</w>
h ome
fic ally</w>
er t</w>
ep ide
en se</w>
en joy</w>
el er
disco very</w>
ch ers</w>
F or
E gyp
ser ved</w>
sec tor</w>
rup tion</w>
mon it
me mb
m ouse</w>
l as
ic o</w>
fe ed
fac ts</w>
col ors</w>
c ard</w>
bi lities</w>
an tum</w>
v or</w>
ul timately</w>
tis sue</w>
sta tis
st uck</w>
sh ouldn</w>
new sp
mat ters</w>
lea ds</w>
hea ds</w>
f ab
believ ed</w>
Fren ch</w>
D id</w>
un fortunately</w>
ti l
su it</w>
scul p
s an
predic t</w>
oc cur
mo thers</w>
mi d
hor ri
gu n</w>
g gle</w>
fail ed</w>
fac tory</w>
f fic</w>
ex tin
ba se</w>
adul ts</w>
We b</w>
wa ve</w>
ty pical</w>
supp or
suc ce
re lev
perf ec
meas u
hus band</w>
g lo
f illed</w>
en ever</w>
concer ned</w>
ca ught</w>
c ell
bl es</w>
ac king</w>
Li fe</w>
yp e</w>
weap ons</w>
we ird</w>
we alth</w>
va st</w>
titu de</w>
th in</w>
ten s</w>
oper ating</w>
maj ority</w>
lim ited</w>
invest ment</w>
h oo
fos si
an a</w>
W il
C O
1 7</w>
tre ated</w>
nor m
no ise</w>
ke t
ins ects</w>
du e</w>
cre ation</w>
conv in
ch imp
ch ic
bro ad
app ing</w>
univer sity</w>
sudd en</w>
off er</w>
ne uro
lea ving</w>
it ch
fl u</w>
fa ir</w>
civi l</w>
blo ck</w>
benef it</w>
beli ef</w>
be at</w>
vir tual</w>
st ate
slow ly</w>
os i
influ ence</w>
ex hi
equ ality</w>
emp o
el es
edu ca
acc eler
S ee</w>
M ore</w>
19 6
ve ments</w>
tra ffic</w>
s y</w>
ran dom</w>
les son</w>
lab or</w>
go l
figh ting</w>
f light</w>
ester day</w>
ea p</w>
deep ly</w>
cri min
consu mption</w>
child hood</w>
ca te
bro ther</w>
b on
ad a</w>
S we
S ha
D P</w>
w alls</w>
su sp
sig nal</w>
ri ver</w>
re ve
pro tot
pl u
n ames</w>
ke e
it able</w>
const antly</w>
compar ed</w>
campa ign</w>
ad op
P al
B rit
4 00</w>
te x</w>
prote in</w>
pa ying</w>
organ ic</w>
man aged</w>
for ced</w>
argu e</w>
Bi g</w>
5 0,000</w>
uc ks</w>
struc tion</w>
stre am</w>
strate gy</w>
part ment</w>
op hi
lau gh
ha s
h ate</w>
fore ign</w>
emo tions</w>
descri bed</w>
de pression</w>
begin s</w>
ar ms</w>
surpri se</w>
sp in
oper ate</w>
op ini
ner v
neighbor hood</w>
n ic
mp s</w>
men ted</w>
inter ven
inter action</w>
fascin ating</w>
coll ective</w>
am i</w>
ali sts</w>
N A
Bri tish</w>
Au dience</w>
A n</w>
v es
tr act</w>
to x
tal ks</w>
t ac
so il</w>
r in
other wise</w>
os s</w>
ob se
o logical</w>
le tter</w>
engine ers</w>
con tra
b ank</w>
at ch</w>
arti f
w earing</w>
trans form</w>
sion ate</w>
separ ate</w>
prac tic
perfec tly</w>
mathema tics</w>
mar ried</w>
in visible</w>
g in</w>
fashi on</w>
do ws</w>
dem and</w>
commer cial</w>
clos ed</w>
accoun t</w>
R ob
P ri
Every body</w>
transp or
tal ity</w>
ste ps</w>
sol ved</w>
simp li
si vely</w>
qu es</w>
pro found</w>
p ment</w>
muse um</w>
l ou
l abor
inter pre
h ell</w>
dri ven</w>
deli ver</w>
curr ently</w>
cor al</w>
cate g
brilli ant</w>
brea st</w>
b y
appro pri
aff ect</w>
U. K.</w>
I T</w>
F e
B ar
volun te
trans l
therap y</w>
so li
si ster</w>
qu antum</w>
profes sional</w>
princi ples</w>
pl us</w>
p ra
or row</w>
mil li
follo wed</w>
electri c</w>
c king</w>
ap ers</w>
T wit
wh om</w>
u tionary</w>
prou d</w>
pres ents</w>
p il
my st
men tioned</w>
mar ri
man a
lead er</w>
ju d
has n</w>
grap h
gent le
gener ate</w>
gen cy</w>
galax ies</w>
fo ld</w>
f al
ch eap</w>
be t</w>
a thy</w>
Mex ico</w>
sym me
surpri sed</w>
stitu te</w>
sp on
re present</w>
inve st</w>
gradu ate</w>
coun t</w>
cor tex</w>
cop y</w>
Wa sh
W ould</w>
G o</w>
wor ried</w>
wa ke</w>
vie ws</w>
un less</w>
re fu
n an
m outh</w>
l it</w>
inv ited</w>
intell ec
equi valent</w>
ele ph
demon str
con ta
an thro
G o
E ach</w>
Austr alia</w>
vi s
transp ar
tec h</w>
sym bo
sho p</w>
qu a
plan ning</w>
p it
nar ra
la yer</w>
ju mp</w>
hom es</w>
har der</w>
extre me</w>
every day</w>
desig ning</w>
cir cle</w>
business es</w>
bre ad</w>
Wash ington</w>
C oun
B os
vehic le</w>
ur ch</w>
si x
recei ved</w>
mo on</w>
me at</w>
langu ages</w>
inv esti
i re</w>
hon est</w>
gh t
galax y</w>
g on
er -
distribu tion</w>
desi re</w>
con cep
che mic
br and</w>
ang le</w>
advan tage</w>
Th ree</w>
Eng land</w>
D o
wis dom</w>
tis m</w>
sp ot</w>
sp here</w>
ot ing</w>
organiz ed</w>
opti mi
lin k</w>
im m
gro wn</w>
de fine</w>
co vered</w>
clo ck</w>
are ly</w>
alterna tive</w>
Braz il</w>
wat ched</w>
te sting</w>
ri d</w>
ot e</w>
na mic</w>
maga zine</w>
ke eping</w>
in j
dra wing</w>
desig ner</w>
class room</w>
T im
Ric hard</w>
Every thing</w>
Ch il
us ers</w>
survi val</w>
soldi ers</w>
re leas
n e</w>
molec ule</w>
laun ched</w>
h a</w>
f ell</w>
equ al</w>
coll ect</w>
char acter
b us</w>
z es</w>
w o
ti le</w>
thre at</w>
t ough</w>
sec tion</w>
se as
mat ch</w>
mar k</w>
k a</w>
ini cal</w>
ga ther
exist ence</w>
ex ists</w>
equi pment</w>
cl inical</w>
avo id</w>
associ ated</w>
agri culture</w>
V al
worl d
wer ed</w>
war ming</w>
wa ves</w>
ver sus</w>
thin ks</w>
th ir
shap es</w>
seri ously</w>
sc an
pp er</w>
p ages</w>
om y</w>
norm ally</w>
mean ing
man age</w>
ki d
ke ys</w>
intellig ent</w>
hous es</w>
g ged</w>
four th</w>
fiel ds</w>
feed back</w>
f ted</w>
e th</w>
deb ate</w>
cont act</w>
construc tion</w>
civiliz ation</w>
call ing</w>
as ks</w>
ag ers</w>
ve ge
ve -
to ward</w>
sent ence</w>
ra tional</w>
p y</w>
neur os
mo tion</w>
ma s
identi fy</w>
hope fully</w>
en cies</w>
din ner</w>
d el
cri me</w>
car ds</w>
Ger many</w>
2 1
se at</w>
resi dent</w>
prev ent</w>
phot os</w>
pa int</w>
le g</w>
kilome ters</w>
gen der</w>
fri end
fi sh
engine er</w>
econom ics</w>
de tail</w>
cogni tive</w>
chemi stry</w>
b ar</w>
an cy</w>
ad ult</w>
Twit ter</w>
E in
the sis</w>
techni cal</w>
surpri sing</w>
re sc
ra in
r ound</w>
pla yers</w>
pla yer</w>
or ders</w>
mic ros
m ma
lo cation</w>
increas ingly</w>
in fin
hy po
go ti
fa ith</w>
connec tions</w>
comp are</w>
au d
artic le</w>
ac u
a stron
S tre
Jap an
I ran</w>
y esterday</w>
temp or
tar get</w>
ta r</w>
statis tics</w>
spo ke</w>
sign als</w>
r ural</w>
r hy
process es</w>
plac ed</w>
nerv ous</w>
m ales</w>
li ked</w>
lea ves</w>
ki st
he li
ex pression</w>
cha in</w>
cen tr
ance st
a cade
W al
10 0,000</w>
vi su
st ood</w>
scen e</w>
safe ty</w>
sa ved</w>
proper ty</w>
op ening</w>
multi ple</w>
hi dden</w>
fore sts</w>
experi enced</w>
ex plan
evi l</w>
dol ph
ca used</w>
ar m
appe ar</w>
H i
CO 2</w>
wea ther</w>
tion ing</w>
the ater</w>
sur ve
stru ggle</w>
per s</w>
mor tality</w>
l unch</w>
import ance</w>
grap hic</w>
gener ations</w>
fol ks</w>
cred it</w>
circu m
br an
bl in
ann oun
analy sis</w>
air plane</w>
ag gre
acci dent</w>
Su n</w>
M al
20 th</w>
univer sal</w>
spec tr
sp ring</w>
regu lar</w>
produc ing</w>
los ing</w>
is land</w>
har d
dimen sions</w>
de aling</w>
da ily</w>
coun ter
col on
chemic als</w>
aw ful</w>
L in
stu p
spir it</w>
sig ns</w>
resear chers</w>
princi ple</w>
ne goti
mag ne
ge on</w>
ere as</w>
dri ver</w>
c tion</w>
at trac
ad ed</w>
ad dic
Ken ya</w>
Har v
Brit ain</w>
4 5</w>
y l
tri p</w>
to il
sho es</w>
sh oul
relev ant</w>
pic ked</w>
or ism</w>
mana gement</w>
li br
in si
i or</w>
high est</w>
ha dn</w>
h os
g ation</w>
form ing</w>
electri cal</w>
dist inc
con sequences</w>
as si
ag er</w>
ab str
a urs</w>
S cho
L u
K ore
Ein stein</w>
E l
3 5</w>
wonder ing</w>
rap id
pedi a</w>
par ent</w>
movi es</w>
kill ing</w>
hol es</w>
gra m</w>
dr ink</w>
dis ci
dama ge</w>
convin ced</w>
contin ent</w>
b in
arri ved</w>
an o</w>
a war
a tional</w>
I tal
Chri st
th care</w>
terr ori
swit ch</w>
scri p
sa d</w>
re action</w>
produc tive</w>
poe try</w>
on ed</w>
m as</w>
iz ing</w>
imp li
ig n
grand mother</w>
g el
est ab
e ds</w>
consi dered</w>
coll ection</w>
b ic
artif icial</w>
Tim es</w>
Pa kist
C ome</w>
vir uses</w>
tri l
sm ell</w>
satellit e</w>
prof essor</w>
pro ce
op e</w>
micro bes</w>
ga p</w>
g ging</w>
fin ger</w>
ex act</w>
e u
e li
di o
de st
d ots</w>
ca st</w>
M IT</w>
3 ,000</w>
vari ety</w>
ul ate</w>
sour ces</w>
part ner</w>
os ity</w>
on g
ne ath</w>
mus cle</w>
hea vy</w>
g an
fac ing</w>
deep er</w>
comp os
co al</w>
ar r
ac tiv
The ir</w>
P lease</w>
A ma
1 7
war m</w>
sug gest</w>
sh ort
sel ling</w>
r ates</w>
pro ve</w>
possi bilities</w>
per cei
or d
metaph or</w>
ma tically</w>
ma mm
let ters</w>
increas ing</w>
gu i
feel ings</w>
f ran
en jo
emp ty</w>
disci pl
deser t</w>
clou d</w>
cli ck</w>
c ans</w>
al u
al ed</w>
ac cording</w>
a ti
wh enever</w>
tri als</w>
tom orrow</w>
se tting</w>
remot e</w>
rec y
pre -
in ner</w>
heal thcare</w>
go ld</w>
gi es</w>
fla g</w>
exp ected</w>
exerci se</w>
ess ential</w>
emb ar
e ment</w>
cor ruption</w>
consi st
at en</w>
N u
Japan ese</w>
Isra el</w>
B ill</w>
w ings</w>
th u
su m</w>
str ength</w>
se ts</w>
open -
musi ci
messa ges</w>
marri age</w>
logi c</w>
in dependent</w>
hosp it
far m</w>
f ting</w>
e m</w>
curi ous</w>
cul tures</w>
control led</w>
K e
C E
Ar ab
w oo
vide os</w>
v it
under neath</w>
sa ge</w>
presi dent</w>
plat form</w>
nat ur
long- term</w>
h i</w>
gre en
fi shing</w>
fa il</w>
exper ts</w>
dinos aurs</w>
b right</w>
advan ced</w>
P resident</w>
A le
vil e
terr orism</w>
tan e
t les</w>
shar ks</w>
sa tis
requi res</w>
re ven
pri vile
pic ally</w>
pen gu
ophi sti
no w
mi gr
meth od</w>
en cing</w>
de -
d ry</w>
ca ting</w>
bud get</w>
bro ke</w>
anti -
am ing</w>
ac cept</w>
absolu te</w>
Harv ard</w>
Geor ge</w>
D oes</w>
Chri sti
vot e</w>
viol ent</w>
stup id</w>
stra tion</w>
s ophisti
rela tively</w>
mi x</w>
inter face</w>
intellec tual</w>
gr an
g all
dy namic</w>
direc t</w>
charac ters</w>
be ar</w>
au l</w>
addi tion</w>
C .</w>
vo ices</w>
valu able</w>
ti ll</w>
thou ghts</w>
te eth</w>
su m
rough ly</w>
ro b
resour ce</w>
pas s
on ing</w>
oc ca
ne u
ne ar
is ol
g ment</w>
emo tion</w>
care fully</w>
cap ture</w>
c ure</w>
Y ou
L ast</w>
A s
A ra
z a</w>
th ri
t eles
stat us</w>
st ea
sig ned</w>
sa v
ri de</w>
re spec
re presents</w>
rapid ly</w>
mon y</w>
intro duce</w>
gi ft</w>
fin ish</w>
fe wer</w>
exp an
epide mic</w>
emer ging</w>
defin ed</w>
car rying</w>
bat tery</w>
ad ded</w>
Scho ol</w>
S at
Fran ci
Can ada</w>
C enter</w>
vulner able</w>
victi ms</w>
vi a</w>
trans formation</w>
sto ck</w>
speci fically</w>
na tions</w>
n ose</w>
molec ular</w>
k ness</w>
fel low</w>
f ts</w>
ex change</w>
conv ince</w>
bre ath</w>
behavi ors</w>
F a
C ould</w>
Any way</w>
19 5
z one</w>
tri ck</w>
te sted</w>
st y</w>
sk ele
situ ations</w>
sensi tive</w>
rhy th
requi re</w>
refu ge
re lease</w>
r are</w>
proper ties</w>
prepar ed</w>
ou se
mo vements</w>
ma ster</w>
life time</w>
hi de</w>
fre sh</w>
ent y</w>
en coun
eff ectively</w>
deta ils</w>
defin itely</w>
chimp anz
camer as</w>
asse mb
ar ts</w>
al o
ac tor</w>
W hi
S er
G DP</w>
An der
3 D</w>
sc o</w>
s and
primar y</w>
introduc ed</w>
ge -
g ay</w>
dep ends</w>
co ast</w>
bot tle</w>
bir th
Nig eria</w>
C or
un it</w>
t ol
sti mul
rais ing</w>
r and
prom ise</w>
pre ven
poe m</w>
pa y
oun ding</w>
nor th</w>
mp ed</w>
met al</w>
li cen
la dy</w>
k ne
j e
interest s</w>
fossi l</w>
f at</w>
ech no
e missions</w>
ca go</w>
at oms</w>
ar ity</w>
ac ted</w>
P re
In stitute</w>
Franci sco</w>
Chi cago</w>
w ine</w>
vol u
s outh</w>
s lo
ro t
protec ted</w>
poin ted</w>
no on</w>
min ist
mathema tical</w>
k itch
in ev
ecosy stem</w>
di r
cre te</w>
ce ment</w>
bi a</w>
appropri ate</w>
Wom en</w>
Tu be</w>
Stre et</w>
K i
J ames</w>
ste el</w>
set t
sen ding</w>
releas ed</w>
previ ous</w>
poli ticians</w>
or an
m aps</w>
gener ally</w>
fra me</w>
dr in
cu tting</w>
correc t</w>
c el
Ander son</w>
1 50</w>
un k</w>
sa mple</w>
s co
ris ks</w>
re ward</w>
re main</w>
p ack
mo di
lo c
it u
it i</w>
inv ent</w>
in ts</w>
hur t</w>
ho wever</w>
ha m</w>
g or
ex press</w>
dou ble</w>
discus sion</w>
confi dence</w>
compon ents</w>
ci l</w>
ch ap
c at</w>
autom a
au ton
adver ti
9 9</w>
1 5
u nex
techni ques</w>
ro of</w>
restaur ant</w>
regi ons</w>
perform ing</w>
org ans</w>
org an</w>
hy per
har ve
evol utionary</w>
eng aged</w>
cra ft</w>
bub ble</w>
bu ying</w>
aff ected</w>
W ow</w>
S ince</w>
L os</w>
At lan
0 0,000</w>
vie wed</w>
us er</w>
st ori
st ances</w>
st ac
spectr um</w>
shar k</w>
ser ving</w>
s na
ro ads</w>
recor ded</w>
re place</w>
radi ation</w>
ph ra
men tion</w>
li an</w>
l in</w>
l -
inven tion</w>
intu i
hydro gen</w>
gra vity</w>
go als</w>
fac tors</w>
es cap
ch ron
blo cks</w>
awar eness</w>
at ri
ap es</w>
anal o
amp ;</w>
ag re
P S</w>
J an
I I</w>
& amp;</w>
worl ds</w>
w are</w>
sug ar</w>
re ci
qu it
qu anti
process ing</w>
per form</w>
no tes</w>
mot or</w>
mista ke</w>
mir ror</w>
mal aria</w>
lo ck</w>
is on</w>
i um</w>
hi stori
employ ees</w>
demo cratic</w>
comb ination</w>
You Tube</w>
Mic ha
v ey</w>
tum or</w>
tril lion</w>
tradi tion</w>
te sts</w>
st able</w>
s ons</w>
re qu
pleas ure</w>
pe t</w>
instru ment</w>
i ther</w>
fi le</w>
environ ments</w>
el ine</w>
ea st</w>
disa ster</w>
cle an
as h</w>
Musli m</w>
Char les</w>
transi tion</w>
th anks</w>
tempor ary</w>
stru gg
st ant</w>
run s</w>
re ached</w>
per ception</w>
newsp aper</w>
m ur
less ons</w>
l un
is es</w>
es timate</w>
er al</w>
do gs</w>
di et</w>
cen ters</w>
bom b</w>
al -
NA SA</w>
N .</w>
An gel
21 st</w>
2 000</w>
ul l</w>
ty pically</w>
sh all</w>
sc ared</w>
ru b
poll ution</w>
p en</w>
or ing</w>
in her
h ouse
go ods</w>
fle xi
fi f
fac tor</w>
dis h</w>
ch est</w>
cer e
bat tle</w>
an der</w>
Wi ki
Ste ve</w>
Ph one</w>
P i
N i
C u
Ama z
v a</w>
travel ing</w>
sta ff</w>
sol ving</w>
requi red</w>
re f
pul led</w>
plan es</w>
per man
para dig
op tion</w>
on y
neighb ors</w>
moun tains</w>
mar ine</w>
log ically</w>
lau gh</w>
kitch en</w>
inclu de</w>
in gre
ingre di
her o</w>
gen i
de struction</w>
comp la
an xi
Y et</w>
V o
Rus sia</w>
Per haps</w>
P aul</w>
J a
D .</w>
B l
Ara b</w>
A pp
world wide</w>
win ter</w>
u ne
tra ge
ti ous</w>
the s</w>
sub -
sp orts</w>
sophisti cated</w>
sing ing</w>
re stri
re min
psycho logy</w>
pro p
pres ence</w>
pos t-
person ally</w>
pe ak</w>
n or</w>
mi ss</w>
m ulation</w>
ly mp
liter ature</w>
kee ps</w>
inter view</w>
inf ected</w>
in sur
ill ness</w>
hon or</w>
g li
effici ency</w>
dro pped</w>
consu mer</w>
collabor ation</w>
cli mb
ba g</w>
ap art
Tal k</w>
P aci
G en
200 8</w>
x im
vehic les</w>
ul timate</w>
se es</w>
protec tion</w>
prac tical</w>
particip ate</w>
p es</w>
ori ties</w>
meaning ful</w>
ig nor
hop ing</w>
fe atures</w>
exist ing</w>
el d</w>
cra sh</w>
corpor ate</w>
chic ken</w>
ca mp</w>
att acks</w>
appli ed</w>
H ol
F ri
D ay</w>
6 00</w>
wi re</w>
un usual</w>
techno logical</w>
sen ses</w>
sc ore</w>
s che
pro por
per cen
occur red</w>
occu r</w>
o rest</w>
natur ally</w>
mi rac
l at
il legal</w>
h its</w>
gu ar
gri d</w>
gi cal</w>
fundam entally</w>
func tions</w>
fra me
encoura ge</w>
ed it
comb ined</w>
bic y
ax is</w>
ancest ors</w>
al y
after noon</w>
U. N.</w>
P en
On ly</w>
20 10</w>
0 0
unex p
ul f</w>
transp ort</w>
trac king</w>
top ic</w>
t ape</w>
stron ger</w>
sec ure</w>
rela tive</w>
re ment</w>
re late</w>
r ene
priv acy</w>
pre dat
por tra
phy sically</w>
opini on</w>
om ic</w>
ment ary</w>
mechan ism</w>
manufac turing</w>
la unch</w>
jo ke</w>
increas ed</w>
foun dation</w>
fl at</w>
en ted</w>
elec tro
el ing</w>
eg gs</w>
de vi
de di
d le</w>
compu ting</w>
ar re
amoun ts</w>
algorith ms</w>
activi ties</w>
ab led</w>
Paci fic</w>
Al so</w>
7 5</w>
xi de</w>
wi re
under water</w>
transpor tation</w>
the me</w>
ri di
recor ds</w>
radi cal</w>
qu id</w>
pre gn
pla y
p un
ner ship</w>
mon key</w>
mista kes</w>
memor ies</w>
hospit als</w>
go s</w>
form er</w>
embar ra
elec tion</w>
con centr
comfor t</w>
co ordin
cli p</w>
clas si
bur ning</w>
ar ing</w>
Whi le</w>
No body</w>
G a
Fr ance</w>
D u
Bos ton</w>
wer ing</w>
the -
supp ose</w>
sun light</w>
stu dio</w>
sou l</w>
s mile</w>
s l
recy cl
re ti
pl om
pe ace
opp ing</w>
o tic</w>
min d
min ate</w>
institu tion</w>
hor se</w>
hor iz
h ack
fal se</w>
emp athy</w>
ele ment</w>
ear th
de tect</w>
coo king</w>
c ross</w>
bl u
be e</w>
ad ly</w>
Some thing</w>
Micha el</w>
Dar win</w>
2 .
- and-
wal ks</w>
some what</w>
sk ill</w>
sho ot</w>
re ver
re gre
qui et</w>
psycho logical</w>
lar gely</w>
fall ing</w>
f alls</w>
equ ally</w>
echno logy</w>
dri ves</w>
doub t</w>
const ant</w>
but ton</w>
brea king</w>
an ger</w>
accur ate</w>
ac tors</w>
G ener
- like</w>
v an</w>
tom s</w>
ter nal</w>
tain ment</w>
swi mming</w>
str ing</w>
sil ence</w>
sa tion</w>
ri dge</w>
re a
prote ins</w>
pot entially</w>
p y
p ack</w>
musi cal</w>
me tho
me -
marke ting</w>
l ength</w>
in struc
figu res</w>
e igh
dra matic</w>
do ors</w>
coll ected</w>
c ow</w>
c ents</w>
b allo
adv ice</w>
ac qui
a i</w>
S tu
Pakist an</w>
Fi ve</w>
Con gress</w>
C en
B en
wh el
war s</w>
volu me</w>
tri c</w>
stre t
shap ed</w>
sc r
re mind</w>
photograph s</w>
of -
narra tive</w>
medi um</w>
lap top</w>
gener ated</w>
flo wers</w>
des per
conclu sion</w>
bi om
b en
anti bio
ab sor
Un fortunately</w>
Me di
H er</w>
H er
C al
A m
A l</w>
v ag
sub jects</w>
si ties</w>
ri gh
pi ano</w>
percen tage</w>
ol ds</w>
no vel</w>
li ver</w>
inno vative</w>
in sul
fe eding</w>
f r
er ever</w>
ent ure</w>
en able</w>
ell o</w>
electr onic</w>
de man
cre ature</w>
consi der
con crete</w>
comb ine</w>
bur n</w>
ber g</w>
asp ect</w>
B ab
tox ic</w>
ton ight</w>
to y</w>
thre at
sh ir
sel s</w>
pro gre
part ners</w>
p in
over whel
mil k</w>
it ting</w>
hol ds</w>
hi stor
ha n</w>
gar den</w>
explan ation</w>
er ror</w>
crow d</w>
conversa tions</w>
ch ose</w>
cen tu
bor ing</w>
bo xes</w>
birth day</w>
bar ri
ba se
b ones</w>
as ed</w>
ap par
Val ley</w>
Sat ur
va st
ul ty</w>
swi m</w>
sustain ability</w>
surr ounded</w>
sta yed</w>
sha me</w>
rou gh</w>
rema ins</w>
psy ch
provi ding</w>
po p</w>
p le
out come</w>
organ ism</w>
mp ing</w>
mm ed</w>
me d
ly wood</w>
li quid</w>
l ant</w>
in sight</w>
i Phone</w>
gra tion</w>
frame work</w>
fil ms</w>
fic tion</w>
fa ke</w>
explor ation</w>
expla ined</w>
exhi bi
ex ecu
cor d</w>
circum stances</w>
brea the</w>
V ir
St an
S cot
F l
writ er</w>
t ables</w>
state ment</w>
son gs</w>
soli d</w>
se v
ro cket</w>
presen tation</w>
over all</w>
on e
no where</w>
measu red</w>
ma kers</w>
lin ked</w>
labor atory</w>
jo ined</w>
inc enti
imp le
hous ing</w>
fle w</w>
fac ed</w>
dia be
clos ely</w>
ch urch</w>
auth ority</w>
assu me</w>
abstr act</w>
Nu mber</w>
G al
B ank</w>
200 7</w>
2 1</w>
1 6
well- being</w>
sens ors</w>
resi li
ph an
op tions</w>
on ics</w>
mis m</w>
lim its</w>
inspi ration</w>
gra in</w>
func tional</w>
fortun ate</w>
exp on
exp and</w>
entreprene urs</w>
el ev
dec line</w>
con servation</w>
collap se</w>
ath le
appreci ate</w>
appli cations</w>
St ate</w>
S ou
S cience</w>
R u
K ing</w>
Be fore</w>
wh ales</w>
wat er
te e</w>
ta ste</w>
t all</w>
symp toms</w>
st un
sc ar
re memb
provi ded</w>
pri me</w>
pa int
p apers</w>
on i
j ective</w>
horri ble</w>
happ i
grap hy</w>
ge ograp
f ed</w>
ev ening</w>
es ome</w>
er r
ep te
econom ists</w>
disp lay</w>
dea ths</w>
dat ab
co ck
cla im</w>
challen ging</w>
ca ble</w>
b a</w>
ac cu
Uni on</w>
S epte
S ch
Pro ject</w>
Par is</w>
Isla m</w>
G ra
G lob
Christ mas</w>
Ba sically</w>
Angel es</w>
whi st
ti e</w>
sil k</w>
sh ment</w>
sa mples</w>
s in
re solution</w>
re move</w>
pas sionate</w>
par aly
p ort</w>
obse ssed</w>
ma m
ing -
gentle men</w>
fin gers</w>
expl osi
estab li
dan ger</w>
cur ve</w>
continu ed</w>
clo thes</w>
capit alism</w>
archit ect</w>
allo wing</w>
Septe mber</w>
S m
M use
Ger man</w>
Egyp t</w>
D an
B G</w>
Amaz on</w>
Ad am</w>
Ab out</w>
A h</w>
4 ,000</w>
wh erever</w>
villa ges</w>
un known</w>
trans formed</w>
three- dimensional</w>
se a
rom an
na vi
multi -
is ed</w>
inter nal</w>
i ve</w>
hot el</w>
hoo ds</w>
glo be</w>
g ent</w>
g ence</w>
fund ing</w>
dan cing</w>
conven tional</w>
con stra
chi p</w>
au tism</w>
attemp t</w>
a de</w>
Wiki pedia</w>
S ol
J es
G ree
19 th</w>
whe el</w>
stor y
sp lit</w>
so -
seas on</w>
ro ots</w>
re ference</w>
r y
pre ce
pl ate</w>
om as</w>
ne st</w>
mit ted</w>
lo yed</w>
lau ghter</w>
instru ments</w>
infin ite</w>
identi cal</w>
he ight</w>
ex tent</w>
do zen</w>
direc tor</w>
deter mine</w>
des k</w>
depend ence</w>
conven i
contra st</w>
ch art</w>
ca ve</w>
ca using</w>
ate ful</w>
an gry</w>
Musli ms</w>
Muse um</w>
J os
x ing</w>
ter -
techni que</w>
sugge sts</w>
struc k</w>
stand ards</w>
s ca
ro ot</w>
ro cks</w>
represen ted</w>
re verse</w>
pri ze</w>
poll en</w>
poli cies</w>
pol y
paradig m</w>
ot ed</w>
od d</w>
o gen
mani pul
m ess</w>
ke y
it arian</w>
h all
gr and</w>
fin ance</w>
fi ve-
fi re
emb race</w>
dy nam
den se</w>
centu ries</w>
bor der</w>
blo g</w>
bi ke</w>
behavi oral</w>
be ach</w>
an k
a do
O s</w>
No thing</w>
M is
M at
G PS</w>
C ha
wor ker</w>
wea k</w>
w l</w>
un like</w>
tr end</w>
suff er</w>
su ici
sev ere</w>
sc ent</w>
s ki
puzz le</w>
pu shing</w>
po orest</w>
p ost</w>
ori al</w>
mechan ical</w>
hum or</w>
hand le</w>
gre at
gra ss</w>
earth qua
connec ting</w>
con ser
co -
clou ds</w>
che str
c kets</w>
bl ed</w>
ar my</w>
appli cation</w>
ad mit</w>
Re member</w>
O lymp
M R
He alth</w>
H ig
G ulf</w>
Every one</w>
1 2
wonder ed</w>
wi de
vo ca
tou ched</w>
sur vey</w>
spin al</w>
sp ar
se l</w>
reg ul
pro of</w>
pl ans</w>
ph arm
meas uring</w>
li zed</w>
j ected</w>
in tri
impli cations</w>
fu nd</w>
flo ating</w>
fi xed</w>
f loo
er ies</w>
e e
distribu ted</w>
disappe ar</w>
col ate</w>
cli mb</w>
bus y</w>
brea thing</w>
archit ects</w>
ap p</w>
X -
T or
T e
J une</w>
Fin ally</w>
C i
zo om</w>
youn ger</w>
whe el
wh ale</w>
ul ous</w>
tre ating</w>
tele phone</w>
succe ed</w>
sta tions</w>
st ands</w>
sha ke</w>
sel ection</w>
pri son
pop ulations</w>
mamm als</w>
libr ary</w>
incre ases</w>
her oes</w>
green house</w>
gni tion</w>
g un
fru str
fran kly</w>
exist ed</w>
equ ation</w>
educa tional</w>
dis orders</w>
cor als</w>
clas ses</w>
ci enti
c ers</w>
b ow</w>
an ticip
am ine</w>
Th omas</w>
S ec
Rob ert</w>
Re ally</w>
O ther</w>
Hig gs</w>
G han
vacc ine</w>
u pper</w>
tu be</w>
symbo l</w>
s wa
s lu
rene w
reco gnition</w>
re aching</w>
pre ssing</w>
par king</w>
off ered</w>
le st</w>
illu str
el a</w>
econom ies</w>
e fs</w>
drin king</w>
direc tions</w>
di plom
den sity</w>
cle ver</w>
car ried</w>
automa tically</w>
as ses</w>
argu ments</w>
agre ed</w>
T ra
Swe den</w>
Ne w
M ini
L ea
F oun
A ri
8 0s</w>
200 9</w>
200 5</w>
. D.</w>
we igh
u ary</w>
tane ously</w>
sur geon</w>
ster n</w>
se ven
s in</w>
resi stance</w>
re fer
phra se</w>
myst ery</w>
mon keys</w>
lo cked</w>
less ly</w>
l ung</w>
inter actions</w>
inst inc
inf ec
gro ws</w>
exper t</w>
dra matically</w>
diag ra
dep end</w>
cy ber
consu mers</w>
certain ty</w>
care ful</w>
b ers</w>
aster o
T ex
R w
Par k</w>
O x
M oun
M ay</w>
H i</w>
Glob al</w>
D is
B al
win dows</w>
tr uck</w>
tea ms</w>
te a</w>
sp reading</w>
si zed</w>
shoul der</w>
sh or
sav ings</w>
s tion</w>
reas on
ra w</w>
proper ly</w>
po wers</w>
ph er
out comes</w>
obe sity</w>
o ci
mi ssed</w>
main ly</w>
life style</w>
ide al</w>
i ed</w>
gar d
flo wer</w>
fir m</w>
fe ature</w>
eng aging</w>
en ga
dre w</w>
do t</w>
de gra
control ling</w>
celebr ate</w>
ag end
Sa har
Ob ama</w>
La tin</w>
Kore a</w>
Jan uary</w>
J er
D on
vir tu
ul tra
tion -
ti tle</w>
thi cal</w>
so ft</w>
s er</w>
robo tic</w>
ridi cul
ri sing</w>
pengu ins</w>
partic le</w>
p ure</w>
over come</w>
organiz e</w>
op h
ol ing</w>
ne ither</w>
mi ser
m ice</w>
lou d</w>
loo p</w>
ki lo
in o</w>
imm une</w>
har m</w>
graph ics</w>
gr ay</w>
g ust</w>
g ments</w>
g ang</w>
f at
ene my</w>
divi ded</w>
coura ge</w>
contro ver
compon ent</w>
col um
att ached</w>
ari o</w>
an gi
aff ord
acc es
W ill</w>
Mic ros
M arti
D emo
7 0s</w>
20 ,000</w>
y st
wire less</w>
tra u
ti p</w>
th al</w>
swe et</w>
sc ary</w>
resc ue</w>
recei ve</w>
re comm
quar ter</w>
protot ype</w>
pri ces</w>
practic es</w>
philosop hy</w>
pha se</w>
perman ent</w>
pain ful</w>
ob stac
ne s
min ation</w>
m ess
le f
ill ance</w>
hard ware</w>
gra b</w>
gi le</w>
fu els</w>
es is</w>
enter ed</w>
eleph ant</w>
descri p
bor ders</w>
be e
ab use</w>
V er
T it
N at
D ec
C am
App le</w>
. C.</w>
z ar
un its</w>
ul a</w>
travel ed</w>
toil et</w>
til ity</w>
t asks</w>
su rely</w>
spec tac
ser ves</w>
recor ding</w>
ra mi
prin ting</w>
presen ted</w>
preci sely</w>
pos es</w>
pl enty</w>
om es</w>
nit ure</w>
mu sh
met abo
main tain</w>
m on</w>
li ze</w>
it ual</w>
in put</w>
in equality</w>
ful l-
extin ct</w>
destro yed</w>
desig ns</w>
d ding</w>
d ary</w>
co operation</w>
co m</w>
bro w
bro thers</w>
b age</w>
appe ars</w>
appe ared</w>
antibio tics</w>
O c
H ouse</w>
H om
Foun dation</w>
F our</w>
y i
ves sels</w>
trans forma
tol er
the less</w>
ta x</w>
surve illance</w>
ster e
smo ke</w>
sh ut</w>
sculp ture</w>
s can</w>
repor ted</w>
pre fer</w>
o v
lo vely</w>
licen se</w>
la tions</w>
j un
inter active</w>
inten se</w>
ing dom</w>
hal f-
ge ome
fu sion</w>
four -
expec tations</w>
enter tainment</w>
concep ts</w>
con trac
clin ic</w>
circu it</w>
c tic</w>
b alls</w>
aliz ing</w>
acade mic</w>
a k
No bel</w>
M S</w>
Con go</w>
Cen tral</w>
An y</w>
wi red</w>
wh o
wh ereas</w>
un clear</w>
trans late</w>
thro wn</w>
ta g</w>
sum mar
spir itual</w>
sac ri
s n
ru pt</w>
ra p</w>
pro to
person ality</w>
mi d-
m .</w>
li kes</w>
laugh ing</w>
l atest</w>
k ic
inter acting</w>
in d
imagin ed</w>
illu sion</w>
guar an
grand father</w>
g y
friend ly</w>
fascin ated</w>
exhibi tion</w>
emer gency</w>
em bed
dep ending</w>
de partment</w>
commit ment</w>
com e
clas sic</w>
carto on</w>
ca ta
be lon
be have</w>
b ucks</w>
alle l</w>
S ar
L ar
Gi ve</w>
B ur
6 0s</w>
1 4
. m.</w>
year- olds</w>
y ard</w>
thi op
ter ing</w>
t at
t ary</w>
t ack
str ang
so- called</w>
sho oting</w>
se ssion</w>
rela tion</w>
recogn ized</w>
reco very</w>
re pu
poli o</w>
per su
li ft</w>
ja il</w>
in ju
hear ts</w>
han g</w>
habit at</w>
h att
gn ity</w>
explor ing</w>
es tic</w>
dio xide</w>
di verse</w>
d der</w>
cu te</w>
construc ted</w>
concer n</w>
commit ted</w>
col ony</w>
chan nel</w>
c ular</w>
auton om
al d</w>
N G
G ir
G et</w>
E thiop
D en
Ar t</w>
6 5</w>
2 2</w>
zer o-
unexp ected</w>
u gly</w>
tech n
stic ks</w>
ste ms</w>
sli des</w>
sh ri
se ed</w>
rand om
profes sion
produc tivity</w>
produc es</w>
power ed</w>
po cket</w>
pla ys</w>
par allel</w>
paint ings</w>
o ft</w>
mus cles</w>
mic s</w>
mi es</w>
magne tic</w>
ma ker</w>
m -
invol ves</w>
intui tive</w>
gl aci
fur niture</w>
fri gh
f are</w>
exc ell
ex clu
et ings</w>
dra wn</w>
der al</w>
d ates</w>
custom ers</w>
col li
che aper</w>
ce iling</w>
c enti
bl ing</w>
b al</w>
aw esome</w>
anima tion</w>
all -
acces sible</w>
Wh e
R evolution</w>
R I
P or
Micros oft</w>
Joh n
Isla mic</w>
Ha iti</w>
Ghan a</w>
G ol
Bu dd
B ang
wan ting</w>
vir tually</w>
prob ability</w>
pi le</w>
ot a</w>
or bit</w>
op posed</w>
o k
ligh ting</w>
incenti ves</w>
hun ger</w>
hon est
fund ed</w>
ev alu
es sion</w>
enga gement</w>
ec k</w>
docu ment</w>
divi de</w>
dis order</w>
diabe tes</w>
cho colate</w>
cal c
b low</w>
aster n</w>
asp ects</w>
arr ator</w>
an ony
ad minist
achiev ed</w>
a p</w>
S S</w>
R os
Pal est
N arrator</w>
Man hatt
Ale x
Afri cans</w>
9 0s</w>
tic a</w>
ti ed</w>
spir ing</w>
sk y
see k</w>
scri pt</w>
sand w
rela tions</w>
re pair</w>
pur cha
psy chi
privile ge</w>
ow ned</w>
or chestr
open- source</w>
om in
off ic
o logists</w>
n els</w>
monit or</w>
ment ally</w>
insur ance</w>
ign ore</w>
h all</w>
es the
er adi
en tr
disappe ared</w>
di gnity</w>
cor n</w>
conflic ts</w>
colleag ue</w>
co ok</w>
can di
bicy cle</w>
an -
agend a</w>
accep ted</w>
T ell</w>
Stan ford</w>
Manhatt an</w>
Inter national</w>
D el
D H</w>
A R
1 9</w>
wh at
volunte ers</w>
tal s</w>
spi der</w>
sh a</w>
s w
repe at</w>
re moved</w>
pe st</w>
p ed</w>
neighbor hoods</w>
lo red</w>
histori cal</w>
har dly</w>
h at
gen u
g ut</w>
fro zen</w>
f rac
escap e</w>
embed ded</w>
ell ed</w>
do z
di an</w>
cri tici
cha mp
bar re
back wards</w>
b o</w>
apart ment</w>
a side</w>
a i
U g
Tex as</w>
S un
P ol
MR I</w>
Is land</w>
In deed</w>
E d
B on
Atlan tic</w>
2 7</w>
- to-
we al
wa shing</w>
u ri
top s</w>
teles cope</w>
ta tive</w>
t- hand</w>
symme try</w>
strate gies</w>
she ep</w>
sh ine</w>
sh ell</w>
sc ales</w>
py rami
me etings</w>
mb ling</w>
m ously</w>
leg acy</w>
la yers</w>
la dies</w>
l ers</w>
ju dge</w>
im provi
hi cal</w>
her o
gu il
govern ance</w>
ex posed</w>
electr onics</w>
ele g
e k</w>
domin ant</w>
dolph ins</w>
dist ant</w>
destro y</w>
dedi cated</w>
cop y
contin ues</w>
consist ent</w>
coll ecting</w>
char ity</w>
ch rom
ch os
cap tured</w>
bi as</w>
adverti sing</w>
a y
Wom an</w>
Wh ite</w>
So vi
N ations</w>
H y
Gre en
E D</w>
B ang</w>
univer sities</w>
un believ
u ti
ti red</w>
ti an</w>
the ories</w>
ta p</w>
t ori
spo ken</w>
smo king</w>
simpli city</w>
sil ent</w>
sear ching</w>
se where</w>
s now</w>
rac ing</w>
ra dic
r ent</w>
po ol</w>
optimi stic</w>
on al</w>
nor thern</w>
ne ts</w>
motiv ation</w>
mini ster</w>
mechan ics</w>
lo aded</w>
lic on</w>
l led</w>
itu de</w>
inv ite</w>
in y</w>
in spiring</w>
i j
hun gry</w>
forma l</w>
et ary</w>
en ting</w>
emp ha
dro ve</w>
dri ll</w>
di str
dar kness</w>
curi osity</w>
cr ying</w>
contribu te</w>
chos en</w>
ca sh</w>
bri ef</w>
bio logists</w>
b y-
b ars</w>
au r</w>
app le</w>
ad es</w>
ab und
O ce
C y
9 5</w>
vis ited</w>
vie wer</w>
vi sit
tal ent</w>
t ories</w>
t i</w>
sto res</w>
spea ker</w>
si de
s ket
rou te</w>
provi des</w>
pl ying</w>
per si
pas sen
pa tho
p uni
ong st</w>
ol dest</w>
neuros cience</w>
neur on</w>
micros cope</w>
lin ks</w>
le tting</w>
la id</w>
journ alist</w>
hi li
gr ateful</w>
glob ally</w>
fin ds</w>
fil ter</w>
ex trac
evol ve</w>
ess ence</w>
eff orts</w>
earthqua ke</w>
di ve</w>
d ust</w>
cho os
capit a</w>
c in</w>
boun dar
ballo on</w>
at tribu
as sa
as pi
arch y</w>
am ongst</w>
Vi et
R om
P A</w>
D an</w>
B ush</w>
B ay</w>
- of-
under ground</w>
ti les</w>
t ears</w>
t ab
suici de</w>
sho ck</w>
shir t</w>
she et</w>
see ds</w>
sch ol
re plac
quar ters</w>
predic table</w>
posi tions</w>
po x</w>
p ound</w>
p are</w>
oc k
men tation</w>
ma il</w>
ingredi ents</w>
i e</w>
hi re</w>
her self</w>
hea ded</w>
he mi
gen oci
ga ther</w>
foot print</w>
fac ial</w>
ex pos
en a</w>
el sewhere</w>
ear n</w>
e fly</w>
dom estic</w>
di ver
cor respon
contro ls</w>
con stitu
communi cations</w>
ca ts</w>
c ry</w>
boundar ies</w>
ber t</w>
b ill</w>
b arely</w>
au di
appar ently</w>
anxi ety</w>
all ed</w>
afford able</w>
ad ding</w>
Viet na
Ug anda</w>
T ri
S or
R ed</w>
N ext</w>
M os
Li b
B C</w>
A .</w>
ur ation</w>
uc k
trage dy</w>
t our</w>
t led</w>
sy mb
sta ti
st ops</w>
sh y</w>
se as</w>
refl ect</w>
ree fs</w>
re r</w>
pregn ant</w>
pl as
pic king</w>
pas sing</w>
ou ri
os is</w>
oran ge</w>
multi p
lin ear</w>
lim it</w>
la be
k i</w>
is tics</w>
inten ded</w>
integr ated</w>
innov ations</w>
hea ven</w>
fru it</w>
frequ ency</w>
foot ball</w>
fli p</w>
fer ti
edu cated</w>
disco ver
der ly</w>
def ense</w>
con tains</w>
camp us</w>
be er</w>
air craft</w>
ag ency</w>
adv ance</w>
adap t</w>
Wil li
Vo ice</w>
P u
B e</w>
3 0s</w>
200 4</w>
2 6</w>
2 3</w>
z z</w>
v acu
ur a</w>
symb ols</w>
sur faces</w>
super -
st ages</w>
spea kers</w>
sp ots</w>
se ats</w>
roman tic</w>
real m</w>
re act</w>
pol ar</w>
pi lot</w>
per pe
oun d
metho ds</w>
mechan isms</w>
in formed</w>
im er</w>
igh t
gran ted</w>
gr ab
g ger</w>
g ami</w>
extr act</w>
e thical</w>
dist ur
dir ty</w>
determin ed</w>
de fe
cr yp
cos mo
cata stro
c s</w>
beli efs</w>
ban ks</w>
ba th
ar ran
announ ced</w>
am in</w>
after wards</w>
ac compli
Je wish</w>
H ello</w>
Gener al</w>
C ap
3 2</w>
3 .
y ours</w>
vir al</w>
ver tical</w>
transpar ent</w>
transpar ency</w>
tr ends</w>
to ys</w>
terrori sts</w>
ten ed</w>
t ate</w>
t an</w>
sp ort</w>
sex u
sch iz
r at</w>
r ab
physici st</w>
pass words</w>
off icial</w>
o logist</w>
ne ural</w>
musici ans</w>
min ing</w>
ke p
k ni
isol ated</w>
inspi re</w>
initi al</w>
identi fied</w>
ic a</w>
hi er
geni us</w>
fig uring</w>
fif th</w>
ev el
en z
ell er</w>
diagra m</w>
deli vered</w>
datab ase</w>
d ated</w>
cru cial</w>
cro ps</w>
consu me</w>
con tract</w>
c up</w>
bro wn</w>
algorith m</w>
a ys</w>
T en</w>
Sp ace</w>
R ec
M as
Ital y</w>
Hol lywood</w>
Chil dren</w>
wor thy</w>
vi ously</w>
tran sc
tici an</w>
tex t
ter ies</w>
t ability</w>
sugge sting</w>
strang ers</w>
sion ally</w>
sing ly</w>
s si
ri cher</w>
rec ru
pul ling</w>
min es</w>
me al</w>
lun gs</w>
las er</w>
l ens</w>
k is
inj ury</w>
ini an</w>
indi ca
in ations</w>
impro vement</w>
heli cop
go od
far mer</w>
f it
en i
dynam ics</w>
di alo
demonstr ate</w>
de pressed</w>
de e
d ges</w>
d am
comp rom
cir cles</w>
chimpanz ees</w>
cha irs</w>
cep tions</w>
cap ability</w>
calcul ate</w>
bo ards</w>
bl ack
b att
ar do</w>
Whe ther</w>
Ti me</w>
M om</w>
Bi ble</w>
19 4
y or</w>
writ ers</w>
v able</w>
un comfortable</w>
tun a</w>
tu s</w>
treat ments</w>
to cin</w>
ti zed</w>
shri mp</w>
sh ore</w>
s mil
s ales</w>
re form</w>
protot yp
pro per</w>
pi g</w>
pat ent</w>
particip ants</w>
pain ted</w>
mm ers</w>
mb s</w>
ma d</w>
l ecture</w>
j ection</w>
inv ent
happi er</w>
grand children</w>
ge ous</w>
foun ded</w>
flu id</w>
f an</w>
eri ous</w>
elec tions</w>
ed ges</w>
e ded</w>
diagnos ed</w>
di c</w>
da y
crimin als</w>
con sul
categ ory</w>
brea ks</w>
auth or</w>
astron om
ans wered</w>
ado le
acci dents</w>
W at
V ide
Se a</w>
S ur
Ri o</w>
P an
Ox ford</w>
Marti n</w>
M and
L it
G r
Com m
Ca mb
B F</w>
wel come</w>
vi br
ve ter
vari ation</w>
tri cks</w>
tra jec
ti ze</w>
thi er</w>
th ick</w>
t ank</w>
separ ated</w>
se y</w>
ridicul ous</w>
repu tation</w>
repor ts</w>
reduc tion</w>
reduc ed</w>
re ments</w>
qu it</w>
qu e
protec ting</w>
predic tions</w>
pol lu
photograp hy</w>
photograp her</w>
par ties</w>
pan de
pa th
p lot</w>
p ink</w>
p ace</w>
ori gami</w>
neighb or</w>
mo de</w>
min gly</w>
lo cated</w>
inv a
inclu des</w>
in gu
ignor ance</w>
ho li
he imer</w>
ha bit</w>
gol f</w>
fi ber</w>
fa ult</w>
emer ge</w>
dre ss</w>
doz ens</w>
den cy</w>
construc t</w>
conclu de</w>
character istics</w>
chap ter</w>
autonom ous</w>
ast oni
as sign
al ty</w>
Vide o</w>
Sovi et</w>
Rw anda</w>
P M</w>
N ature</w>
Isra el
H un
Fr ank</w>
Fl ori
was h</w>
un likely</w>
u ms</w>
thir ds</w>
teen agers</w>
tan cy</w>
syn thetic</w>
small pox</w>
sacri f
rol ling</w>
reven ue</w>
re turned</w>
ran e</w>
pro pos
pri mi
pol lin
po et</w>
pit ch</w>
mp tions</w>
min ated</w>
micro -
lim b</w>
life -
in ch</w>
imp acts</w>
han ging</w>
han ded</w>
gl asses</w>
f illing</w>
encoun ter</w>
emp lo
ecosy stems</w>
dic tionary</w>
deb t</w>
d i</w>
crimin al</w>
cr yst
con sequence</w>
con cei
bri efly</w>
bla me</w>
ba gs</w>
aw k
ang les</w>
agri cultural</w>
ag encies</w>
Th ings</w>
T om</w>
Sy ri
S qu
P r
P ole</w>
Oce an</w>
Ob viously</w>
N ic
N ever</w>
M e</w>
L ad
I ran
Hu man</w>
Flori da</w>
Ethiop ia</w>
Bo y</w>
B ack</w>
Arab ic</w>
An tar
A -
200 6</w>
y o
win ning</w>
v ital</w>
tr ucks</w>
thro wing</w>
ter rit
stor m</w>
sh ots</w>
ri ce</w>
resi stant</w>
remin ded</w>
ree f</w>
ra ti
r ats</w>
preci se</w>
ow ner</w>
origin ally</w>
oph ren
op ens</w>
na ked</w>
my th</w>
mor ous</w>
m ou
lan ded</w>
ir on</w>
il es</w>
i P
glob alization</w>
gla d</w>
fe deral</w>
exp anding</w>
elec ted</w>
dri vers</w>
di ving</w>
dep th</w>
d am</w>
cros sing</w>
con tr
con cent
blu e
bi al</w>
b ound</w>
at tract</w>
arti cles</w>
and er
am ed</w>
ace u
accu mul
V en
M ad
Is n</w>
F ort
E astern</w>
De partment</w>
3 3</w>
200 1</w>
z heimer</w>
wil d
under lying</w>
tri bes</w>
to ber</w>
thre w</w>
t ant</w>
sent ences</w>
sco res</w>
schiz ophren
r arely</w>
pu shed</w>
progra mming</w>
primar ily</w>
predic ted</w>
poin ting</w>
ori gin</w>
off ici
o th
nur ses</w>
ni ght
meas ures</w>
in ches</w>
gh ters</w>
fron tal</w>
fac ility</w>
ex pres
est s</w>
el ed</w>
e pi
discover ies</w>
di g</w>
dau ghters</w>
da tions</w>
confi dent</w>
com mod
cli ents</w>
chrom os
cha os</w>
car ing</w>
assu mptions</w>
archit ec
ar med</w>
al t</w>
al co
a ment</w>
a mb
Pro f
Oc tober</w>
Ma ke</w>
M or
Gre en</w>
Al zheimer</w>
Ac t</w>
2 50</w>
00 0-
wee k
ve mber</w>
transl ated</w>
ten sion</w>
tar gets</w>
ta il
su per</w>
sti ci
sk ull</w>
sh opping</w>
reve al</w>
re son
re d
ra ys</w>
r ings</w>
pros per
phil anthro
ph os
oxy tocin</w>
op y</w>
n ings</w>
n -
mil len
mi li
le thal</w>
l ot
kne e</w>
j i
interven tion</w>
inev itable</w>
i on</w>
genoci de</w>
fe min
f ought</w>
exten ded</w>
experim ental</w>
e go</w>
disa gre
dinos aur</w>
de x</w>
bub bles</w>
be long</w>
be gun</w>
auth or
attrac tive</w>
at a</w>
arti stic</w>
ari ties</w>
ar ro
ag ree
Z i
W as</w>
M in
Be ij
8 5</w>
8 00</w>
3 0,000</w>
1 0-
y o</w>
vol can
ta x
syn the
surpri singly</w>
suppor ted</w>
sta irs</w>
spectac ular</w>
shel ter</w>
sha dow</w>
sh ops</w>
sens ory</w>
s its</w>
ri cul
re view</w>
qu ali
prom ote</w>
primi tive</w>
par tly</w>
par as
pan els</w>
p ing</w>
out put</w>
ob servation</w>
ob jective</w>
nutri tion</w>
nar row</w>
lu x
lin ed</w>
li ed</w>
ki ly</w>
inst al
im men
ha i</w>
gon na</w>
g ases</w>
g an</w>
g al</w>
for gotten</w>
foc using</w>
flexi ble</w>
far ming</w>
expan sion</w>
ex ternal</w>
emer ged</w>
el derly</w>
der ing</w>
dd le-
d or</w>
d op
consci ously</w>
con fron
cer ti
ca tal
c o</w>
b un
at titude</w>
assemb ly</w>
ap o
analy ze</w>
ali en</w>
S k
S hi
Pe ter</w>
H al
E ver
C ra
C l
B I</w>
200 3</w>
199 0s</w>
weap on</w>
v ors</w>
tri be</w>
sugge sted</w>
sto red</w>
sta tic</w>
so ap</w>
smar ter</w>
sle eping</w>
sil ly</w>
si sters</w>
satellit es</w>
sa u
rob ust</w>
ro gen</w>
revol u
resili ence</w>
regi me</w>
re fri
refri ger
r us</w>
r o</w>
pyrami d</w>
pur sue</w>
pro posed</w>
pre mi
pre fer
pos ter</w>
per mission</w>
particip ation</w>
oper ations</w>
ol a</w>
o red</w>
mm a</w>
mar ks</w>
ma gical</w>
m our</w>
m m</w>
lim it
le verage</w>
la ke</w>
l uck</w>
l ec
kill er</w>
ima gery</w>
help ful</w>
harve st</w>
h itting</w>
gui de</w>
ge ons</w>
ge l</w>
g ated</w>
fortun e</w>
flu ore
ey e
ex pedi
eri an</w>
enter pri
en sure</w>
docu ments</w>
dis ap
dimen sion</w>
diffic ulty</w>
de vast
cour t</w>
copy right</w>
conv ic
co vering</w>
can e</w>
bu ried</w>
bra ve</w>
b in</w>
an nu
T as
Sor ry</w>
Some body</w>
Ri ver</w>
P hili
La w</w>
H on
7 00</w>
197 0s</w>
0 .
y outh</w>
what so
whatso ever</w>
wat ts</w>
the ore
suff ici
sub tle</w>
sub si
strugg ling</w>
sou thern</w>
soldi er</w>
sho cked</w>
shar p</w>
s kep
ri st</w>
represen tation</w>
rap id</w>
radic ally</w>
r on</w>
pi one
photograph ed</w>
percei ve</w>
open ness</w>
ograp hic</w>
ob serv
n in
mer ely</w>
mb led</w>
mani fe
li ve
l ac
ki e</w>
key board</w>
it ate</w>
immedi ate</w>
gra ss
gather ing</w>
g os
ful ness</w>
fro g</w>
flo ws</w>
fail ing</w>
fab ric</w>
expla ining</w>
expec tancy</w>
eleph ants</w>
el ite</w>
dom ain</w>
dialo gue</w>
competi tive</w>
colon ies</w>
clu b</w>
catastro p
bio diversity</w>
autom o
adop ted</w>
addi tional</w>
Wi thin</w>
T r
Sh ould</w>
S W</w>
Pri ze</w>
K a
Jes us</w>
H el
D ere
Ch an
CE O</w>
C re
198 0s</w>
. com</w>
w and
vil le</w>
vie wing</w>
unbeliev able</w>
tun e</w>
trans lation</w>
success fully</w>
stro ke</w>
sla very</w>
shi fting</w>
rit u
refuge es</w>
re fer</w>
re con
ra ft</w>
qu est</w>
pu mp</w>
prof its</w>
phos ph
pa irs</w>
ni c</w>
min im
min al</w>
mat ri
li a</w>
l l
k o</w>
inve sted</w>
interest ingly</w>
instruc tions</w>
industri es</w>
in cen
ici ous</w>
hack ers</w>
h ill</w>
fab ulous</w>
fa vor</w>
expon ential</w>
ex tend</w>
et ro
er o
enter ing</w>
dom s</w>
demon stration</w>
deli ber
d or
d ele
con tain</w>
comple ted</w>
climb ing</w>
chi ef</w>
bru ary</w>
be ars</w>
base ball</w>
arri ve</w>
appe ar
a to</w>
Wi th
W all</w>
Th ird</w>
Satur n</w>
Rus sian</w>
P la
Or gan
L ong</w>
J im</w>
Fe bruary</w>
F ree
Dere k</w>
D A</w>
Chil d</w>
Camb ridge</w>
Bo b</w>
B ron
- based</w>
, 000-
wit ne
wheel chair</w>
vacu um</w>
v ation</w>
up set</w>
tim ated</w>
terrori st</w>
ter ror</w>
t ty</w>
suff ered</w>
skele ton</w>
shel f</w>
sandw ich</w>
sac red</w>
ro of
reli able</w>
refuge e</w>
re build</w>
pro file</w>
pret end</w>
plu g</w>
pe op
min d-
mi xed</w>
meth ane</w>
me l</w>
ma tion</w>
ma gn
m ac
law yer</w>
inf ection</w>
ima ging</w>
gra ms</w>
fa thers</w>
es timated</w>
dolph in</w>
discus s</w>
descrip tion</w>
d ating</w>
cur ricul
cop es</w>
conf used</w>
clos ing</w>
citiz en</w>
ca ke</w>
br ush</w>
boo k
bi zar
bi c</w>
b or</w>
b acks</w>
au dio</w>
at omic</w>
as m</w>
architec tural</w>
ar ray</w>
ad ing</w>
a tic</w>
a the
With out</w>
Si x</w>
S pan
Nor way</w>
N one</w>
M er
M A</w>
Gree k</w>
Fi f
C A
A ir
6 ,000</w>
2 8</w>
1 20</w>
wi der</w>
un certainty</w>
tum ors</w>
tr in
thu si
thre ats</w>
ten ds</w>
ta ined</w>
t ants</w>
susp ect</w>
stron gly</w>
stran ger</w>
str eng
squ ee
si mulation</w>
sh u
see king</w>
ro wing</w>
rhyth m</w>
repli cate</w>
rememb ered</w>
re tro
re ads</w>
rap ed</w>
profession als</w>
prin ted</w>
pre pare</w>
pharm aceu
oun dly</w>
oc curr
o tion</w>
nur se</w>
mirac le</w>
micro bial</w>
marke t
li ce</w>
law yers</w>
k ick</w>
h ost</w>
h il
h ey</w>
fu r</w>
fra gile</w>
fa ste
f its</w>
f ear
er o</w>
en thusi
el ly</w>
ec e</w>
down load</w>
discipl ine</w>
cy cles</w>
comp elling</w>
com ment</w>
collabor ative</w>
ci g
choos ing</w>
char ges</w>
carto ons</w>
cap abilities</w>
blo gs</w>
bizar re</w>
b ble</w>
Y e
Tur key</w>
T re
S E
Re publi
R ed
Prof essor</w>
P R</w>
Mar k</w>
M ary</w>
L a</w>
K ar
Jo e</w>
In du
G ar
F u
Ar ctic</w>
, 500</w>
y an</w>
ur ge</w>
transp lant</w>
trans fer</w>
trac ks</w>
thre sho
thresho ld</w>
tack le</w>
t one</w>
sti cal</w>
she ets</w>
ron es</w>
realiz ing</w>
re store</w>
re in
publi sh</w>
psych op
pre h
po le</w>
pleas ant</w>
pla in</w>
physici an</w>
pe a
paraly zed</w>
organiz ing</w>
nee dle</w>
myst erious</w>
mor ality</w>
magn itude</w>
la p</w>
la ge</w>
k able</w>
intu ition</w>
ig no
ic on</w>
i le</w>
hypo the
gradu ally</w>
gol den</w>
gene tics</w>
gar age</w>
fin ed</w>
experi encing</w>
exp ecting</w>
engine ered</w>
en abled</w>
e mber</w>
de ar</w>
cr ack</w>
conver t</w>
ci ous</w>
bro ad</w>
bo om</w>
auth orities</w>
ag ent</w>
aff ects</w>
T ali
Sm ith</w>
S ing
P ut</w>
K or
Is lands</w>
H en
Dec ember</w>
Bu il
Bl ue</w>
Beij ing</w>
2 9</w>
wide ly</w>
wat ers</w>
war ning</w>
w ill
vulner ability</w>
victi m</w>
un able</w>
u te</w>
trajec tory</w>
tradi tions</w>
to wer</w>
titu des</w>
ti ps</w>
t y-
t ap
sub st
struc tural</w>
sta ying</w>
sp in</w>
smo oth</w>
shi pping</w>
sen ior</w>
s sions</w>
s or</w>
rub ber</w>
ri vers</w>
restri c
rema ining</w>
re st
re ha
re actions</w>
qu alities</w>
prof oundly</w>
pri de</w>
pl ed</w>
pic k
physici sts</w>
pe er</w>
ow nership</w>
occur s</w>
mo ld</w>
liber al</w>
le ep</w>
k es
j ell
inve sting</w>
interpre tation</w>
inst ant</w>
initi ally</w>
inclu ded</w>
impro ved</w>
ici an</w>
hun ting</w>
gu ess
go ds</w>
gla morous</w>
gg ers</w>
fr action</w>
fo ods</w>
extin ction</w>
en ables</w>
ed a</w>
disp os
di ble</w>
der i
deman ds</w>
dec ep
de serve</w>
d entally</w>
curr ency</w>
coun ting</w>
chi ps</w>
chan ces</w>
by e</w>
bi an</w>
bene ath</w>
be sides</w>
b oss</w>
anthro po
accep table</w>
T y
St ar
Ph il
Mini ster</w>
G over
D ut
D ad</w>
Christi an</w>
B r
B M</w>
win ds</w>
we t
tw e
tra sh</w>
tis su
tic ity</w>
ten ing</w>
ten dency</w>
t sun
survi ved</w>
sub stance</w>
sou p</w>
so le
sh it</w>
ser ver</w>
secre ts</w>
scen ario</w>
regre t</w>
real -
re cep
r ul
prin ts</w>
prin ter</w>
prece den
pre serve</w>
por tion</w>
peop les</w>
p ir
p hi
our ing</w>
od ds</w>
ob serve</w>
o de</w>
ni ghts</w>
ner ve</w>
musici an</w>
mis sion
mar gin
li hood</w>
k el
ju mped</w>
influ enced</w>
incen tive</w>
in k
i lities</w>
hypo thesis</w>
home work</w>
h ol</w>
h ers</w>
g aps</w>
foot age</w>
flo wing</w>
fin ger
fi res</w>
fac ilities</w>
establi shed</w>
err ors</w>
en han
dr one</w>
disp la
deta iled</w>
de sc
d ged</w>
cros s-
conduc ted</w>
compas sionate</w>
comm ents</w>
b and
assu mption</w>
appro aches</w>
an ni
an ia</w>
ama z
ad ays</w>
W in
T er
S aud
Ph .D.</w>
M other</w>
Le on
K B</w>
I .
Hom o</w>
Gir l</w>
G ore</w>
G ates</w>
E ric</w>
B en</w>
A m</w>
&apos; clock</w>
y fish</w>
wor ms</w>
wo ke</w>
wit ness</w>
wild life</w>
weal thy</w>
ver s
v as
un preceden
um b</w>
to w
ti se</w>
ta ining</w>
subst anti
ster ed</w>
ste al</w>
st ag
simul taneously</w>
signific antly</w>
sens or</w>
se -
s p</w>
reduc ing</w>
r ush</w>
qu een</w>
pur poses</w>
pi gs</w>
pande mic</w>
p -
or a</w>
opti mism</w>
nutri ents</w>
ne at</w>
mo od</w>
mind set</w>
mi ddle-
ly n</w>
lo ads</w>
k ens</w>
intri gu
inst antly</w>
insi ghts</w>
ins ect</w>
impro ving</w>
histor ic</w>
h op</w>
grand parents</w>
gener ating</w>
gene tically</w>
gather ed</w>
frustr ated</w>
fol ding</w>
ferti liz
fac tories</w>
ex ception</w>
entreprene ur</w>
ent ro
engin es</w>
ear ning</w>
di le
di al</w>
detec tion</w>
curricul um</w>
controver si
conser vative</w>
compar ison</w>
clo thing</w>
classi cal</w>
chan nels</w>
ca p</w>
c ky</w>
bur ned</w>
bu g</w>
bom bs</w>
anony mous</w>
an no
aggre ssive</w>
ab y
a de
Z e
Wh atever</w>
U S
Tali ban</w>
T ru
T es
S ir</w>
S he
S am
S al
Nor thern</w>
Car ol
C ri
Bron x</w>
A M</w>
5 0s</w>
z e
ver sions</w>
v ice</w>
unpreceden ted</w>
ul ated</w>
u bi
tri cal</w>
threat ened</w>
th r
suppor ting</w>
sub way</w>
strate gic</w>
soci ally</w>
sacrif ice</w>
restaur ants</w>
rema ined</w>
re am</w>
perform ed</w>
pan el</w>
ou ter</w>
or us</w>
or b
om ics</w>
obstac les</w>
nu ts</w>
men ting</w>
medi cation</w>
li ament</w>
kill s</w>
jud gment</w>
journ alists</w>
iz es</w>
ir ing</w>
inno cent</w>
heal thier</w>
hall uc
got ta</w>
go d</w>
gi e</w>
gentle man</w>
g mented</w>
exten sion</w>
expla ins</w>
exper tise</w>
eg g</w>
dre ssed</w>
di am
dec re
d al</w>
cr it
cour ses</w>
connec ts</w>
con temporary</w>
comm and</w>
civi c</w>
che ese</w>
categ ories</w>
bran ch</w>
br a</w>
bot tles</w>
bal an
ari ans</w>
are t
analo gy</w>
an gu
adv enture</w>
ad mi
accoun ts</w>
T om
Sahar an</w>
S om
Re search</w>
Ho ward</w>
E con
D s</w>
C our
B el
Alex ander</w>
3 0-
19 60</w>
- making</w>
vi al</w>
ur ban
un cle</w>
tra ins</w>
the ast</w>
te en</w>
tar ge
ta tional</w>
stra ight
stere ot
st ones</w>
st ability</w>
sp an</w>
some day</w>
smar t
sal t</w>
reason able</w>
re se
re minds</w>
pi e</w>
p on
p al</w>
ordin arily</w>
nu mer
non profit</w>
mi a</w>
legi timate</w>
inten sive</w>
har m
gi ble</w>
ge st
ga ined</w>
g on</w>
fe males</w>
faste st</w>
ex ha
dra wings</w>
disco vering</w>
dis gu
di a</w>
demo graphic</w>
deli very</w>
dec k</w>
d rones</w>
cos mic</w>
contra dic
compe te</w>
comm un
coll ec
co at</w>
class rooms</w>
c and
b os
air planes</w>
adap ted</w>
a .m.</w>
Vietna m</w>
V ic
Su per
Squ are</w>
Sou thern</w>
Saud i</w>
S pain</w>
RI S
O k
Mar ch</w>
L ou
Coun cil</w>
B oth</w>
Al though</w>
20 11</w>
. A.</w>
zero- sum</w>
wi d
v in
un -
tu bes</w>
su ck</w>
scan ner</w>
ritu als</w>
pos t
poe ms</w>
passen ger</w>
pa use</w>
ograp hy</w>
offic er</w>
occa sionally</w>
mot or
mi x
me ta
matri x</w>
lo ves</w>
li sts</w>
li f
le an
lab s</w>
l en</w>
ite ment</w>
is lands</w>
inev it
hom eless</w>
ha bits</w>
gun s</w>
gener ous</w>
gar bage</w>
g as
f ears</w>
explosi on</w>
excell ent</w>
exc itement</w>
entro py</w>
en e</w>
e aten</w>
distri ct</w>
distinc t</w>
dec or
d ung</w>
d ose</w>
corpor ations</w>
continu ing</w>
concer t</w>
col or
co lored</w>
clos est</w>
cl ay</w>
circu its</w>
cig aret
ci ally</w>
cat ching</w>
can opy</w>
camp s</w>
bul b</w>
bu rea
bra tion</w>
bi e</w>
believ es</w>
b end</w>
astoni shing</w>
angi ogen
ang ered</w>
alco hol</w>
al tru
air port</w>
ag ents</w>
ade qu
ab and
Wh ereas</w>
Span ish</w>
Secon dly</w>
R ea
Pe ace</w>
NG Os</w>
Mi ke</w>
L ist
Indi ans</w>
G and
E du
20 0,000</w>
195 0s</w>
yi eld</w>
wi res</w>
ves sel</w>
vege tables</w>
vag ina</w>
tra its</w>
tra gic</w>
ton gue</w>
to es</w>
tissu es</w>
tic ket</w>
ti er</w>
th umb</w>
terri bly</w>
stri ke</w>
spea ks</w>
six -
sig nature</w>
sh er</w>
sh -
s per
robo tics</w>
reco ver</w>
real istic</w>
qu ad
prop ag
proce d
predic tion</w>
pot ent</w>
portra it</w>
phenomen a</w>
peace ful</w>
pas sive</w>
para do
pack age</w>
ot echnology</w>
ort al</w>
on going</w>
nec k</w>
near by</w>
ne o
na tion
monit oring</w>
me ga
mag nific
m and
lux ury</w>
lo ws</w>
lo ving</w>
lin ing</w>
lic it</w>
lea p</w>
la mp</w>
ite ms</w>
invest ors</w>
impre ssive</w>
impre ssion</w>
house hold</w>
hon ey</w>
hea vi
gradu ated</w>
ge ar</w>
far ms</w>
f ing</w>
f ancy</w>
encoura ged</w>
ec ological</w>
earli est</w>
devi l</w>
cu ts</w>
cop ic</w>
contin ents</w>
con temp
compu tation</w>
come dy</w>
collap sed</w>
c tica</w>
bur gh</w>
bur den</w>
bo ats</w>
bath room</w>
arre sted</w>
appro aching</w>
appear ance</w>
ap plying</w>
ap or
ant a</w>
am ate
adole sc
achiev ement</w>
X- ray</w>
W atch</w>
T echnology</w>
Sh ang
Sa me</w>
O ff
Mo ore</w>
M ur
Lo ve</w>
Indu stri
Dut ch</w>
Del hi</w>
D evel
D es
C he
Bro ok
Antar ctica</w>
20 12</w>
whe els</w>
une mp
un t</w>
tsun ami</w>
tim acy</w>
teen ager</w>
syn chron
see mingly</w>
sau ce</w>
s ink</w>
religi ons</w>
re placed</w>
psycho logist</w>
pro ven</w>
pro pose</w>
prison ers</w>
preci ous</w>
pre scrip
philosop her</w>
phan tom</w>
percei ved</w>
pe de
pede stri
oper a</w>
ne ys</w>
navi gate</w>
min es
man agers</w>
mam mo
mach in
m apping</w>
landsc apes</w>
k in</w>
jell yfish</w>
it er</w>
it age</w>
is ing</w>
inter viewed</w>
imp ul
im mer
im ed</w>
hal f
gard less</w>
g ating</w>
g a</w>
fun g
free ly</w>
for got</w>
eth nic</w>
esti mates</w>
es thetic</w>
ema ils</w>
el son</w>
e sia</w>
dis rup
diagnos is</w>
di um</w>
di scri
de sh</w>
cro p</w>
cot ton</w>
comb at</w>
bran ches</w>
be ating</w>
b adly</w>
aud it
at ers</w>
at ar</w>
alterna tives</w>
aff ecting</w>
addic tion</w>
a ster</w>
a c</w>
U p</w>
T anz
Sun day</w>
Shang hai</w>
R B</w>
Qu een</w>
K ev
Ital ian</w>
In don
F BI</w>
De sign</w>
C D</w>
Be ing</w>
B ol
A ge</w>
A bra
20 50</w>
y ourselves</w>
work force</w>
we i
wand ering</w>
ur able</w>
ubi quit
trans forming</w>
tr ace</w>
tr a</w>
ti me-
te l</w>
t less</w>
su mm
su its</w>
straight forward</w>
ste pped</w>
st ly</w>
speci alized</w>
sm alle
smalle st</w>
sel fish</w>
sa fer</w>
s ma
rou s</w>
respon ses</w>
resi dents</w>
re solve</w>
rati o</w>
r ape</w>
propor tion</w>
proced ure</w>
previ ously</w>
pos ted</w>
po ckets</w>
pe ts</w>
pass word</w>
par ks</w>
pa d</w>
off ices</w>
off ering</w>
obe se</w>
mo bility</w>
mar ry</w>
ma inst
le ment</w>
kni fe</w>
i ms</w>
human -
ho ok</w>
high way</w>
hi ding</w>
helicop ter</w>
h at</w>
fla gs</w>
fir st-
fi bers</w>
fall en</w>
ent y-
end angered</w>
en tation</w>
eleg ant</w>
dr ome</w>
dist ances</w>
dis ability</w>
di vor
dest iny</w>
decre ase</w>
dam n</w>
d ential</w>
custom er</w>
cre w</w>
con tain
com preh
coll ectively</w>
chimpanz ee</w>
challen ged</w>
campa ig
c us</w>
bo red</w>
blo wing</w>
bio logist</w>
b at</w>
at tle</w>
assign ment</w>
assi stance</w>
appro ved</w>
annu al</w>
administ ration</w>
activ ate</w>
ab s
a is
Un til</w>
U S</w>
S en
R ay</w>
Ne ander
N elson</w>
Mo z
Lit tle</w>
Leon ardo</w>
John son</w>
J ack</w>
Gr and</w>
F re
Devel op
D uring</w>
Col le
3 7</w>
200 2</w>
2 4
y al</w>
whe at</w>
ubiquit ous</w>
tro ops</w>
th west</w>
teen age</w>
succe eded</w>
stor age</w>
stopp ing</w>
slu ms</w>
si zes</w>
sen sation</w>
scr atch</w>
sci ences</w>
schizophren ia</w>
scan ning</w>
s enti
reti rement</w>
resear cher</w>
ra tions</w>
r i</w>
p iz
p it</w>
p ene
p ants</w>
p acked</w>
neu tral</w>
na tive</w>
mos quit
miser able</w>
mi gration</w>
mem es</w>
mathema ticians</w>
mat ure</w>
ma yor</w>
m one</w>
lo com
lo an</w>
ligh t
kee pers</w>
j et</w>
in fl
imp lan
igno red</w>
hor mone</w>
high- tech</w>
hi red</w>
hi p</w>
hemi sphere</w>
har dest</w>
guaran tee</w>
gen ous</w>
f in</w>
f ea
est ate</w>
es tiv
en ni
en cryp
empo wered</w>
ec ology</w>
dy s
dro ps</w>
dop amine</w>
domin ated</w>
differ enti
dic t
desper ately</w>
desp air</w>
defin ing</w>
dd enly</w>
d les</w>
colum n</w>
col n</w>
co operate</w>
co ca
co ast
cli ent</w>
cla ims</w>
ca ves</w>
buil ds</w>
break fast</w>
bre eding</w>
bom b
blo wn</w>
b ats</w>
audi ences</w>
an ic</w>
al ga
a er
V -
S anta</w>
Po int</w>
M y
Lin coln</w>
L oo
Kor an</w>
Ju ly</w>
J ac
Hen ry</w>
F ord</w>
F er
Ex cept</w>
E mp
E .
D ou
Bri an</w>
Ari st
A cade
20 -
woo ds</w>
win d
we dding</w>
vot ing</w>
un happy</w>
trans mission</w>
ti fication</w>
th or
territ ory</w>
terri fying</w>
ter rain</w>
ter ly</w>
sli me</w>
sil ver</w>
short -
scen es</w>
safe ly</w>
s ins</w>
reg ard</w>
re actor</w>
rain forest</w>
ra il
r ose</w>
puzz les</w>
pur suit</w>
pu p
profes sion</w>
pro jec
over night</w>
ot ted</w>
oo h</w>
off -
ob served</w>
motiv ated</w>
manipul ate</w>
loc ally</w>
lo cations</w>
liter acy</w>
l an</w>
k ingdom</w>
ja zz</w>
inter ior</w>
ing er</w>
imagin ing</w>
horiz on</w>
gh ted</w>
ff s</w>
equ ations</w>
encoura ging</w>
em bo
electr on</w>
don or</w>
descri bes</w>
deci sion
correc tly</w>
conveni ent</w>
contr ary</w>
continu ous</w>
constra ints</w>
connec tivity</w>
concer ns</w>
concentr ated</w>
coca ine</w>
co inci
clin ics</w>
cl ue</w>
ca s</w>
att acked</w>
astero id</w>
argu ing</w>
an ten
an i</w>
ad vo
ac tively</w>
abs ence</w>
Yor ker</w>
Su ddenly</w>
St .</w>
S ure</w>
S il
M ac
L .A.</w>
I ts</w>
Fri day</w>
F ar
D V
Braz i
Bang la
Arist ot
Any one</w>
Any body</w>
4 0,000</w>
we stern</w>
w ound</w>
volunte er</w>
ver -
val ley</w>
t esti
susta in</w>
surr ounding</w>
stret ch</w>
sta ys</w>
sp ill</w>
sec tions</w>
s wal
ro pe</w>
reli ef</w>
refl ection</w>
recycl ing</w>
re produce</w>
r ating</w>
psychi at
prosper ity</w>
pro ved</w>
preven tion</w>
prepar ing</w>
po int
pal m</w>
p el
ou gh
orchestr a</w>
off ers</w>
newsp apers</w>
mot ors</w>
min ating</w>
mi ze</w>
mb ur
market place</w>
mainst ream</w>
m ill</w>
lo west</w>
list ened</w>
limit ations</w>
legi s
la bel</w>
l ling</w>
kin son</w>
infec tions</w>
inevit ably</w>
horiz on
hor mon
honest ly</w>
hear t
head lines</w>
gra vit
gr ounds</w>
gh et
gg ling</w>
geome try</w>
form ula</w>
fl ouri
fail ures</w>
f ate</w>
ey n
extra ordinarily</w>
expos ure</w>
ex ag
ent -
electro des</w>
econom ist</w>
du mb</w>
dro pping</w>
dou bled</w>
di vision</w>
d run
cy lin
contribu ted</w>
consu med</w>
con ge
con fir
car ed</w>
calc ulations</w>
cal ories</w>
burea uc
bul bs</w>
bl ank</w>
bi ol
bed room</w>
be aten</w>
barri er</w>
b uc
b ands</w>
b ably</w>
auth enti
asse ts</w>
an esthe
al titude</w>
advan ces</w>
a- half</w>
Ze al
Wa it</w>
U N
Tal ks</w>
T ha
Su pp
Si licon</w>
S top</w>
S tage</w>
S pr
Mand ela</w>
Le ban
La b</w>
Industri al</w>
Don ald</w>
Colle ge</w>
Ch urch</w>
Carol ina</w>
B run
Au gust</w>
20 s</w>
199 8</w>
196 0s</w>
y e</w>
work place</w>
war ri
wa i
v is</w>
tro pical</w>
tri vial</w>
tr action</w>
toil ets</w>
tiv eness</w>
therap ies</w>
terri fied</w>
super market</w>
sub ur
str ings</w>
story telling</w>
sp ra
sho e</w>
sel ected</w>
sa ke</w>
rol led</w>
resc u
physici ans</w>
phosph orus</w>
ou tw
on a</w>
no des</w>
me tric</w>
mat ing</w>
man ager</w>
lea ther</w>
lar ge-
lan es</w>
kin dness</w>
ju ven
inven ting</w>
instal lation</w>
inst alled</w>
initi ative</w>
ic e
human itarian</w>
home town</w>
hea ding</w>
hea d-
he al</w>
he a</w>
half way</w>
guil ty</w>
gra des</w>
gr u
gli mp
gl uc
gir l
g ur
g am
foun dations</w>
follo ws</w>
fish er
eyn man</w>
emb ry
ec raft</w>
dis abled</w>
di gi
demonstr ated</w>
cri mes</w>
cri cket</w>
conv ey</w>
controversi al</w>
concent ration</w>
con front</w>
communi cating</w>
co ol
co in</w>
cli ff</w>
cell ular</w>
c ence</w>
bu m</w>
believ ing</w>
beauti fully</w>
b ills</w>
athle tes</w>
as s
appro ached</w>
ambi tious</w>
ambi gu
amaz ingly</w>
ama zed</w>
al istic</w>
activi st</w>
a v
T I</w>
S tar</w>
S imp
S P</w>
Pro bably</w>
O ut</w>
M T</w>
L uc
Indon esia</w>
I .</w>
Ha wai
F eynman</w>
D oc
D etro
Brook lyn</w>
B re
Ar chi
Al most</w>
A ir</w>
4 8</w>
2 5
199 0</w>
wor m</w>
vi l</w>
vi an</w>
v enti
tun nel</w>
tou gh
to s</w>
teles copes</w>
te dly</w>
ta xes</w>
syn drome</w>
supp lies</w>
stri king</w>
stre ssed</w>
st ine</w>
ss ment</w>
six th</w>
si r</w>
sh r
sex y</w>
renew able</w>
recei ving</w>
pur ple</w>
puni shment</w>
publi c
psycho logists</w>
pro position</w>
poli tically</w>
person alized</w>
p ills</w>
ou ts</w>
origin s</w>
offici als</w>
ner ves</w>
narra tives</w>
mush room</w>
man ner</w>
magnific ent</w>
ma st
like lihood</w>
lif esp
li fted</w>
kes pe
it y-
it er
is y</w>
inter views</w>
institu tional</w>
in trin
illustr ate</w>
hy bri
gu id
great -
gra sp</w>
gla mour</w>
gest ure</w>
fun ds</w>
fore station</w>
fol ded</w>
fluore scent</w>
expedi tion</w>
enjo ying</w>
ene mies</w>
ele mentary</w>
eigh t-
edu cate</w>
dro w
dist ingu
dee pest</w>
d enti
compe ting</w>
comm it</w>
co ws</w>
co vers</w>
civiliz ations</w>
cienti sts</w>
car ri
can cers</w>
ca sting</w>
ca s
blin dness</w>
biol u
bil li
be half</w>
bacter ial</w>
b ite</w>
b b
asse mble</w>
ans as</w>
ad just</w>
ac ies</w>
ac hu
a eda</w>
a be
Zeal and</w>
Willi am</w>
Sy stem</w>
Some one</w>
Sha kespe
Sec urity</w>
S wit
S wis
S el
Q aeda</w>
Por tu
La ke</w>
H op
H ong</w>
Gover n
Co ke</w>
C ur
Budd hi
B A</w>
A sian</w>
3 6</w>
y n
wor rying</w>
wor e</w>
wh is
wa ge</w>
ver bal</w>
vari ations</w>
tri gger</w>
ter ey</w>
techn ically</w>
ta ges</w>
star ing</w>
spin ning</w>
sper m</w>
sc al
san itation</w>
requ est</w>
reci pe</w>
re gardless</w>
pros tate</w>
piz za</w>
pic ks</w>
pharmaceu tical</w>
ph en</w>
part nership</w>
par achu
p ill</w>
over head</w>
opini ons</w>
ol ine</w>
mos qui
mo bi
minim um</w>
mi sts</w>
ma ke
lon ely</w>
lea f</w>
lap tops</w>
jus ti
jo y
interpre t</w>
inter rup
inte gration</w>
indi genous</w>
in duc
hu mili
hon y</w>
histor ically</w>
hier archy</w>
heal ing</w>
gra ve</w>
gluc ose</w>
gl ue</w>
gen esis</w>
fre sh
fre a
fil mma
fi es</w>
expres sions</w>
ex am
eni x</w>
doub le-
dis per
dig it</w>
di stor
devast ating</w>
def end</w>
de struc
de als</w>
d os
cy clo
cur ves</w>
char ged</w>
cere mony</w>
can v
c us
bus es</w>
bo ar
biolu mines
bin ary</w>
ban king</w>
b ad
appro xim
an at
alga e</w>
activi sts</w>
ac knowledge</w>
V ol
So cial</w>
S till</w>
No vember</w>
Mon terey</w>
Mo on</w>
Medi a</w>
L ord</w>
L A</w>
Kev in</w>
K in
J H</w>
I cel
Hi gh</w>
H all</w>
F o
El ec
Ber lin</w>
Ben j
B il
Acade my</w>
3 1</w>
19 0
z ones</w>
z i
wid th</w>
web sites</w>
ven s</w>
up side</w>
u ps</w>
ty pe
tun ed</w>
top ics</w>
susp ended</w>
suffici ent</w>
sti g
st es</w>
st ack</w>
simp ler</w>
si der</w>
si ans</w>
scho ol
s ni
s ale</w>
reve aled</w>
respon ded</w>
rec k
read ers</w>
re serves</w>
re land</w>
random ly</w>
publi shing</w>
prom ised</w>
pre su
pr osp
plas tics</w>
plan etary</w>
pi pe</w>
pe ers</w>
p is
p ap
on er</w>
om ing</w>
occurr ing</w>
nit rogen</w>
na sty</w>
mosqui to</w>
mess y</w>
me als</w>
ma sses</w>
loy ment</w>
lin gu
li p
legis lation</w>
le an</w>
large- scale</w>
la y
l y-
jour nal</w>
ite m</w>
invol ve</w>
inten sity</w>
in dependence</w>
i el</w>
i ans</w>
gro cer
gi a</w>
gen omes</w>
fundam ent
fol ds</w>
fish eries</w>
fac tion</w>
ex pressed</w>
evol ving</w>
enz y
enjo yed</w>
en vel
en s
en for
emp i
electr ons</w>
electr om
down town</w>
docu mented</w>
dia c</w>
d ough</w>
cul tiv
cor ners</w>
conduc tor</w>
com ic</w>
bo o</w>
belon gs</w>
bel ly</w>
be a
bat teries</w>
barri ers</w>
b i</w>
b am
as leep</w>
ar i</w>
ar -
app y</w>
ali g
ac id</w>
Th rough</w>
Tanz ania</w>
Swis s</w>
Su d
Ste phen</w>
So ci
Sing ap
Ra ther</w>
M ach
List en</w>
Israel i</w>
I sa
Hal f</w>
For ce</w>
Cour t</w>
Col um
Co ast</w>
Cl int
Chi le</w>
C er
B ea
A pri
5 5</w>
4 7</w>
1 1
zer land</w>
worl d-
woo den</w>
win ner</w>
wi shes</w>
w rap</w>
vi sions</w>
ver theless</w>
vacc ines</w>
v enture</w>
tiz ation</w>
th us</w>
temper atures</w>
t s
str ands</w>
st abi
sp her
smil ing</w>
sm u
skele tal</w>
simp lest</w>
sen ds</w>
self- interest</w>
ro les</w>
righ t-hand</w>
remark ably</w>
reg ularly</w>
re stor
pro ph
privile ged</w>
pri or</w>
predat ors</w>
opp er</w>
ol en</w>
occu p
na mely</w>
min us</w>
mi st</w>
measu rements</w>
mar ath
ma xim
ligh t-
lan ding</w>
labe led</w>
k ton</w>
k -
j ac
ir ony</w>
introduc tion</w>
in e
immen se</w>
ill a</w>
hop es</w>
happ ily</w>
h acking</w>
gr as</w>
glaci er</w>
fl uc
ess ors</w>
el abor
dra g</w>
disagre e</w>
dile mma</w>
dia meter</w>
destro ying</w>
den ial</w>
decision -making</w>
cont ex
comprom ise</w>
cock ro
co oper
co her
calcul ated</w>
cal m</w>
ca the
bur st</w>
bot tom
bla h</w>
bam boo</w>
awk ward</w>
automo bile</w>
at titudes</w>
ar bit
anticip ate</w>
amp li
ali an</w>
agree ment</w>
aband oned</w>
a stro
a qu
Wat son</w>
Tas man
T .</w>
Swit zerland</w>
Shakespe are</w>
R es
P as
Me an
I reland</w>
I BM</w>
Har ry</w>
Ge ographic</w>
D ra
Clint on</w>
C as
Brun o</w>
Bro wn</w>
Bangla desh</w>
B us
B ru
B ot
B lack</w>
Apri l</w>
A my</w>
8 ,000</w>
1 3
w ling</w>
visu alization</w>
uni qu
trans mit</w>
tr apped</w>
ther mal</w>
th- century</w>
th ur</w>
t z</w>
t ear</w>
sub- Saharan</w>
sub mer
sing le-
signific ance</w>
she er</w>
s .</w>
reha bil
recomm end</w>
realiz ation</w>
re tin
re think</w>
re gar
pri ority</w>
pres su
por ts</w>
p ouring</w>
p our</w>
ori um</w>
observ ations</w>
ob li
now adays</w>
nor ms</w>
mu tations</w>
mu d</w>
mom en
mi mic</w>
mel t</w>
medic ines</w>
maxim um</w>
mat ched</w>
man ual</w>
machin ery</w>
kis s</w>
ji had</w>
it ating</w>
it an</w>
ir y</w>
insul in</w>
ins ane</w>
inju ries</w>
in ser
in hi
hormon es</w>
har mony</w>
hand -
ge o
g han</w>
fi red</w>
favor ites</w>
f ence</w>
exc use</w>
embarra ssing</w>
electrom ag
e ks</w>
dep loyed</w>
deli cious</w>
de pos
de fic
cu t
cros sed</w>
cr acies</w>
coun ter</w>
cop ies</w>
contribu tion</w>
con fig
comp ounds</w>
co verage</w>
clu sters</w>
clu bs</w>
che mo
car t</w>
be ll</w>
as th
an e
adequ ate</w>
ad dy</w>
accur acy</w>
ac knowle
abund ance</w>
a im</w>
a esthetic</w>
Z ero</w>
V e
SE TI</w>
P ra
Organ ization</w>
O pen</w>
Mic hel
L G</w>
Inter est
E M</w>
Ch o
Brazi lian</w>
Benj amin</w>
B or
B ell</w>
B .</w>
Aristot le</w>
Ar thur</w>
Af ghan</w>
A p
A B</w>
199 9</w>
y le</w>
y ards</w>
x -
wr apped</w>
we l</w>
vot ed</w>
visu alize</w>
v ine</w>
us eless</w>
underst ands</w>
trau ma</w>
tou ching</w>
ti ble</w>
text books</w>
tex ture</w>
teach es</w>
syn ap
sy l
sugge stion</w>
su spec
stri p</w>
story t
stea m</w>
sh at
sec tors</w>
ri ding</w>
respon ding</w>
resi st</w>
rela tives</w>
refl ected</w>
recycl ed</w>
rec ur
re alities</w>
prof essors</w>
pre y</w>
pr ay</w>
po ison</w>
plan ted</w>
plan ned</w>
phenomen al</w>
ph a</w>
pen cil</w>
pan ic</w>
overwhel ming</w>
over -
op o
ol ly</w>
near est</w>
n ity</w>
momen tum</w>
metabo li
man kind</w>
lon ge
l i</w>
k ins</w>
ju ice</w>
inten tion</w>
integr ate</w>
int act</w>
in ary</w>
ici ans</w>
i shing</w>
i di
hor ses</w>
h ated</w>
gu ard</w>
graph s</w>
glimp se</w>
ger ies</w>
frigh tening</w>
frequ ently</w>
free zing</w>
fluc tu
fl ash</w>
fin dings</w>
fi cations</w>
ff ic
f on
expan ded</w>
en try</w>
en -
do or
dea f</w>
cre am</w>
cra p</w>
continu ously</w>
consu ming</w>
conduc t</w>
compu tational</w>
com ics</w>
coast al</w>
clu ster</w>
cat tle</w>
candi date</w>
bri dges</w>
break through</w>
be an</w>
barre l</w>
authenti c</w>
attrac ted</w>
al a</w>
activ ated</w>
accompli shed</w>
W ol
Tur ns</w>
T ony</w>
Syri a</w>
Singap ore</w>
R oc
P ho
Olymp ic</w>
Ne ws</w>
La dies</w>
K ids</w>
G l
Fran k
Detro it</w>
D E
Can adi
Abra ham</w>
7 2</w>
4 2</w>
4 0
20 30</w>
wor th
w rest
ver e
tri ps</w>
transforma tive</w>
trans it</w>
tra ding</w>
thri lled</w>
ther lands</w>
theore tical</w>
tal e</w>
swit ched</w>
stre ams</w>
stom ach</w>
st olen</w>
spac ecraft</w>
sp ati
so vere
sk illed</w>
separ ation</w>
s wee
ro t</w>
rit ual</w>
rec all</w>
re wards</w>
re d-
re aches</w>
public ly</w>
prototyp es</w>
propos al</w>
progra mmers</w>
process or</w>
pro li
pri ori
predat or</w>
pos se
pl ates</w>
pengu in</w>
pene tr
pat ents</w>
pas ses</w>
part ner
p ecu
os ex
opp ed</w>
o o</w>
mu tation</w>
ment or</w>
m o</w>
lo g</w>
live stock</w>
laugh ed</w>
l o</w>
kid ding</w>
kel ey</w>
jo int</w>
je wel
indi cate</w>
inci dent</w>
hor ror</w>
hi p
heavi ly</w>
h ob
ga ins</w>
fa i
ex ceptions</w>
ev apor
est er</w>
ep is
el ds</w>
e ing</w>
do od
distinc tion</w>
discus sions</w>
disa sters</w>
determin es</w>
descri bing</w>
demo cra
decep tion</w>
cru el</w>
coun tr
cou ples</w>
conta ined</w>
con sen
compar ing</w>
co oling</w>
climb ed</w>
chimp s</w>
cha mber</w>
ca ge</w>
broad er</w>
br is</w>
bo ther</w>
bo ots</w>
ber ry</w>
back yard</w>
auth ors</w>
att ach</w>
ans wering</w>
analy zed</w>
air s</w>
acqui red</w>
ac ou
U C
Tit an</w>
Th ir
T K</w>
Ste ven</w>
Si mil
Sec re
S ta
S even</w>
S an
Pre tty</w>
P E
Nig erian</w>
N et
Me dic
M en</w>
Le go</w>
K u
K os
K ong</w>
Je ws</w>
J ones</w>
J on
Gre ece</w>
Gand hi</w>
Coun ty</w>
Ber keley</w>
Ar my</w>
9 6</w>
20 20</w>
19 80</w>
1 50,000</w>
z zy</w>
x y</w>
wi ves</w>
va e</w>
v ary</w>
us al
usal em</w>
univer ses</w>
um es</w>
u sion</w>
transi st
trans mit
tex ts</w>
sur geries</w>
sur geons</w>
stu res</w>
sta ke</w>
sta ir
st le</w>
sp reads</w>
sp ell</w>
sp a
sk i</w>
shoul ders</w>
sho wer</w>
sho cking</w>
shi fts</w>
sequ encing</w>
sculp tures</w>
scre aming</w>
s lower</w>
respon si
regu lation</w>
re war
re vel
re n</w>
rais es</w>
pul ls</w>
pre scri
pp y</w>
po t</w>
persi st
ow ners</w>
ol d-
no -
neo cortex</w>
mur der</w>
mod eling</w>
memb rane</w>
mathema tician</w>
mas k</w>
mar i
man eu
ma ss
los es</w>
log ging</w>
li ps</w>
it ated</w>
in timate</w>
in o
in formal</w>
im per
id ers</w>
ic onic</w>
ic k
hu a</w>
hos tile</w>
hol ders</w>
heli um</w>
he ating</w>
har bor</w>
hand ful</w>
gradu ates</w>
gor geous</w>
gin ia</w>
gener ates</w>
g ering</w>
fac il
explo it</w>
exhi bit</w>
ex ce
enterpri se</w>
end less</w>
en dea
dru m</w>
discus sing</w>
di arr
demo cracies</w>
dama ged</w>
cylin der</w>
crit eria</w>
cre dible</w>
comp ati
che at</w>
champ i
car ries</w>
can -
boun dary</w>
bo ld</w>
biom ass</w>
b id</w>
argu ed</w>
ar cha
al pha
al arm</w>
ad vi
acceler ating</w>
ab s</w>
Wh o
W ay</w>
Vir ginia</w>
Soci ety</w>
S im
Po wer
P it
O l
Ne therlands</w>
N ick</w>
Mc Donald</w>
Jer usalem</w>
J our
I M
H aw
H C</w>
Demo cr
D .C.</w>
An drew</w>
Ac cording</w>
Ab solu
A h
2 5,000</w>
-of- the-
wel fare</w>
wei gh</w>
w ins</w>
vi sually</w>
ven ess</w>
un conscious</w>
ul ture</w>
u sage</w>
u red</w>
u mp
tow ns</w>
top -
to oth
tion aries</w>
terri fic</w>
t ance</w>
syste matically</w>
stra tions</w>
stic king</w>
sp iders</w>
so oner</w>
shel ves</w>
sexu ally</w>
se al</w>
sc aling</w>
s i</w>
rot ate</w>
ri sky</w>
represen tative</w>
repe ated</w>
recogn izing</w>
re vi
prac tically</w>
po is
pe stici
path ways</w>
p ity</w>
overwhel med</w>
or ds</w>
o y
na ive</w>
mos pher
mon u
mon o
min ority</w>
min g
milli meter</w>
mid st</w>
micro phone</w>
mi xing</w>
mar ch</w>
mani pu
lo ca
kic ked</w>
ju ana</w>
interven tions</w>
int ent</w>
inju red</w>
in struction</w>
il er</w>
i red</w>
horizon tal</w>
hope ful</w>
high light</w>
her itage</w>
gu er
grocer y</w>
girl friend</w>
gi ous</w>
form at</w>
fant asy</w>
exag ger
es cal
er als</w>
equ ity</w>
en ticity</w>
en ligh
en ab
empo wer</w>
econom ically</w>
du le</w>
di ce</w>
der gar
dec lar
da wn</w>
d us</w>
d ors</w>
d are</w>
cru de</w>
cri tically</w>
concentr ate</w>
collabor ate</w>
col i</w>
chron ic</w>
ch ess</w>
ce li
canv as</w>
bloo d
ble w</w>
ban g</w>
b ited</w>
at om</w>
astero ids</w>
art work</w>
apo logi
any on</w>
ali gn
al ong
ai red</w>
achiev ing</w>
acceler ate</w>
ac res</w>
Y oun
Vic tori
Tra de</w>
Scot t</w>
S pi
S ho
R ome</w>
R M</w>
Par kinson</w>
P rin
P T
Olymp ics</w>
New ton</w>
M id
L ED</w>
Ju li
Hi story</w>
H um
G or
Christi ans</w>
Char lie</w>
Ca tho
C li
B at
Arab ia</w>
Ar gent
6 0,000</w>
3 50</w>
19 50</w>
youn gest</w>
witne ssed</w>
who ever</w>
war t</w>
wa ste
voca bul
visit ing</w>
ver b</w>
vas cular</w>
va cation</w>
ut terly</w>
un fortunate</w>
two- thirds</w>
tru sted</w>
transp lan
ti tion</w>
ti stic</w>
ti ght</w>
th an
th al
ta ils</w>
summ it</w>
su ing</w>
stre ss
st eri
sp are</w>
sm ells</w>
sha king</w>
sen sing</w>
sel ect</w>
se als</w>
sc ans</w>
satis faction</w>
san c
sa mp
represen ting</w>
repor ting</w>
rec ession</w>
rac es</w>
ra ins</w>
pun c
pul se</w>
progra mmed</w>
pro test</w>
pro be</w>
princi pal</w>
prepar ation</w>
po w
philanthro py</w>
peri ods</w>
pe tro
p unch</w>
ori ented</w>
or ting</w>
or phan
open ha
om ed</w>
off spring</w>
off s</w>
occa sion</w>
ni e</w>
n ap
mar ked</w>
ma xi
ma sters</w>
m ere</w>
m all</w>
lot tery</w>
locom otion</w>
lo wed</w>
lifesp an</w>
leg ally</w>
le op
kin dergar
kilome ter</w>
kid ney</w>
ket ball</w>
invent or</w>
inter connected</w>
infec tious</w>
inf ant</w>
in dex</w>
il a</w>
ide ology</w>
iP od</w>
ho ly</w>
gu ards</w>
gr at
gall ery</w>
fra mes</w>
flo at</w>
fl at
fi ring</w>
fat al</w>
ex am</w>
estab lish</w>
emo tionally</w>
eli minate</w>
elabor ate</w>
edit or</w>
ec ho
ea stern</w>
e ments</w>
duc k</w>
don ors</w>
docu mentary</w>
dis gust</w>
destruc tive</w>
dest ination</w>
de pic
de forestation</w>
d ity</w>
cu st
cre ator</w>
coun ted</w>
con fer
commer ci
chec k
car pet</w>
car diac</w>
can dy</w>
c es
bur g</w>
bul let</w>
b read
b ol
at ro
at oes</w>
associ ate</w>
ari th
ar es</w>
approxim ately</w>
app s</w>
anni vers
along side</w>
adop t</w>
acqui re</w>
accoun tability</w>
ab u
W on
T im</w>
T en
T eles
T ar
Se attle</w>
S har
R NA</w>
N ep
Mu mb
Moz art</w>
M ill
M ag
L T</w>
Ken ne
J eff
J ane</w>
J A</w>
H osp
H im
H igh
H ear
H an
H A</w>
Green land</w>
F ur
F DA</w>
Egyp tian</w>
Cy rus</w>
Ch ap
Canadi an</w>
B ir
9 8</w>
7 ,000</w>
5 0-
3 8</w>
198 4</w>
1, 500</w>
z er</w>
yl ac
wa sted</w>
w ow</w>
ven ue</w>
vege table</w>
vari able</w>
va tives</w>
univer s
u d</w>
tra ffic
toler ance</w>
tion ality</w>
ti zing</w>
them es</w>
th ood</w>
tal ented</w>
t ine</w>
t elec
sub mit</w>
spher es</w>
smart phone</w>
sli ce</w>
shor ter</w>
se mi
sca ff
s now
s ne
ro ws</w>
ri ses</w>
rescu ed</w>
rel ates</w>
reas oning</w>
re serve</w>
re per
re jected</w>
pros thetic</w>
prison er</w>
prescrip tion</w>
pol ar
pleas ed</w>
plat forms</w>
philosop hical</w>
parado x</w>
pa ste</w>
osy n
or dered</w>
or a
ob sole
o let</w>
o dy</w>
neu tr
net working</w>
ne sses</w>
n ate</w>
multip ly</w>
mosquit os</w>
mi ly</w>
mes h</w>
mel ting</w>
me tic</w>
me me</w>
me ets</w>
man n</w>
m ly</w>
m apped</w>
luc kily</w>
low- cost</w>
longe vity</w>
lo go</w>
lo ans</w>
liz abe
lic it
kindergar ten</w>
ju mping</w>
ir re
investi gate</w>
inter section</w>
ingredi ent</w>
imple mented</w>
imple ment</w>
hon ey
ha med</w>
h en</w>
gu it
gra mma
gl ori
gener ic</w>
gas oline</w>
func tioning</w>
f estiv
f ers</w>
ex ter
ex otic</w>
ev al</w>
er ra</w>
enfor cement</w>
encoun tered</w>
el u
ea se</w>
dro p
deser ves</w>
dec ent</w>
de al
cu ps</w>
coun ts</w>
cor ri
coordin ation</w>
convic ted</w>
conge stion</w>
compos ition</w>
commod ity</w>
co ach</w>
clean ing</w>
chec ked</w>
cha ins</w>
catal y
candi dates</w>
ca mel</w>
ca bles</w>
c on</w>
but ter
bus h</w>
bi ased</w>
bel t</w>
bas ketball</w>
b ath</w>
astron omy</w>
assu med</w>
appe al</w>
all y-
all ing</w>
al bum</w>
adop tion</w>
ad ds</w>
aci ds</w>
ac re</w>
W right</w>
U SA</w>
To gether</w>
Th ere
S am</w>
Palest inian</w>
P ur
Mumb ai</w>
Medi cal</w>
Leban on</w>
K at
Je ff</w>
J us
J ord
Iran ian</w>
In dus</w>
H ur
H ind
E ve</w>
E lizabe
E l</w>
D al
D I</w>
Can cer</w>
C os
C ape</w>
Bus iness</w>
Atlan ta</w>
Al as
Absolu tely</w>
A bed</w>
3 4</w>
19 30s</w>
1 2,000</w>
win ners</w>
w et</w>
vi sc
tur ally</w>
tri ck
transl ator</w>
ti ans</w>
targe ted</w>
tane ous</w>
ta gs</w>
syste matic</w>
stri ct</w>
spe eds</w>
some time</w>
simul ate</w>
sh ining</w>
sea water</w>
rou tin
roof s</w>
ro w
ri chest</w>
reven ues</w>
renew ables</w>
re turns</w>
re forms</w>
ra ge</w>
r ors</w>
qui e
qu is
produc ers</w>
prob able</w>
pri orities</w>
preven ting</w>
practic ing</w>
pr on
portra its</w>
pl ing</w>
pecu liar</w>
pa ys</w>
pa ths</w>
openha gen</w>
op tical</w>
on to
on stage</w>
on ds</w>
ol era</w>
non- zero-sum</w>
negoti ate</w>
my celi
mul tin
mon ia</w>
mil ity</w>
m i</w>
lo ose</w>
li ans</w>
lac ed</w>
la sting</w>
ke -
k yo</w>
invest ments</w>
ing ness</w>
inf er
imp lant</w>
il and</w>
hun t</w>
house holds</w>
hop ed</w>
har d-
habit ats</w>
h s</w>
h ills</w>
gra ins</w>
ght ful</w>
geograp hy</w>
ge stures</w>
ga ining</w>
for -
fla vor</w>
fe eds</w>
far ther</w>
ex quis
et te</w>
eri al</w>
emer gence</w>
drun k</w>
discipl ines</w>
dig ging</w>
diarr hea</w>
di shes</w>
detec ted</w>
desper ate</w>
dep lo
deli vering</w>
de sk
de fault</w>
d ental</w>
cyclo pedia</w>
cro ws</w>
countr y
cooper ative</w>
conver ted</w>
consider ing</w>
consen sus</w>
con qu
compu te</w>
comp ound</w>
colli sion</w>
che ating</w>
carto on
bu ff
bor row</w>
bo wl</w>
bi op
au tistic</w>
ari um</w>
annivers ary</w>
ali ens</w>
ad vis
ad ju
Wh enever</w>
To kyo</w>
There fore</w>
Teles cope</w>
Ta i
T ry</w>
T ran
Sy l
Supp ose</w>
Spr ing</w>
Sar ah</w>
S pe
Red wood</w>
Re public</w>
R ick</w>
R ab
Pho enix</w>
P lan
Off ice</w>
Nor den</w>
Na z
Mon tan
Mo der
Mex ican</w>
Kos ov
Kore an</w>
Ke ep</w>
K o
K ingdom</w>
J F</w>
Hawai i</w>
H or
Dan iel</w>
Com pu
Col om
Catho lic</w>
C openhagen</w>
B M
Ar ound</w>
Afri can-
A lice</w>
5 0
17 th</w>
1 30</w>
z ation</w>
wa shed</w>
vi olet</w>
ver i
v ali
underst and
un ited</w>
ultra violet</w>
tri gg
transpor ted</w>
tra vels</w>
tra p</w>
ti tles</w>
ti a</w>
thin kers</w>
th ic</w>
th and</w>
te mple</w>
ta gged</w>
sur fing</w>
super no
sul fi
stri c
sla ve</w>
sk ir
sal mon</w>
rou tine</w>
rol ls</w>
ro wed</w>
ri gi
regu lations</w>
ref used</w>
ref use</w>
re sur
rac ed</w>
r h
pros titu
prom oting</w>
progre ssion</w>
prof itable</w>
predic ting</w>
pow der</w>
plan ting</w>
pi pes</w>
philosop hers</w>
pen is</w>
paras ite</w>
parachu te</w>
par enting</w>
p ou
p ort
p in</w>
or -
om a</w>
occu py</w>
ob jec
n is</w>
my tho
milli on-
millen nia</w>
mi gra
me tals</w>
mas sively</w>
man aging</w>
mam mal</w>
ma inten
mainten ance</w>
lob by</w>
lo cks</w>
li mbs</w>
lef t-hand</w>
le x
j o</w>
invol ving</w>
investi gation</w>
instinc t</w>
innov ate</w>
inher ently</w>
im migr
i g</w>
hu mility</w>
hu gely</w>
head quarters</w>
hack er</w>
guer ri
gr ant</w>
gard ens</w>
g low</w>
fos ter</w>
femin ist</w>
fa vel
explo red</w>
es day</w>
equ als</w>
ep h</w>
enti ties</w>
enor mously</w>
employ ment</w>
electromag ne
el ess
ec d
dra gon
dir t</w>
dic tionaries</w>
detec tor</w>
deci ding</w>
deci des</w>
de l</w>
de adly</w>
da y-
d un
cu be</w>
cosmo s</w>
cop ied</w>
contribu ting</w>
confron ted</w>
con gre
con doms</w>
com modi
cl ing</w>
chromos ome</w>
chemo therapy</w>
chec ks</w>
chec king</w>
cha sing</w>
car es</w>
cap s</w>
c ke
bo y
bo t</w>
be et
bacter ium</w>
au to
at mospher
arch i
arbit r
ar di
ap i
an i
an ecd
ali ke</w>
al lies</w>
addre ssing</w>
ac compan
a ver
U l
Tu esday</w>
TED Talks</w>
T uni
T ed</w>
Satur day</w>
S us
O .
Moun t</w>
M el
Li br
K er
Jos eph</w>
J up
Icel and</w>
Ha ving</w>
Gen e</w>
F ore
Ever est</w>
E ven
Develop ment</w>
Con sider</w>
Al bert</w>
A G</w>
z ines</w>
wer ment</w>
weigh s</w>
week end</w>
war mer</w>
w a</w>
vocabul ary</w>
vo y
val ence</w>
us cri
un seen</w>
un fair</w>
un ately</w>
tur ers</w>
tre as
ti de</w>
therap ist</w>
ther ed</w>
th ylac
tan gible</w>
t t</w>
t os
t is</w>
symme tries</w>
symme trical</w>
survi vors</w>
surve ys</w>
substanti al</w>
stri kes</w>
stimul ate</w>
sti mulation</w>
st on</w>
squ id</w>
squ ares</w>
speci ally</w>
spati al</w>
sp ray</w>
sp ite</w>
shi fted</w>
she pher
semi -
se duc
scrip ts</w>
scre ening</w>
sche me</w>
ris m</w>
ri cane</w>
revolu tions</w>
respec ted</w>
ren der</w>
regi onal</w>
rec la
r at
pro jection</w>
preci sion</w>
pre me</w>
pil es</w>
pi geon</w>
physi ology</w>
oper ated</w>
op a
occu pi
no isy</w>
metaboli sm</w>
mat ches</w>
man uscri
maga zines</w>
los ses</w>
liter ate</w>
licit ly</w>
liber ty</w>
li zing</w>
li fel
li der</w>
lef t-
kne es</w>
k it</w>
inter net</w>
inter faces</w>
inten tions</w>
inst all</w>
impro vements</w>
human kind</w>
hon ored</w>
halluc inations</w>
grab bed</w>
gr oss</w>
ge able</w>
fro gs</w>
fo ie</w>
fil ters</w>
fil med</w>
far -
fab ri
f ans</w>
ey ed</w>
ex -
er up
enjo y
embarra ssed</w>
emb racing</w>
ed it</w>
ear ned</w>
distur bing</w>
diplom acy</w>
desk top</w>
dem o</w>
defic it</w>
de ad
cr acks</w>
cos t-
consi sts</w>
compati ble</w>
comp lish</w>
colum ns</w>
co ding</w>
co di
co des</w>
co ded</w>
ch olera</w>
cele bration</w>
catastrop hic</w>
car dio
calcul us</w>
ca tes</w>
ca -
bu gs</w>
bra in
br ands</w>
benef icial</w>
be side</w>
be ds</w>
base ment</w>
attemp ts</w>
ap a
angiogen esis</w>
an as</w>
ambi tion</w>
air line</w>
ack et</w>
ac complish</w>
ab sur
ab road</w>
a tives</w>
Ye men</w>
Y u
W ar
Syl via</w>
Simil arly</w>
Si erra</w>
S how</w>
S cr
S A
R en
Ph ot
Pa ul
P ort
P at
O oh</w>
No tice</w>
N in
Mean while</w>
M A
Libr ary</w>
Lar ry</w>
Jup iter</w>
Jos hua</w>
Hosp ital</w>
H ea
H ans</w>
Fort unately</w>
Even tually</w>
Egyp tians</w>
DV D</w>
Con nec
Col a</w>
Cam bo
C old</w>
B ul
5 9</w>
4 .
19 00</w>
wide spread</w>
warri or</w>
virtu e</w>
vi ron
vel o
ve il</w>
up ward</w>
uniqu ely</w>
uni form</w>
ul tural</w>
trans fer
trac es</w>
tim ing</w>
threat ening</w>
tal ents</w>
t ful</w>
swe at</w>
survi ving</w>
surr ound</w>
strugg led</w>
stor ms</w>
sp r
sket ch</w>
si tion</w>
sh ut
sensi tivity</w>
se gment</w>
scre ens</w>
scienti fically</w>
satis fied</w>
s wing</w>
s log
restri al</w>
replac ing</w>
remot ely</w>
reg ulate</w>
refl ective</w>
recon ci
psychiat ric</w>
process ed</w>
proce du
procedu res</w>
pro vo
pri cing</w>
pressu res</w>
pra ying</w>
pi x
perpe tr
peri ph
particip ating</w>
p eline</w>
ori entation</w>
oc top
obsole te</w>
non e
none theless</w>
nic ely</w>
ne gl
n ac
myceli um</w>
mush rooms</w>
mode st</w>
mix ture</w>
min um</w>
micros copic</w>
metabo lic</w>
medi cations</w>
mar vel
man -
lo s</w>
lo be</w>
list ed</w>
li ghter</w>
k er
k ar
jud gments</w>
ju mps</w>
j unk</w>
it -
ir rational</w>
ir onic</w>
integr ity</w>
inf r
indica tes</w>
in timacy</w>
illu sions</w>
ice berg</w>
hom a</w>
help less</w>
ha mbur
gu es</w>
great ly</w>
good ness</w>
gi an</w>
genu ine</w>
g ad
full- time</w>
fru stration</w>
frequ encies</w>
flo ors</w>
fisher men</w>
f lights</w>
f an
et al</w>
ent ary</w>
empo werment</w>
empo wering</w>
empha size</w>
elev ator</w>
e ternal</w>
e fully</w>
dra ws</w>
dra g
disappe ars</w>
desi res</w>
defin i
dec reas
d board</w>
correspon ds</w>
cor rupt</w>
con sent</w>
compla in</w>
com mon
cl arity</w>
chic kens</w>
ch it
care gi
care ers</w>
c coli</w>
brow ser</w>
broad cast</w>
bottom -up</w>
ble ssed</w>
beet les</w>
be ef</w>
be am</w>
batt le
bas eline</w>
balan ced</w>
b ay</w>
avo i
auton omy</w>
auth enticity</w>
ate dly</w>
at ories</w>
as set</w>
arti facts</w>
ap ples</w>
ang el
amb ul
alter ed</w>
alpha bet</w>
al ties</w>
ag nos
ad el
ack er</w>
ac cess
abund ant</w>
absor b</w>
a we</w>
a a</w>
Y el
Wor l
Tha iland</w>
TED Talk</w>
T -
Ste wart</w>
S uch</w>
S now
S O
Republi cans</w>
P ic
P hy
P art</w>
O per
N G</w>
Montan a</w>
Mon day</w>
M ol
Lu ther</w>
Lad en</w>
Kenne dy</w>
Ira q
I ce</w>
Him al
Hear t</w>
Go als</w>
En viron
Dis ney</w>
D R</w>
Coun try</w>
Colum bia</w>
Ci vil</w>
Bl ack
Au stri
As soci
Alas ka</w>
A sh
A K</w>
2 ,
1. 5</w>
y east</w>
wi ped</w>
whist le</w>
well- known</w>
we ir
wat t</w>
wa ited</w>
w rist</w>
w is</w>
w ells</w>
vacc in
us able</w>
un ks</w>
tri angle</w>
tra de-
tr ay</w>
to ol
ti ghtly</w>
there by</w>
th a</w>
tex ting</w>
tan ks</w>
t ably</w>
symbo lic</w>
sur gical</w>
sulfi de</w>
su ed</w>
ste aling</w>
stati stical</w>
stag gering</w>
st ock
squee ze</w>
spac e-
spa ghet
sp ace
so c
slo pe</w>
sle pt</w>
short ly</w>
sexu ality</w>
seven th</w>
set tle</w>
sel ls</w>
se di
schol ar
sal ary</w>
s car</w>
s ang</w>
s ance</w>
s ab
rigi d</w>
replac ement</w>
rela tivity</w>
rehabil itation</w>
refl ects</w>
real- time</w>
re solved</w>
rac ial</w>
ques tion
quali fied</w>
psychi atri
pro jected</w>
pri mates</w>
pos ters</w>
poli tician</w>
plan kton</w>
pi peline</w>
person alities</w>
pen alty</w>
pedestri an</w>
oun ce</w>
ou ting</w>
os c
or g</w>
on ia</w>
occupi ed</w>
o we</w>
o id</w>
nor m</w>
no de</w>
nin e-
n om
multin ational</w>
motiv ate</w>
mo ther
med itation</w>
mari juana</w>
mag ician</w>
ma ster
m are</w>
lon gest</w>
lec tures</w>
lap se</w>
l ately</w>
k ings</w>
journ alism</w>
in depend
impre ssed</w>
il lar
hyper -
he ter
h ut</w>
guaran te
gravit ational</w>
good bye</w>
go o
gl u
gi gan
gen s</w>
g mentation</w>
g ates</w>
fron tier</w>
fossi ls</w>
fle sh</w>
fe ver</w>
fa mously</w>
fa mine</w>
expon entially</w>
ex amine</w>
evalu ate</w>
esp ite</w>
er ec
equi pped</w>
entr ance</w>
enab ling</w>
embo died</w>
du ty</w>
dre amed</w>
dra ma</w>
do g
discri mination</w>
diam onds</w>
del ay</w>
de press
d rought</w>
d ging</w>
coun tless</w>
cou sin</w>
cou ch</w>
cor relation</w>
config uration</w>
condi tioning</w>
con ception</w>
clu es</w>
cli ps</w>
cl oth</w>
cir cul
chromos omes</w>
chap ters</w>
cha se</w>
celebr ity</w>
ce -
cathe dr
car dboard</w>
calc ulation</w>
cal end
ca m</w>
c ue</w>
bul l
bud gets</w>
blo gging</w>
bl ings</w>
bi ases</w>
ber ty</w>
b ond</w>
b ill
author itarian</w>
asth ma</w>
assemb led</w>
as sure</w>
arch ive</w>
app lies</w>
apart ments</w>
ank fully</w>
anim ate</w>
ancest or</w>
alu minum</w>
all er</w>
accep tance</w>
a ge-
Zi mb
W oo
Un der
T ro
St or
Sahar a</w>
S .
R S</w>
Portu gal</w>
P C</w>
O t
Mat t</w>
L ee</w>
L ater</w>
I m
Elizabe th</w>
E S
D espite</w>
C lear
Buddhi st</w>
Bro ad
B as
9 7</w>
8 6</w>
5 8</w>
199 5</w>
199 4</w>
18 th</w>
- F
volun tary</w>
vi able</w>
uri al</w>
tri ump
transc end
tra it</w>
tic k</w>
tic k
th als</w>
ten th</w>
susta ined</w>
summar ize</w>
sub sequ
stereot yp
stea dy</w>
ste pping</w>
stair case</w>
sta dium</w>
st are</w>
spon taneously</w>
spar k</w>
spaghet ti</w>
soc cer</w>
so red</w>
si es</w>
si blings</w>
short- term</w>
sha dows</w>
sett led</w>
secon dary</w>
sa dness</w>
s light</w>
responsi bilities</w>
resili ent</w>
rememb ering</w>
recep tor</w>
re viewed</w>
re turning</w>
re production</w>
re over</w>
re hear
quanti ties</w>
purcha se</w>
protec tive</w>
propag anda</w>
pol l</w>
pol es</w>
play ful</w>
phi a</w>
peri o
pe er-
pe an
pas sage</w>
partner ships</w>
p ac
ot es</w>
obstac le</w>
numer ous</w>
n au
mou ths</w>
mit es</w>
mir rors</w>
min ded</w>
mar row</w>
mar kers</w>
manufac ture</w>
manipu lation</w>
m uni
m in</w>
light ning</w>
li ers</w>
la ying</w>
ke st</w>
jun gle</w>
jo kes</w>
jo ining</w>
it or</w>
ir ri
inven tions</w>
inv itation</w>
inter s</w>
inher ent</w>
in cu
in car
im ing</w>
hybri d</w>
honest y</w>
hi bi
head line</w>
harve sting</w>
h h</w>
h -
gover n</w>
gigan tic</w>
gh ty</w>
frigh tened</w>
fra gments</w>
for give</w>
for cing</w>
fa me</w>
explan ations</w>
eth ic</w>
envel ope</w>
entreprene urial</w>
ell ular</w>
effici ently</w>
ed -
dre aming</w>
disrup tive</w>
displa ys</w>
disap pointed</w>
dis k</w>
dis abilities</w>
diagnos tic</w>
der ness</w>
deep -
crow d
counter -
contain er</w>
consider ation</w>
con fined</w>
collabor ators</w>
cir cular</w>
che ap
character istic</w>
ch e</w>
ch at
ca- Cola</w>
ca bin
but tons</w>
bri um</w>
bon ds</w>
beh old</w>
bee tle</w>
ari se</w>
ar row</w>
appreci ation</w>
anat omy</w>
analy zing</w>
an ity</w>
advo cate</w>
adolesc ence</w>
adel phia</w>
aci ous</w>
accumul ate</w>
a wa
Zimb ab
Y ear</w>
Ven us</w>
V ene
U sing</w>
Si b
Pu bli
Phil adelphia</w>
P ot
Ok la
Neander thals</w>
Na mi
Mil o</w>
Mil ky</w>
M es
Loo king</w>
L au
K ansas</w>
Jeff er
Interest ingly</w>
I mp
Gree ks</w>
Gol den</w>
Dan ny</w>
Co ca-Cola</w>
C O</w>
Be ach</w>
B P</w>
As k</w>
9 .
5 2</w>
20 15</w>
199 7</w>
1. 2</w>
0 0s</w>
- year-olds</w>
z u
will ingness</w>
war e
w ol
vari ables</w>
ur us</w>
ul ating</w>
u tility</w>
tw ist</w>
tw ins</w>
tu p</w>
tru ths</w>
tri cs</w>
tou ches</w>
ti ger</w>
through s</w>
th read</w>
th ic
text book</w>
te st
t ome</w>
t ling</w>
suppor tive</w>
sty les</w>
storyt eller</w>
st oc
spir al</w>
sour cing</w>
sna kes</w>
skep tical</w>
simil arly</w>
sig ning</w>
scr at
sc u
reve als</w>
recogn izes</w>
rec t
re design</w>
rat ings</w>
ques tioning</w>
pu rely</w>
pri mate</w>
presi dential</w>
premi se</w>
pre valence</w>
pre served</w>
persu a
per for
per ceptions</w>
pati ence</w>
pas sions</w>
p an</w>
p a</w>
od or</w>
ob serving</w>
non sense</w>
ni k</w>
ne vertheless</w>
na tion-
n i</w>
mon ster</w>
min erals</w>
migr ate</w>
mi e</w>
men u</w>
mb o</w>
mar ker</w>
mag net</w>
m un
lin king</w>
li brium</w>
le vel
le ases</w>
labor atories</w>
k u
j an
inva sive</w>
introduc ing</w>
individu ally</w>
in spec
impul se</w>
imagin able</w>
ill nesses</w>
ic h
i ties</w>
hy dr
hel met</w>
harm ful</w>
har sh</w>
h ind</w>
h ec
gramma r</w>
go at</w>
gh test</w>
ga tions</w>
frustr ating</w>
fru its</w>
fin ishing</w>
f ense</w>
exha u
exerci ses</w>
equi librium</w>
electromagne tic</w>
edit ors</w>
ec tor</w>
easi est</w>
e ats</w>
docu menting</w>
distribu te</w>
deplo y</w>
dep le
dan cers</w>
d ul
cra shes</w>
controver sy</w>
cont acted</w>
com mission
cock tail</w>
cir c
cho p</w>
centi meter</w>
cal ci
ca us
c ran
bro ccoli</w>
bri be</w>
bre ed</w>
bo ost</w>
bio -
ben ch</w>
ban anas</w>
astronom ers</w>
artic ulate</w>
ar ous
apa gos</w>
analo g</w>
al li
ais sance</w>
aff airs</w>
adap tation</w>
ac cent</w>
a wake</w>
Wi de</w>
W el
T .
St one</w>
Snow den</w>
Po li
Pa ti
P l
Okla homa</w>
O ri
Nor we
Nat ural</w>
N ative</w>
Mach ine</w>
Lib ya</w>
Le wis</w>
L ama</w>
L O
L E
Kosov o</w>
Hun g
Himal ay
H mm</w>
H am
Gal apagos</w>
G an
Free dom</w>
F our
Edu cation</w>
De fense</w>
Cra ig</w>
Com p
Clear ly</w>
C la
C anyon</w>
Budd ha</w>
Be li
Ar du
Ale x</w>
4 3</w>
2. 5</w>
1 5,000</w>
x on</w>
war fare</w>
w rec
w an</w>
valu ed</w>
v ents</w>
up date</w>
under -
und ry</w>
ultra -
ula tive</w>
tw in</w>
tur b
tom ato</w>
to oth</w>
tici sm</w>
temp oral</w>
t ch</w>
t ally</w>
supp orts</w>
sugge s
suc ks</w>
sub jective</w>
streng ths</w>
stig ma</w>
ster dam</w>
stand ardi
squ ared</w>
speci alist</w>
sp rin
sna ke</w>
small -
sla ves</w>
side walk</w>
si licon</w>
si bly</w>
shr ink</w>
shi eld</w>
secon d-
sea food</w>
scre am</w>
righ t-
ri e</w>
resear ching</w>
repe atedly</w>
refriger ator</w>
re ject</w>
re invent</w>
rain forests</w>
pul sion</w>
pu mps</w>
prom ising</w>
prom ises</w>
proli fer
produc er</w>
pro -
pri sons</w>
presen ting</w>
practic ed</w>
pra yer</w>
persu ade</w>
perspec tives</w>
per sons</w>
pe ssi
path way</w>
pat ri
pal e
p .m.</w>
out break</w>
optimi ze</w>
oper ates</w>
op position</w>
op ing</w>
op ar
octop us</w>
obse ssion</w>
nucle us</w>
nu mb
night mare</w>
ne gie</w>
na tionally</w>
n omin
muse ums</w>
mu stac
mor ally</w>
mom s</w>
mil d</w>
metho do
medi ate</w>
mb er
mast ery</w>
marath on</w>
manufac turers</w>
ma id</w>
m ort
lo wing</w>
libr aries</w>
li ath</w>
le ver
le ments</w>
laun ching</w>
lan e</w>
kno ck</w>
kid n
k ened</w>
juven ile</w>
jud ges</w>
j ar</w>
isol ation</w>
intrigu ing</w>
institu te</w>
inst ances</w>
infr ared</w>
in er
imp aired</w>
hur ts</w>
hoo ked</w>
he ated</w>
har ness</w>
ha r</w>
h ance</w>
guit ar</w>
gu lar</w>
grass roots</w>
go d
gall eries</w>
fung i</w>
fu zzy</w>
friend ship</w>
fri ction</w>
foun der</w>
fir ms</w>
figh ters</w>
fi ghts</w>
ff ed</w>
fertiliz er</w>
fail s</w>
explo de</w>
ev o
eth ics</w>
epis ode</w>
enthusi asm</w>
ent able</w>
eng ths</w>
endea vor</w>
en ses</w>
en hance</w>
emer ges</w>
e ver-
e tic</w>
e an</w>
dou bling</w>
dos es</w>
distingu ish</w>
di ves</w>
di se</w>
develop ers</w>
dep ths</w>
den ing</w>
deliber ately</w>
de light</w>
d dy</w>
cros s
cr acked</w>
cop ying</w>
consist ently</w>
connec tome</w>
comm only</w>
col lar</w>
coher ent</w>
chemi st</w>
cha otic</w>
cere br
cerebr al</w>
celebr ated</w>
calcul ating</w>
bu mps</w>
bru tal</w>
break throughs</w>
bon us</w>
blo cked</w>
bio logically</w>
ban ned</w>
b ent</w>
b are</w>
att end</w>
att acking</w>
assu ming</w>
as hamed</w>
arbitr ary</w>
ar ena</w>
ang els</w>
an don</w>
ambul ance</w>
al together</w>
al ore</w>
addre ssed</w>
acou stic</w>
accur ately</w>
acceler ated</w>
ac he</w>
ac commod
a esthe
Zimbab we</w>
Youn g</w>
Worl d
Who a</w>
W K</w>
Tur k
Tasman ian</w>
Ta mi
R A</w>
Pri me</w>
Power Point</w>
Phili pp
P atri
P I
O thers</w>
O E
Ni ke</w>
Ma c</w>
Lou is</w>
L ight</w>
Ke ith</w>
K ur
Jord an</w>
J ill</w>
J C</w>
Hum ans</w>
H und
H ad
Emp ire</w>
E .</w>
Di rec
Den mark</w>
Dar w
Dal ai</w>
D ru
D ic
D ata</w>
Cu ba</w>
Car negie</w>
CE Os</w>
C s</w>
C lar
C amp
C T</w>
C N
C C</w>
Bang alore</w>
B J</w>
Associ ation</w>
Am sterdam</w>
African- American</w>
A i
A T
z ler</w>
yl on</w>
y n</w>
wonder fully</w>
wi shed</w>
vot ers</w>
vo id</w>
vit amin</w>
visit ors</w>
ver te
ve st</w>
v in</w>
ur ship</w>
ur gent</w>
u x</w>
u el</w>
tu rer</w>
tri cky</w>
trau matic</w>
transforma tions</w>
trans mitted</w>
trac ked</w>
tol l</w>
tion ist</w>
th ful</w>
t oss</w>
t arian</w>
su peri
state ments</w>
st ated</w>
st amp</w>
sp ends</w>
slo wed</w>
sli p</w>
sl um</w>
shi pped</w>
shap ing</w>
sh rin
sh ells</w>
ser en
scan ned</w>
sc ope</w>
s sively</w>
s ound
s ands</w>
routin ely</w>
ri g</w>
ri ch
ri bat
ribat i</w>
rhyth ms</w>
revolu tion
retin a</w>
resur rec
relev ance</w>
rela x</w>
reco vered</w>
reci pi
read er</w>
re y</w>
re actors</w>
quie tly</w>
pu t
proto cell</w>
proble matic</w>
poll o</w>
poli ce
po or
phot o
pay ment</w>
part ments</w>
out door</w>
os h</w>
opar dy</w>
on ically</w>
on ica</w>
ob sc
multi verse</w>
mom ent
mit ting</w>
millen ni
mid night</w>
mem orial</w>
li me
li fting</w>
less ness</w>
leop ard</w>
le ans</w>
la dder</w>
k ota</w>
k n
inva sion</w>
interven e</w>
inst or
independ ently</w>
inclu sive</w>
in mates</w>
in habit
imp ri
ima l</w>
il e
identi ties</w>
hu mble</w>
hero in</w>
he l</w>
he i
hat red</w>
ha z
ha ble</w>
h ack</w>
gra titude</w>
govern mental</w>
gent le</w>
gener osity</w>
gener ative</w>
gall on</w>
ga it</w>
g age</w>
ful filling</w>
foun ding</w>
finan cially</w>
fin ite</w>
fi xing</w>
fi er
fe at
expec tation</w>
exp ense</w>
exclu sive</w>
ex cess</w>
ex cep
eth an
ethan ol</w>
ep er</w>
enti ty</w>
en ters</w>
empi ri
el iness</w>
eigh th</w>
e ste
e ma</w>
e f
e Bay</w>
du mp</w>
don ated</w>
disappe aring</w>
direc ted</w>
din burgh</w>
di ge
dev oted</w>
desi r
deri ved</w>
degra ded</w>
declar ed</w>
de bris</w>
dan cer</w>
d ome</w>
d ar</w>
cru shed</w>
crow ded</w>
country side</w>
conveni ence</w>
concep tual</w>
compos ed</w>
compla ining</w>
comm and
cl ari
civi lian</w>
circ ulation</w>
cin ema</w>
ch ur
cen sor
ce ton</w>
catal o
cap tain</w>
ca stle</w>
ca cy</w>
c opper</w>
bloo dy</w>
bl an
bi kes</w>
bas king</w>
b yp
b ury</w>
attribu tes</w>
appreci ated</w>
apologi ze</w>
ap parent</w>
and- a-half</w>
altru ism</w>
al i</w>
al ert</w>
aggre gate</w>
accep ting</w>
a ward</w>
a tively</w>
a j
W ouldn</w>
W ater</w>
Vir gin</w>
Tw enty-
Tes zler</w>
T op</w>
Swe dish</w>
Sim on</w>
S tr
S to
S her
Ro yal</w>
R ou
R ep
R O
R .</w>
Publi c</w>
Prin ceton</w>
Par liament</w>
P os
Mic hi
La gos</w>
L ine</w>
Ki ribati</w>
K -
Jeffer son</w>
H ir
G rou
G ran
G il
E dinburgh</w>
De ath</w>
Cor ps</w>
C up</w>
C amp</w>
Bra d</w>
B ad</w>
Argent ina</w>
A pollo</w>
6 4</w>
5 -
4 0s</w>
3 9</w>
3 00,000</w>
zo o</w>
y ota</w>
world view</w>
work shop</w>
wh ere
we ed</w>
wa vel
vot es</w>
vol umes</w>
viol in</w>
vege tation</w>
vari eties</w>
up right</w>
under graduate</w>
un acceptable</w>
um -
u ke
typ ing</w>
two- dimensional</w>
tu ber
tremend ously</w>
tic kets</w>
thir d-
ten ment</w>
te dness</w>
tail -
t ness</w>
t aller</w>
syn thesis</w>
success es</w>
subsi di
su ms</w>
stun t</w>
stoc ks</w>
statis tically</w>
stand point</w>
spec im
sp ot
sn ap
slo wing</w>
si le</w>
sequ enced</w>
secon dly</w>
scen ari
scenari os</w>
sc aled</w>
sa van
s a</w>
ro ckets</w>
ri des</w>
respon ds</w>
requi rement</w>
ren dered</w>
releas ing</w>
regi stered</w>
re views</w>
re leases</w>
re generate</w>
ran ging</w>
pu berty</w>
pros ecu
prev entable</w>
press es</w>
pregn ancy</w>
pre frontal</w>
poor ly</w>
po ols</w>
plac e
per va
para meters</w>
par liament</w>
p neu
p h</w>
ous y</w>
ot on
or ph
oper ator</w>
ome ter</w>
ob tained</w>
o logically</w>
no tions</w>
nee dles</w>
nee ding</w>
nec tar</w>
n ell</w>
mustac he</w>
mu tual</w>
mon soon</w>
mo du
mirac les</w>
mil it
meaning less</w>
me g
mb le
mathema tically</w>
m ity</w>
m ite</w>
lic k
la sts</w>
la h</w>
k ies</w>
jewel ry</w>
inter n
int end</w>
int angi
infin itely</w>
inf all</w>
induc ed</w>
in- law</w>
in justice</w>
in ject</w>
improvi se</w>
imper ative</w>
ide ological</w>
ic y</w>
hu h</w>
horri fic</w>
ho o</w>
hi ve</w>
her d</w>
hei ghts</w>
happi est</w>
h alls</w>
gra ff
graff iti</w>
gi fts</w>
fo g</w>
flexi bility</w>
fir mly</w>
fin e-
explo ded</w>
exp ose</w>
eradi cation</w>
entreprene urship</w>
emplo y</w>
emp ire</w>
emp ath
educa tors</w>
ed ly</w>
dragon flies</w>
do -
divor ce</w>
distor ted</w>
disp laced</w>
discus sed</w>
disa d
disad van
dis si
diff er</w>
develop ments</w>
demo graphics</w>
deman ding</w>
deli cate</w>
dec om
dec lining</w>
de er</w>
d uration</w>
d son</w>
cul turally</w>
cri ed</w>
cra b</w>
coun sel
convin cing</w>
conven tion</w>
confer ences</w>
con fusion</w>
con ce
comm ands</w>
color ful</w>
coinci dence</w>
cogni tion</w>
citiz en
cigaret te</w>
che f</w>
ch al
celebr ating</w>
categ or
catastrop he</w>
campaig ns</w>
calci um</w>
ca de</w>
c ally</w>
br ate</w>
bi ot
bi osphere</w>
ben ign</w>
be ar
bas ket</w>
band width</w>
b ust</w>
av atar</w>
associ ation</w>
ari b
ar rest</w>
ar a</w>
appropri ately</w>
any time</w>
anxi ous</w>
angel o</w>
amate ur</w>
al ge
addic ted</w>
acu te</w>
accoun table</w>
ab andon</w>
a than</w>
a sha</w>
a a
Vene zu
V il
U sually</w>
To o</w>
Tes la</w>
TED sters</w>
T uring</w>
Sud an</w>
Si x
S put
S in
S B</w>
Rom an</w>
Ri ghts</w>
R over</w>
Q .</w>
Pr ince</w>
Phili p</w>
Par ty</w>
P sy
P ep
OE CD</w>
Nat asha</w>
Moun tain</w>
Mini stry</w>
Michi gan</w>
Michel angelo</w>
Medic ine</w>
Mas sac
M ul
Lib eria</w>
Le one</w>
L yn
L es
L HC</w>
K en</w>
John ny</w>
I M</w>
H old</w>
Goo d
G ri
G rand
Fu nd</w>
F ol
Ex c
Ed ward</w>
E mily</w>
E le
E ither</w>
Do aa</w>
Di ego</w>
Democr ats</w>
De an</w>
Col l
Ci ties</w>
Car l</w>
C I
Bro thers</w>
Be e
Bab bage</w>
B hu
Austr alian</w>
Ar chit
4 4</w>
2 50,000</w>
199 1</w>
1. 3</w>
wi ring</w>
week ends</w>
vo cal</w>
vic tory</w>
vi sion
ven tures</w>
vast ly</w>
van ia</w>
v ince</w>
us san
ussan i</w>
unemp loyed</w>
und ane</w>
un stable</w>
ul ts</w>
ul ties</w>
u a</w>
tw ist
tri bal</w>
tor ture</w>
to wers</w>
to wel</w>
temp tation</w>
tain ly</w>
ta stes</w>
syl vania</w>
sur plus</w>
summar y</w>
sub mitted</w>
struc tured</w>
stic ky</w>
ster ies</w>
st in
spi ke</w>
sp ouse</w>
sp er</w>
sol o</w>
soci etal</w>
so le</w>
slog an</w>
ski p</w>
sing ers</w>
si de-
shepher d</w>
shar es</w>
sha de</w>
sh ers</w>
sel ective</w>
sear ches</w>
se ssions</w>
satis fying</w>
s api
ru ins</w>
rou tes</w>
rob i</w>
ro oted</w>
revol utionary</w>
reper to
regre ts</w>
refer red</w>
reduc es</w>
re treat</w>
re productive</w>
re mix</w>
re fle
re fined</w>
re define</w>
ran ean</w>
ra tion
ra infall</w>
ra il</w>
r ina</w>
pur pos
progra mmer</w>
pre ten
pos ture</w>
play ground</w>
pil ots</w>
pic s</w>
pi c</w>
phot osyn
pe tition</w>
par tis
par ag
org asm</w>
op er</w>
o ids</w>
o bo
notic ing</w>
non- lethal</w>
nes the
mu t
mos que</w>
modi fied</w>
mma d</w>
mini str
min imal</w>
me se</w>
mar t</w>
mal nutrition</w>
main taining</w>
mag ni
m undane</w>
lou der</w>
lo cking</w>
lime stone</w>
lear ns</w>
lea k</w>
las h</w>
la use</w>
la undry</w>
la sted</w>
kno cked</w>
justi fy</w>
j i</w>
j ecting</w>
issu ed</w>
ir atory</w>
inv iting</w>
interrup ted</w>
innov ators</w>
initi atives</w>
ine a</w>
indi rec
incu b
incar cer
in ity</w>
in form</w>
impri son
i robi</w>
hu g</w>
high- speed</w>
ha mmad</w>
ha irs</w>
gos h</w>
glob alized</w>
gg les</w>
geograp hic</w>
g y-
g ically</w>
g eria</w>
g ec
fol k</w>
fo am</w>
filmma ker</w>
fa int</w>
experim enting</w>
execu ted</w>
er gy</w>
end ers</w>
en ey</w>
el ders</w>
el bow</w>
disgu sting</w>
dis on</w>
diag nose</w>
di ous</w>
develop mental</w>
defe at</w>
de alt</w>
cy cli
cut t
cul osis</w>
cou sins</w>
corpor ation</w>
coordin ate</w>
contradic tion</w>
cont ents</w>
constra ined</w>
conclu sions</w>
con spir
con science</w>
comp ul
commodi ties</w>
comm ons</w>
com pressed</w>
com a</w>
cockro ach</w>
co p</w>
co ined</w>
cle ver
civi lians</w>
cigaret tes</w>
cienti st</w>
ch y</w>
ch im
certi fied</w>
certi fi
cen tered</w>
c ali
break down</w>
bra instor
bos on</w>
bomb sight</w>
blo cking</w>
blo ck
bla de</w>
bl ur
be ans</w>
barre ls</w>
ban kers</w>
ax es</w>
att ach
athe ist</w>
at traction</w>
at er
assi stant</w>
as signed</w>
arib bean</w>
ari al</w>
ar range</w>
anno ying</w>
anesthe sia</w>
after ward</w>
admi re</w>
adap tive</w>
ad voca
ad jac
aci ties</w>
absur d</w>
a ire</w>
Y R</w>
Wil son</w>
Ve gas</w>
V s</w>
V an
Un like</w>
Ti bet</w>
Sput nik</w>
Secre tary</w>
Scot land</w>
S up
S tation</w>
S ay</w>
Republi can</w>
Rec ently</w>
Qu ite</w>
Palest ine</w>
O f
Nami bia</w>
Na irobi</w>
NG O</w>
N SA</w>
Mu sic</w>
Mu hammad</w>
Mis s</w>
Ma thema
M all</w>
M T
M .</w>
Luc kily</w>
L ess</w>
L angu
K le
Jour nal</w>
In tel</w>
In formation</w>
H ot
H ill</w>
H appy</w>
Gi ussani</w>
Geor gia</w>
G all
Fran c
Fin land</w>
F ood</w>
F al
F O
Demo cratic</w>
Cer tainly</w>
Cambo dia</w>
C aribbean</w>
Be tter</w>
Be st</w>
Ardu ino</w>
Al right</w>
Al an</w>
A us
A T</w>
A A</w>
9 00</w>
8 0,000</w>
5 7</w>
199 3</w>
1 40</w>
-F i</w>
y ou
writ es</w>
wat ches</w>
vibr ating</w>
vel ty</w>
uni on</w>
un predictable</w>
u tter</w>
u ts</w>
u mb
tuber culosis</w>
tion ists</w>
tic ut</w>
ti lage</w>
thro at</w>
thri ve</w>
the irs</w>
th ly</w>
ten nis</w>
tat too</w>
t abo
tabo o</w>
synthe si
survi vor</w>
su sc
stress ful</w>
stati stic</w>
spon taneous</w>
spir itu
speci alists</w>
spe ech
sol ar-
si cal</w>
shu ff
sha hi
sh outing</w>
sh out</w>
seven -
set ts</w>
sche dule</w>
sc ra
sa tions</w>
sa iling</w>
sa dly</w>
rom ance</w>
ro om
ro ad
ri ots</w>
ri a</w>
restric ted</w>
respon sive</w>
reson ance</w>
reperto ire</w>
ren dering</w>
rel uc
regi ster</w>
recei ver</w>
reason ably</w>
re tail</w>
random ness</w>
r ling</w>
r he
qua tic</w>
pur suing</w>
pou red</w>
pol itan</w>
point ment</w>
phra ses</w>
pestici des</w>
perfor man
pea ks</w>
pat ch</w>
paras ites</w>
p ts</w>
p ond</w>
ough ly</w>
osi on</w>
os ter
ora do</w>
opti mal</w>
opp on
offic ers</w>
off ensive</w>
od y
o ven</w>
o e</w>
nur ture</w>
nucle i</w>
no ises</w>
neuro genesis</w>
negoti ation</w>
n sylvania</w>
mytho logy</w>
my ths</w>
my steries</w>
mor ph
miser y</w>
mat er
marvel ous</w>
mamm oth</w>
m my</w>
m ans</w>
low- income</w>
le ys</w>
le ap
lar vae</w>
ja w</w>
inter f
inher ited</w>
influ ences</w>
in ti
in su
in complete</w>
impos ed</w>
imp ose</w>
im a</w>
illar y</w>
il ep
hu setts</w>
holi day</w>
hi ves</w>
hero ic</w>
head- tail-
he h</w>
guil t</w>
guarante ed</w>
gr ace</w>
gor ous</w>
gl ory</w>
geome tric</w>
ge ments</w>
ge eks</w>
fun eral</w>
free -
fre ak</w>
fore cast</w>
floo d</w>
fla sh
fear ed</w>
fashi oned</w>
fac ulty</w>
f itting</w>
evol u
este em</w>
ep y</w>
ep ilep
envi sion</w>
enti tled</w>
en sion</w>
en cyclopedia</w>
emp loyed</w>
emer gent</w>
ed iting</w>
ec ution</w>
du g</w>
dra gged</w>
do o</w>
dis connected</w>
dis connect</w>
di sh
deser ts</w>
deli ghted</w>
dec entr
de sal
de pri
day light</w>
cro codi
corri dors</w>
conduc ting</w>
compas s</w>
compar able</w>
com .</w>
cli mbers</w>
citizen ship</w>
che e
ch unk</w>
ch at</w>
censor ship</w>
cathedr al</w>
car tilage</w>
car pen
cand le</w>
calend ar</w>
ca u
ca fe</w>
bu mp</w>
brea th
bor ne</w>
bl end</w>
bi otechnology</w>
begin nings</w>
ban ana</w>
b iting</w>
b acked</w>
automa tic</w>
au ts</w>
attemp ted</w>
asse ssment</w>
aspi rations</w>
as y
arro ws</w>
arre n</w>
are -
ar ose</w>
app lause</w>
app er</w>
anti depress
al ter</w>
agre es</w>
ad ministr
accoun ting</w>
accompan ied</w>
acceler ation</w>
ac tic</w>
Wel come</w>
W ars</w>
W arren</w>
Ver onica</w>
U shahi
U .</w>
To wer</w>
Su preme</w>
Su b
Stu dents</w>
Som alia</w>
Sm all</w>
Se x</w>
S low</w>
S ci
S MS</w>
Rus sians</w>
R on</w>
Pit ts
Per u</w>
Pen nsylvania</w>
P y
Nep al</w>
N ice</w>
Mo MA</w>
Massac husetts</w>
M ot
M edit
M au
M M</w>
L earning</w>
L an
L S</w>
Ke pl
Kat rina</w>
K no
K A</w>
J obs</w>
I de
Hund reds</w>
Hu bble</w>
Hel p</w>
Haw king</w>
HI V-
Frank lin</w>
Franc is</w>
F il
Exc use</w>
Ex actly</w>
E specially</w>
E s
E DI</w>
Doc tor</w>
Do esn</w>
Di ff
Darw inian</w>
D ead</w>
Connec ticut</w>
C ou
C RIS
Any thing</w>
AR S</w>
A O</w>
9 4</w>
8 7</w>
4 50</w>
4 00,000</w>
197 5</w>
19 45</w>
1 25</w>
. com.</w>
z ona</w>
yo to</w>
worth while</w>
woo d
won ders</w>
wa sting</w>
w ron
w ounded</w>
w ear
vie wers</w>
vi sibility</w>
vi bra
vi ation</w>
ver ted</w>
ver ge</w>
velo city</w>
val id</w>
us s</w>
uni fied</w>
un intended</w>
ul arity</w>
u ph
tur bul
tru sting</w>
tradi tionally</w>
tor al</w>
thu mb
tho ven</w>
test oster
tax i</w>
tat to
t u</w>
t ched</w>
susp icious</w>
surr oun
superi or</w>
subur bs</w>
sub urban</w>
stu mbled</w>
stric tly</w>
stre aming</w>
sti l
ste er</w>
star d</w>
sta in
squ ea
sp ine</w>
sk ies</w>
sing er</w>
simul ated</w>
sho ot
ser vers</w>
self- assembly</w>
scre w</w>
scho oling</w>
sc ru
sc ape</w>
satis fy</w>
sapi ens</w>
sa il</w>
s thand</w>
s ounded</w>
s ought</w>
rela xed</w>
recy cle</w>
re construct</w>
re acting</w>
radi us</w>
ra dar</w>
quot es</w>
quanti ty</w>
qu o</w>
prototyp ing</w>
prosp ect</w>
projec tions</w>
priori tize</w>
prev ents</w>
prefer red</w>
pop s</w>
pop -up</w>
pollu tants</w>
pil lar</w>
photograph ers</w>
ph er</w>
ph al
pe tals</w>
pap er
pan crea
pancrea tic</w>
ow ns</w>
organiz ational</w>
orb iting</w>
oran gu
or ted</w>
op i
ob server</w>
ob o</w>
ob lig
ob iles</w>
nur turing</w>
non violent</w>
no te
no tation</w>
no t-
no ble</w>
ner d</w>
negoti ations</w>
negoti ating</w>
n ut</w>
moder n
min or</w>
mi mic
me tro
mat ching</w>
man ages</w>
lon eliness</w>
loca ust</w>
liz ation</w>
liter al</w>
list en
labe ls</w>
la wn</w>
la kes</w>
l ure</w>
l or
kilo grams</w>
k it
j acket</w>
it ors</w>
it ch</w>
intrin sic</w>
integr ating</w>
insi sted</w>
indi cation</w>
ind ul
inci dentally</w>
inc i</w>
implan ted</w>
identi fying</w>
ide als</w>
i ors</w>
hun ters</w>
hot ter</w>
hip po
hi stories</w>
hi d</w>
hambur ger</w>
glaci ers</w>
gall ons</w>
ga ze</w>
g gl
fund raising</w>
fu tu
for bid</w>
flouri sh</w>
fl ed</w>
fit ted</w>
fir sthand</w>
fe es</w>
fa st-
f uc
exp licitly</w>
execu tive</w>
ex cer
est ers</w>
erec tus</w>
er ranean</w>
environ ment
ener gy-
employ ee</w>
emb raced</w>
ell ers</w>
ed ited</w>
e di
drin ks</w>
dri ft</w>
distinc tive</w>
dis ruption</w>
dig its</w>
di vine</w>
di sen
determin ation</w>
defin es</w>
cust om</w>
cu es</w>
cra wl</w>
cool er</w>
coo ked</w>
contribu tions</w>
conta gious</w>
cont acts</w>
construc ting</w>
confir med</w>
con ve
con dom</w>
compu ter-
comb inations</w>
co l</w>
clos ure</w>
ch in</w>
ch arities</w>
cell phone</w>
carb on
car cin
cap su
ca v
ca m
buc ket</w>
broad ly</w>
bri ck</w>
boun ce</w>
blue fin</w>
ble eding</w>
bl ink</w>
be st-
bal con
b last</w>
b ind</w>
audit orium</w>
ate mal
assa dor</w>
as on</w>
as ing</w>
archa e
ar che
appro val</w>
appli ances</w>
appe aring</w>
anima tions</w>
amp u
all as</w>
agnos tic</w>
addic ts</w>
a urus</w>
a quatic</w>
Y ale</w>
Wh it
Ven ice</w>
V inci</w>
Ushahi di</w>
U se</w>
U p
U V</w>
Tor onto</w>
Ste p</w>
Sk ype</w>
Sam uel</w>
Ro ger</w>
R oss</w>
R on
R and
R ac
Qu e
Po or</w>
Pitts burgh</w>
Ph D</w>
Per f
P le
Of ten</w>
O ver
Norwe gian</w>
Medit erranean</w>
M ama</w>
Lar ge</w>
Lad y</w>
La wr
K yoto</w>
Jer ry</w>
In t
Hop efully</w>
Gu atemal
Go ing</w>
For get</w>
F ul
Ever gla
Econ om
E r
E m
E ff
Des ert</w>
De ep</w>
D ig
Comp any</w>
Cli mate</w>
CRIS PR</w>
C ro
C B
C -
Buil ding</w>
Bru ce</w>
Bos nia</w>
Beli eve</w>
Bee thoven</w>
Ari zona</w>
Al pha</w>
Al len</w>
AR PA</w>
A id</w>
A C
7 6</w>
5 4</w>
19 70</w>
11 th</w>
1 80</w>
. org</w>
- hour</w>
yl an</w>
y a
wa king</w>
w ounds</w>
w ing
w ages</w>
volcan o</w>
volcan ic</w>
visc eral</w>
veter in
v ent</w>
urban ization</w>
unemp loyment</w>
under estimate</w>
un ting</w>
un sustainable</w>
un lea
un a</w>
u pri
twe et</w>
trou bled</w>
tro pics</w>
trigg ered</w>
tri ple</w>
transc end</w>
tr osp
tox ins</w>
to ast</w>
ti mber</w>
thre aten</w>
thr ust</w>
ther wise</w>
tec ton
ta gon</w>
synthe size</w>
symp hony</w>
surroun dings</w>
surpri ses</w>
sugges tions</w>
stret ched</w>
str and</w>
stereotyp es</w>
sovere ign</w>
sna p</w>
sket ches</w>
sion ately</w>
simil arities</w>
si ghted</w>
shut tle</w>
shir ts</w>
sett ings</w>
sen sible</w>
self- esteem</w>
sec ular</w>
seas ons</w>
scar ce</w>
s ar
rese mb
requi rements</w>
repli ed</w>
regul ating</w>
rect angle</w>
re pa
re members</w>
re inventing</w>
radi o
r ank</w>
qu ad</w>
pun ish</w>
publi cation</w>
prote sts</w>
propor tion
pra g
pot atoes</w>
pot ato</w>
pneu monia</w>
place bo</w>
pl un
perva sive</w>
perman ently</w>
per cep
paraly sis</w>
pan ies</w>
pain ter</w>
pa st
p raise</w>
over lap</w>
ou tra
op lan
o zone</w>
nic k
new ly</w>
nesthe sia</w>
nan otechnology</w>
na il</w>
mun ici
mon th-
migra ine</w>
metaph ors</w>
measu rement</w>
mean while</w>
mean time</w>
mean ings</w>
m at</w>
lon g
lo ops</w>
lo ading</w>
lim itation</w>
lifel ong</w>
len ses</w>
lean ing</w>
le ag
la zy</w>
kilo s</w>
kid neys</w>
ke en</w>
ju ggling</w>
joy ful</w>
j uni
j am
it ry</w>
irri gation</w>
invent ors</w>
inv aded</w>
intrigu ed</w>
intangi ble</w>
instinc ts</w>
inst ability</w>
inf lation</w>
industri alized</w>
in genu
in efficient</w>
in door</w>
improvi sation</w>
imm un
imagin ary</w>
im probable</w>
illustr ates</w>
illu stration</w>
il le</w>
hyper bo
human ities</w>
hop eless</w>
hil ar
high ways</w>
hea vens</w>
ha mmer</w>
ha ir
h int</w>
h eck</w>
h ats</w>
gre e
grab s</w>
gr ounded</w>
go ats</w>
ge ological</w>
fra m</w>
flo wn</w>
fish ery</w>
fil es</w>
fic tional</w>
fi x
fi s
fair y</w>
f ills</w>
exten sive</w>
exquis ite</w>
exist ential</w>
exhau sted</w>
excell ence</w>
ex pressing</w>
ex it</w>
ex hilar
eradi cate</w>
er otic</w>
er osion</w>
epide mics</w>
encryp tion</w>
en ri
el ites</w>
el ines</w>
eff ec
ef fi
ec o-
e po
du ci
dri lling</w>
dis se
dis cre
di stress</w>
develop er</w>
desir able</w>
den ied</w>
de partments</w>
cyber criminals</w>
curr ents</w>
cur ator</w>
cryst al</w>
cra shing</w>
coura geous</w>
coo kie</w>
contrac ts</w>
continu ally</w>
contex ts</w>
conf using</w>
concei ved</w>
compreh ensive</w>
compos er</w>
competi tors</w>
clean ed</w>
cla imed</w>
ci a</w>
check list</w>
char ging</w>
ch le
ch ill</w>
ch -
centi meters</w>
cen sus</w>
cam els</w>
bre w</w>
boy friend</w>
blo ws</w>
bit ter</w>
bio graphy</w>
bicy cles</w>
ber a</w>
be loved</w>
be aches</w>
back grounds</w>
b ron
b ending</w>
attach ment</w>
athle te</w>
astronom ical</w>
arro g
arran ged</w>
ar ming</w>
ambigu ity</w>
air o</w>
af fir
ack ers</w>
Zi p
Wol fram</w>
Win dows</w>
W r
Venezu ela</w>
Un der</w>
UC LA</w>
Tuni sia</w>
Swe eney</w>
Sus an</w>
Sup er</w>
Stor y
Sp eci
Simp le</w>
Sib eria</w>
Se ver
Sa ve</w>
S ev
S cientists</w>
S and
S ad
S E</w>
R ule</w>
R L</w>
PT C
P op
O therwise</w>
Nic ole</w>
Moun tains</w>
Mo vement</w>
Mar gar
Ma h
Lawr ence</w>
L ots</w>
Ki bera</w>
Ken yan</w>
Jus tice</w>
J ay</w>
Iraq i</w>
Inter viewer</w>
In no
I l
I P
I N
Gu ar
Goo g
Go liath</w>
Gar den</w>
F G</w>
Da ve</w>
D ylan</w>
D allas</w>
Cos ta</w>
Com passion</w>
Com panies</w>
CA PTC
C ru
C oper
C lu
C airo</w>
Austri a</w>
An n
Al ready</w>
A th
A qu
A gn
A gency</w>
20 13</w>
199 6</w>
0- year-old</w>
y land</w>
x ic</w>
wrec k</w>
wr ink
wor ries</w>
wor n</w>
wol ves</w>
weigh ed</w>
wee kly</w>
wan der</w>
voy age</w>
vie w
vi vid</w>
van a</w>
up load</w>
ul u</w>
u n</w>
tw eight</w>
triump h</w>
tri angles</w>
tre ss</w>
trans forms</w>
trage ous</w>
tra de
tr unk</w>
tou rism</w>
tor n</w>
top- down</w>
to- day</w>
tic als</w>
thro ws</w>
ther more</w>
testoster one</w>
ta tives</w>
t ini
synap ses</w>
swit ches</w>
swal lowed</w>
swa p</w>
susta ining</w>
susc ep
sur ing</w>
sup pos
su it
stre a
str at
stimul us</w>
steri le</w>
state -of-the-
state-of-the- art</w>
sta kes</w>
st- century</w>
st en</w>
st el
space- time</w>
sp ades</w>
sou ls</w>
simpli stic</w>
shi re</w>
sh allow</w>
sett lement</w>
se iz
se aled</w>
sc rap
sa il
s tics</w>
s miles</w>
ro cke
reti re</w>
respec ts</w>
resp iratory</w>
requ ests</w>
rep ly</w>
regul ated</w>
refl ecting</w>
recru ited</w>
re stra
ra ging</w>
ra ff
r inging</w>
qu al</w>
prom otion</w>
pri zes</w>
preven ted</w>
pre servation</w>
post- conflict</w>
pos ts</w>
port able</w>
po ets</w>
pir ate</w>
perio dic</w>
penetr ate</w>
pe dal</w>
passen gers</w>
parti al</w>
par tici
pack aging</w>
p opping</w>
p opped</w>
p acking</w>
our se</w>
ou trageous</w>
os cope</w>
orphan age</w>
opo ly</w>
oper ational</w>
one- on-
off shore</w>
occup ation</w>
o xide</w>
nor theast</w>
no velty</w>
neuros cientists</w>
neuro logical</w>
na h</w>
mul tic
mo ck
minist ers</w>
mind- wandering</w>
middle- class</w>
messa ging</w>
ment ors</w>
mel ody</w>
margin s</w>
manufac turer</w>
manife station</w>
mammo graphy</w>
magne ts</w>
ma bly</w>
m its</w>
lo a
les bian</w>
lear ner</w>
le m</w>
l ings</w>
k o
j ury</w>
j ar
ir relevant</w>
investi gating</w>
inv o
inter viewing</w>
inter ro
inten tional</w>
inj ection</w>
ingenu ity</w>
inf la
in i</w>
in ha
in doors</w>
in adequate</w>
impro ves</w>
ic ons</w>
iP ad</w>
i mb
hun g</w>
hot els</w>
hor se
hom osex
hol der</w>
hippo campus</w>
hall way</w>
h o</w>
gri p</w>
gri ef</w>
gr ound
gi o</w>
gh t-
ge ese</w>
g ness</w>
g ate
g ang
func tionality</w>
frequ ent</w>
free ze</w>
foun ders</w>
fore ground</w>
for- profit</w>
foc uses</w>
festiv al</w>
fat ty</w>
f ill
explor ers</w>
execu tives</w>
exc uses</w>
equ ator</w>
enzy me</w>
enjoy able</w>
ener ge
en ched</w>
eli minated</w>
educa ting</w>
e- to-
e mul
dre am
don ation</w>
direc tors</w>
der -
den y</w>
dec ei
dec e
dd led</w>
cur sor</w>
cultiv ate</w>
cros ses</w>
critici sm</w>
cri tic</w>
cre ators</w>
cra wling</w>
cra f
cour ts</w>
continu ity</w>
conspir acy</w>
con test</w>
compe tent</w>
clos et</w>
cli cks</w>
cli cking</w>
cl ed</w>
cho ir</w>
champ ion</w>
cartoon ist</w>
cardio vascular</w>
carb on-
ca tor</w>
ca su
bur n
bo iling</w>
blo b</w>
black -
biolumines cence</w>
billi on
bel ts</w>
be having</w>
ballo ons</w>
back ward</w>
avoi ding</w>
autom obiles</w>
attribu te</w>
ate -
at ra
at able</w>
as sy</w>
arran gement</w>
arith metic</w>
ar ises</w>
ar in</w>
appe aling</w>
ap ol
ap ar
anticip ated</w>
anti bodies</w>
anim ated</w>
ance stry</w>
an ium</w>
ambigu ous</w>
ambi a</w>
alge bra</w>
aesthe tics</w>
advan tages</w>
adjac ent</w>
acknowle dged</w>
ach ers</w>
acade mics</w>
absor bed</w>
ab used</w>
ab ri
ab normal</w>
a unt</w>
a uc
Wi -Fi</w>
Wal -
Tw enty</w>
T ele
Sy d
St art</w>
Sol ar</w>
Se bas
Rea gan</w>
Ra dio</w>
RIS D</w>
R it
Pro te
Pol and</w>
Perf ect</w>
Per son
Paul o</w>
P in
P H</w>
Or leans</w>
O reg
Nor man</w>
N either</w>
N BA</w>
Mos es</w>
Moder n</w>
Margar et</w>
M art</w>
M O</w>
Lin ux</w>
Langu age</w>
L ev
Jer sey</w>
Je opardy</w>
In side</w>
I. Q.</w>
I Q</w>
Ho ly</w>
Himalay as</w>
H G</w>
Guatemal a</w>
Govern ment</w>
Gi ven</w>
Ger mans</w>
G old</w>
F ree</w>
Ex tre
Evergla des</w>
E ri
E igh
Dou g</w>
Dar fur</w>
D -
Cam er
C ir
Bo ok</w>
Bar ack</w>
B L</w>
AI MS</w>
A w
A D
9 3</w>
8 3</w>
8 2</w>
5 3</w>
5 00,000</w>
3 0
21 st-century</w>
198 9</w>
196 8</w>
10 th</w>
- in-law</w>
y m</w>
wor ship</w>
wit z</w>
whist ling</w>
war ms</w>
war d
wal let</w>
wa x</w>
w -up</w>
vo ic
vi ous</w>
ver b
vari ed</w>
ur ine</w>
up wards</w>
up loaded</w>
un lock</w>
un ite</w>
un certain</w>
tru st
transl ates</w>
tra iler</w>
tor tured</w>
thir dly</w>
thi um</w>
tex tile</w>
ter minal</w>
ten se</w>
tat or
tal es</w>
ta ke-
ta d
t- based</w>
t apped</w>
t ans</w>
syn c</w>
symp athy</w>
swa mp</w>
stun ts</w>
stron gest</w>
stro kes</w>
stran gely</w>
stere o</w>
stat ue</w>
stabi lize</w>
st al
squ at
spir its</w>
sp lit
sp ills</w>
sol ves</w>
sli p
si p</w>
si ghts</w>
shrin king</w>
sh i</w>
secre tly</w>
scholar ship</w>
sc are</w>
sa ves</w>
s no
s en</w>
ru shed</w>
rough out</w>
rin ge</w>
rich ness</w>
ri ghtly</w>
reti red</w>
rese mble</w>
repor ter</w>
remin der</w>
regi mes</w>
ques tioned</w>
pri est</w>
presen tations</w>
prefer ences</w>
poe tic</w>
po ore
poore r</w>
plac ing</w>
ph thal
ph any</w>
person nel</w>
perpe tu
per -
p om
p ad
over seas</w>
over s</w>
ori cal</w>
or able</w>
one-on- one</w>
one- third</w>
on co
om on</w>
nu mb</w>
no vels</w>
nin th</w>
nan o-
mu m</w>
mp y</w>
mot h</w>
mo tions</w>
mini mize</w>
min ent</w>
milli on
mi ghty</w>
methodo logy</w>
meas urable</w>
maxi mize</w>
mass -
marri ages</w>
m me
liter ary</w>
ligh tweight</w>
lick r</w>
liber als</w>
li ti
li er</w>
lea ks</w>
le ver</w>
k ra
je ans</w>
it re
it ally</w>
ir rit
inv ade</w>
intrin sically</w>
insi st</w>
ing- edge</w>
in secure</w>
in qu
in puts</w>
in er</w>
impli cation</w>
im it
ill in</w>
ignor ant</w>
ic illin</w>
hypothe tical</w>
humili ation</w>
hos ts</w>
honey bees</w>
hier arch
he el</w>
han dy</w>
ha m
h n</w>
h ello</w>
h ang
guid ance</w>
gri m</w>
go -
glori ous</w>
gi raff
gi g
gh ost</w>
ger ms</w>
g ently</w>
ful filled</w>
friend ships</w>
fra ming</w>
follo wers</w>
fo ol</w>
fluctu ations</w>
floo ds</w>
floo ding</w>
flo ck</w>
finger tips</w>
favel as</w>
fa de</w>
f u</w>
exp licit</w>
exp ands</w>
exa ms</w>
ex ecution</w>
evi dent</w>
er ase</w>
er ally</w>
epide mi
enzy mes</w>
environ mentally</w>
en vy</w>
elev ated</w>
eless ness</w>
ec es</w>
drow ning</w>
drow ned</w>
don ations</w>
discipl inary</w>
din ing</w>
differenti ate</w>
devi sed</w>
develop s</w>
determin ing</w>
detec tors</w>
deser tification</w>
descrip tions</w>
del u
degra dation</w>
decentr alized</w>
de pressing</w>
day- to-day</w>
datab ases</w>
d less</w>
cu bic</w>
counter intuitive</w>
coun cil</w>
cos tly</w>
correspon ding</w>
control ler</w>
conser vatives</w>
compla ined</w>
commit tee</w>
comb ining</w>
com mission</w>
collabor ator</w>
cla p</w>
ci an</w>
char ter</w>
ch er
centr alized</w>
cent ric</w>
car rot</w>
car i
ca fe
but t</w>
bur ns</w>
bul k</w>
bu ys</w>
bra in-
bo oth</w>
blue print</w>
biolumines cent</w>
bb on</w>
ban ker</w>
ban i
avail ability</w>
audit ory</w>
at us</w>
at -
asse ss</w>
aspi ration</w>
as is</w>
arm or</w>
amate urs</w>
am y
am ino</w>
am en</w>
ag as
achiev ements</w>
acci dental</w>
aby tes</w>
Zip car</w>
Y a
X L</w>
Willi ams</w>
Vil lage</w>
V an</w>
Ul timately</w>
U kra
U h</w>
Tr ans
Th roughout</w>
T ype</w>
Syd ney</w>
Story Corps</w>
Star bucks</w>
Sk y
Sen ate</w>
Sebas tian</w>
Scot tish</w>
S ti
S ony</w>
S J</w>
Re al</w>
R ock
R el
Po e
Pakist ani</w>
P ap
Oreg on</w>
N ev
Mur ray</w>
Mo reover</w>
Mar ine</w>
Mar cus</w>
M uch</w>
L as</w>
K elly</w>
Ju lia</w>
Int ellig
I van</w>
I ri
Hu dson</w>
H it
Gol d
G ro
G ot</w>
Fo x</w>
Fif ty</w>
F lickr</w>
Ex cell
Ear th-
E. U.</w>
E ss
E ight</w>
E d</w>
E aster</w>
Diff er
Di dn</w>
De pression</w>
D L</w>
D I
D ARPA</w>
Christi anity</w>
Chri st</w>
Bul g
Ber n
Be hind</w>
Be at
Bal k
BM W</w>
B oo
Al ber
Agn es</w>
Ab u</w>
197 3</w>
15 th</w>
1 -
world- class</w>
ware house</w>
war n</w>
w -
virtu es</w>
vir gin
veter ans</w>
ver bs</w>
vel ing</w>
vari ability</w>
v icious</w>
v et</w>
v ar
v ac
ur anium</w>
under way</w>
un pleasant</w>
un finished</w>
un aware</w>
twe ets</w>
tur n
tu ary</w>
transl ating</w>
transfer red</w>
tou rist</w>
toler ate</w>
tim eline</w>
ti tled</w>
ti pping</w>
the ft</w>
testi mony</w>
telec om
tele phones</w>
te er</w>
t asking</w>
symp tom</w>
superno va</w>
stra ins</w>
ste ering</w>
sta ke
sne a
smar test</w>
sin gular</w>
simpli fy</w>
simil arity</w>
shor tage</w>
sho w
sel ler</w>
se wage</w>
se am
scu ba</w>
scal able</w>
sc and
s- on</w>
s sional</w>
s ors</w>
rub ble</w>
ru in</w>
rot ating</w>
ri sts</w>
ri pped</w>
reve aling</w>
respec tful</w>
repli cating</w>
reli ev
reci pes</w>
recei ves</w>
realiz es</w>
re trosp
re fin
rap h</w>
rab bits</w>
ra tic</w>
provi ders</w>
pron oun
pro vince</w>
pro ves</w>
pri stine</w>
pri mal</w>
predat ory</w>
pre valent</w>
por no
poli cing</w>
pol ls</w>
periph ery</w>
performan ces</w>
perf ection</w>
pen icillin</w>
pe e</w>
pat ory</w>
para dise</w>
par ked</w>
par an
pack aged</w>
p ies</w>
p acks</w>
ow l</w>
orb ital</w>
or n</w>
on set</w>
obo s</w>
o ch
new born</w>
neuros cientist</w>
ne sts</w>
n on</w>
n eling</w>
mur dered</w>
mu tually</w>
mu stard</w>
moun ted</w>
motor cycle</w>
ment ality</w>
memor able</w>
mega -
medi eval</w>
me trics</w>
man ned</w>
man gro
ma r</w>
ma ma</w>
lu mp</w>
liber ation</w>
li thium</w>
li king</w>
let tu
lear ners</w>
la ir</w>
l ating</w>
kill ers</w>
jo ints</w>
j am</w>
j ack</w>
invol vement</w>
inter nationally</w>
ing es</w>
in expensive</w>
in corporate</w>
in as</w>
imp ati
im mortality</w>
idi ot</w>
i or
hypothe ses</w>
hy gi
hun ter-
hu b</w>
histori an</w>
high- quality</w>
h ran</w>
h ically</w>
guid elines</w>
gre ed</w>
gra d</w>
gec ko</w>
g ators</w>
frac tal</w>
for um</w>
for aging</w>
foot prints</w>
fon ts</w>
fil ed</w>
ff ing</w>
fer tility</w>
fair ness</w>
f i</w>
extre mes</w>
extrac ted</w>
exp ort</w>
establi shment</w>
escap ed</w>
empha sis</w>
ema iled</w>
effec tiveness</w>
ea ger</w>
e ps</w>
e mission</w>
dun es</w>
du mped</w>
domin ance</w>
do do</w>
divi ding</w>
dispos al</w>
disp ar
diffic ulties</w>
desal ination</w>
dep ended</w>
deliber ate</w>
de t
de fl
dat a
dang ers</w>
d af
cutt ing-edge</w>
critici zed</w>
cra shed</w>
cr ank</w>
coun ty</w>
coordin ated</w>
conv ul
conta minated</w>
constitu tion</w>
comp act</w>
commission ed</w>
commerci als</w>
cli ffs</w>
cla ws</w>
cl apping</w>
cho re
chle ar</w>
char ts</w>
champi on
ch ord</w>
caregi vers</w>
car ved</w>
car ve</w>
cap acities</w>
calcul ator</w>
cafe ter
ca sca
c tions</w>
brow sing</w>
brow se</w>
brea sts</w>
bra kes</w>
blo ggers</w>
biot ech</w>
belon ging</w>
bee keepers</w>
battle field</w>
ban jo</w>
balan cing</w>
b ery</w>
at eral</w>
as sign</w>
are foot</w>
appe ti
anten na</w>
announ cement</w>
an ism</w>
an gel</w>
aliz es</w>
aer ody
adolesc ents</w>
acc used</w>
abu sive</w>
a vian</w>
a un
a thetic</w>
a gile</w>
Y esterday</w>
Wi red</w>
Wal- Mart</w>
W is
W ei
Vietna mese</w>
Victori an</w>
U r
U K</w>
Tur n</w>
Th ous
Tami flu</w>
Tai wan</w>
T S</w>
Some how</w>
So on</w>
Si de</w>
Sever al</w>
S li
S ea
S -
Ru n</w>
Ro bo
Ro b</w>
Ren aissance</w>
Phot os
Pep si</w>
Pen tagon</w>
P ros
On line</w>
O liver</w>
N ine</w>
N et</w>
N I
N 1</w>
Mo vember</w>
Mill enni
M ir
M ari
M aga
M P
Lea gue</w>
LE Ds</w>
L esters</w>
J ama
J L</w>
J .</w>
Isa ac</w>
In dex</w>
In credible</w>
IM F</w>
Hu man
Hit ler</w>
Had ron</w>
Ha mp
H ome</w>
H D</w>
Guar dian</w>
Gir ls</w>
FO X
F ant
Excell ent</w>
Europe ans</w>
Ess entially</w>
En ergy</w>
E van</w>
E L
D y
D re
Con ference</w>
Col orado</w>
Col lider</w>
Co de</w>
CN N</w>
C lose</w>
C ent
Bu y</w>
Bhu tan</w>
B .C.</w>
Arab s</w>
Ar m
A ni
A ges</w>
A ar
9 9.
2. 0</w>
198 6</w>
198 5</w>
197 6</w>
1 60</w>
1 10</w>
- year</w>
- free</w>
- 2</w>
ã o</w>
zi p</w>
water fall</w>
waste water</w>
war m
visu alizing</w>
vision ary</w>
vibr ant</w>
val ve</w>
v ory</w>
v als</w>
une qual</w>
un fold</w>
u top
u tes</w>
ty ran
tw enti
tun as</w>
tri ggers</w>
transist ors</w>
transist or</w>
tra ded</w>
tr i</w>
tini est</w>
ti re</w>
ti ers</w>
ti des</w>
thylac ine</w>
thu mbs</w>
thor oughly</w>
tho do
therap eu
ten sions</w>
tatto os</w>
t len
t at</w>
swit ching</w>
swe eping</w>
sur ge</w>
sur f</w>
super computer</w>
sun ny</w>
sul fur</w>
suc ked</w>
substanti ally</w>
submer sible</w>
sub marine</w>
stri ps</w>
stra w</w>
stitu tion</w>
stea k</w>
star ving</w>
star vation</w>
st rous</w>
st op
st ole</w>
st ap
squ are-
space ship</w>
sp aw
so ils</w>
sli ces</w>
skir ts</w>
six -year-old</w>
sion ed</w>
sin i</w>
side walks</w>
sic a</w>
si e</w>
sho re
sh ments</w>
sh are
sever ely</w>
ser oton
se at
schol ars</w>
schol ar</w>
s lot</w>
s day</w>
s cat
s ank</w>
ri gorous</w>
rhyth m-
rhythm- etic</w>
rhe tor
resul ted</w>
restric tions</w>
resi dential</w>
regar ded</w>
refer ences</w>
ref ers</w>
red und
reci pro
re tri
re tain</w>
re sort</w>
re jection</w>
re gain</w>
re create</w>
ra tive</w>
r ome
quanti tative</w>
psychop ath</w>
proto col</w>
pros the
progre ssive</w>
progra mma
profes sions</w>
process ors</w>
proble m-
pro vin
pro tons</w>
pro pri
prescri be</w>
pres sive</w>
predic ts</w>
pre ju
pop ulated</w>
pol ite</w>
pl otted</w>
pin point</w>
pil lars</w>
pharm ac
persist ent</w>
perform ers</w>
percep tual</w>
per me
pe el</w>
pe ar
pas sport</w>
par all
pa ds</w>
p ine</w>
over weight</w>
over l
out -of-
os hi
ori st</w>
op t</w>
op ho
ony mous</w>
on ey</w>
om al
offici ally</w>
oblig ation</w>
nur sing</w>
nes see</w>
neighbor ing</w>
nan ot
mur der
muni cations</w>
monit ored</w>
mon thly</w>
mo des</w>
mid -</w>
mi su
memb ran
mar in
mar gin</w>
manuscri pt</w>
manife st</w>
mand ate</w>
make up</w>
ma infra
lo cate</w>
lingu istic</w>
legi sl
leg ged</w>
le um</w>
le gen
le af
lau re
la stly</w>
l ated</w>
l as</w>
k h</w>
j a</w>
instinc tively</w>
inser t</w>
inhabit ants</w>
inf ect</w>
indica tors</w>
in nate</w>
in forma
in ely</w>
in corpor
in comes</w>
immen sely</w>
imm ortal</w>
imb al
imagin ative</w>
im ic
ile o</w>
il literate</w>
il -
identi fication</w>
hus bands</w>
hob by</w>
helicop ters</w>
head aches</w>
head ache</w>
hand some</w>
hand ling</w>
h yp
gy rus</w>
grand mothers</w>
gra ding</w>
gra ders</w>
gr ace
gin e
ght ness</w>
genu inely</w>
gener ator</w>
gan gs</w>
g ous</w>
fung us</w>
ful fill</w>
free way</w>
free doms</w>
fra med</w>
fra gmented</w>
fore ig
fo ol
fli pped</w>
fla p</w>
fis cal</w>
extrac ellular</w>
explosi ons</w>
explo itation</w>
exha us
exc es
ex oplan
et y-
est rogen</w>
eradi cated</w>
epi phany</w>
enligh tened</w>
end uring</w>
ell a</w>
eli minating</w>
effi cacy</w>
e z</w>
du de</w>
dr ank</w>
down stairs</w>
dood ling</w>
doc tr
do s</w>
distr acted</w>
dispar ate</w>
disc ou
dis rupt</w>
dis belief</w>
diam ond</w>
di vers</w>
di ly</w>
di cal</w>
di ans</w>
di al
deter ior
detec ting</w>
dest ined</w>
den omin
def ending</w>
dece ased</w>
dec lined</w>
da ms</w>
d- looking</w>
d ur
cur ved</w>
cur tain</w>
cul t</w>
cu le</w>
cru ise</w>
cosmo logy</w>
contain ers</w>
construc tive</w>
consist ency</w>
connec tedness</w>
conclu ded</w>
concep tions</w>
concei ve</w>
con firm</w>
con dem
commer ce</w>
ck -
circu itry</w>
ci p
char coal</w>
chal k</w>
certifi cate</w>
casu alties</w>
carbon ate</w>
cap turing</w>
cabin et</w>
c row</w>
c ils</w>
bul lying</w>
bron ze</w>
bom bar
boar ding</w>
bo ot</w>
ble ssing</w>
bla dder</w>
bit es</w>
biom at
bill board</w>
bi ome
be ls</w>
be ats</w>
be aring</w>
batt les</w>
bani sha</w>
ba k
b bing</w>
automo tive</w>
autom ated</w>
au gmented</w>
atra zine</w>
athle tic</w>
ari ot</w>
ar tery</w>
ar c</w>
angiogen ic</w>
an omal
align ment</w>
air ports</w>
adverti se
adver s
ad ventures</w>
ach s</w>
ac on</w>
ab ad</w>
a erial</w>
X- rays</w>
W H
Vo y
V el
Tru th</w>
Tr ust</w>
Tom orrow</w>
To yota</w>
Tit us</w>
Tit anic</w>
Th ough</w>
Ten nessee</w>
Te hran</w>
Ta h
TED ster</w>
T R</w>
St y
Sol omon</w>
Sol di
Shi r
Scr atch</w>
Sa fe
S ri</w>
S cri
S adly</w>
S R</w>
S ARS</w>
Res er
R ose</w>
R ol
R an
R N</w>
Po lice</w>
Pan banisha</w>
P ope</w>
O ak
O O
Neander thal</w>
N ancy</w>
Mo ve</w>
Millenni um</w>
Maga zine</w>
Ma y
Ma j
M om
M aria</w>
Le ft</w>
La kota</w>
Kepl er</w>
K E
Jo el</w>
J ack
Iran ians</w>
I D</w>
Hu h</w>
Hon ey</w>
He brew</w>
H ou
H as</w>
Gu inea</w>
Gor don</w>
Gal ileo</w>
G P
Fal con</w>
F ra
F ort</w>
F ind</w>
Ex p
En gine
Ear ly</w>
E mer
E mb
Doc tors</w>
Dig ital</w>
D ur
D own</w>
Cu ri
Cu ban</w>
Cre ative</w>
Com ple
Colom bia</w>
Clu b</w>
Chan nel</w>
Cas sini</w>
Camer on</w>
Cal tech</w>
CE RN</w>
Bri dge</w>
Be tween</w>
Bab y</w>
Ar ts</w>
An dy</w>
Amer i
Al -
A venue</w>
A ur
A V</w>
9 2</w>
9 1</w>
8 9</w>
7 1</w>
7 0,000</w>
7 .
6 .
4 6</w>
4 0-
1, 100</w>
-and- a-half</w>
- A-
yi elds</w>
work shops</w>
wi pe</w>
whis per
whi sper</w>
whi p</w>
wet lands</w>
weap on
wea kness</w>
wea ker</w>
virtu ous</w>
vi vi
vers a</w>
ven ding</w>
v ices</w>
ur gency</w>
up stream</w>
up grade</w>
understand able</w>
un imaginable</w>
un healthy</w>
un familiar</w>
ultra sound</w>
ul ar
u ter
u l</w>
u it</w>
tril lions</w>
tribu te</w>
tra tion</w>
tough er</w>
tor ing</w>
toler ant</w>
til t</w>
ti st</w>
ti more</w>
three- year-old</w>
thou se</w>
th ou</w>
ter restrial</w>
tea m
te or
te ens</w>
te ap
tab let</w>
ta h</w>
t ches</w>
sy nesthesia</w>
swe pt</w>
suspec ted</w>
suscep tible</w>
survi ves</w>
suppos edly</w>
super power</w>
subsi dies</w>
subsequ ently</w>
su itable</w>
stri pped</w>
stra in</w>
stimul ated</w>
ste ep
standardi zed</w>
stand -up</w>
spon sored</w>
spon sor</w>
sol itary</w>
simpli fied</w>
si fied</w>
sho res</w>
shat tered</w>
seren di
ser vo
self- organizing</w>
self- driving</w>
seas onal</w>
se me
sche dul
scar city</w>
sc roll</w>
sandw ich
s wear</w>
s ounding</w>
s ect</w>
rul ed</w>
rol l
rh ino
rewar ded</w>
revel ation</w>
restor ation</w>
repe ating</w>
refle x</w>
recru it</w>
re use</w>
re cl
re building</w>
re bel</w>
rain water</w>
radio active</w>
rab bi</w>
r ine</w>
r acy</w>
quot ed</w>
proto cells</w>
protec ts</w>
prom in
pro xim
pro ving</w>
pro pulsion</w>
pri mor
preci pit
pre vail
pre serving</w>
pra yers</w>
pr one</w>
porno graphy</w>
pollin ators</w>
pollin ation</w>
pl um
pione er</w>
pi an
physi ological</w>
photograph ing</w>
ph e
persi st</w>
patho gens</w>
partis an</w>
pale onto
p li
p ins</w>
os copy</w>
op tic</w>
om ers</w>
old- fashioned</w>
o live</w>
o iled</w>
no tori
ni an</w>
net t</w>
near -
nanot u
nac le</w>
na ils</w>
n ouri
mot to</w>
modi fy</w>
mobi lize</w>
min eral</w>
mi mics</w>
met ap
mess ed</w>
mechan ically</w>
mat s</w>
manipul ated</w>
man- made</w>
man tis</w>
mac ro
ma ze</w>
ma tized</w>
m ulative</w>
m ulations</w>
m ally</w>
m align
loo m</w>
lo ver</w>
ll as</w>
li ation</w>
le vers</w>
la g</w>
je al
j er
iter ation</w>
ir onically</w>
intri cate</w>
interpre ted</w>
inter rupt</w>
inter ference</w>
intell ect</w>
ini ans</w>
inf eri
incre mental</w>
imic ry</w>
imbal ance</w>
im pe
im itate</w>
ignor ing</w>
ici ally</w>
hunter- gather
hear s</w>
hat ma</w>
har ne
h acked</w>
guess ing</w>
guerri llas</w>
grat ulations</w>
glo ves</w>
gi fted</w>
ger -
gen ic</w>
ge o-
ge ek</w>
fore head</w>
for bi
for age</w>
follo w-up</w>
fla mes</w>
fla me</w>
fea thers</w>
eye bro
ey e-
extr action</w>
exter n
exten ding</w>
expos ing</w>
excep tional</w>
evol ves</w>
evalu ation</w>
ester land</w>
es -
enthusi astic</w>
enterpri ses</w>
energe tic</w>
end lessly</w>
en coded</w>
empiri cal</w>
embarra ssment</w>
ei gh</w>
ed man</w>
ea k</w>
e- up</w>
du al</w>
dri fted</w>
dri ed</w>
dre ad
dra gging</w>
distur bed</w>
disc ourse</w>
dis c</w>
diff usion</w>
dict ator</w>
dic tator
diagnos tics</w>
di min
devast ated</w>
den ser</w>
dele te</w>
defini tions</w>
def en
d- up</w>
d able</w>
cu red</w>
cryst als</w>
cru ci
cri tics</w>
cri ses</w>
cre epy</w>
cr ush</w>
cou pled</w>
cost- effective</w>
cos tu
cor tical</w>
cor respond</w>
cor related</w>
cor p
conver gence</w>
conta ining</w>
conf ession</w>
concer ts</w>
comp ens
communi st</w>
comm u
comm entary</w>
collec tions</w>
collap ses</w>
co ins</w>
clean er</w>
classi fied</w>
cienti fic</w>
chil les</w>
chemi sts</w>
che wing</w>
character ized</w>
ch ester</w>
cel ad
celad us</w>
carcin ogen
car ro
car -
capit alist</w>
buil der</w>
bo real</w>
bo il</w>
blin d
billi on-
ben ch
beli ever</w>
be dro
back up</w>
back pack</w>
b on</w>
b all
atten ded</w>
ast ounding</w>
assa ult</w>
as ser
arre tt</w>
ar teries</w>
ar ch</w>
antidepress ants</w>
anthropo logy</w>
analy tical</w>
alig ned</w>
al it
al arming</w>
adul thood</w>
activi sm</w>
accommod ate</w>
acci dentally</w>
Y ves</w>
Wor k</w>
Wester ners</w>
We b
Wal k</w>
WH O</w>
Turk ish</w>
Thir ty</w>
TED x</w>
T O</w>
T B</w>
Sto ck
St ories</w>
Spe ech</w>
Sp ec
Sh ort
S wa
S ounds</w>
S now</w>
S T</w>
S M</w>
Rus sell</w>
Ri ver
Ra ise</w>
R NG</w>
R G</w>
Port land</w>
Pi er
P .</w>
O dys
Nic hol
Nev ada</w>
Naz i</w>
Na than</w>
N ar
Mis sion</w>
Mar shall</w>
Mal dives</w>
Ma hatma</w>
M ind</w>
M a</w>
Li ving</w>
Li ve</w>
Le gos</w>
L is
L esterland</w>
L ang
L abor
Kno wing</w>
K y
K ir
K S</w>
Ju lian</w>
Ju da
J ur
I ni
I g
Hy per
Grou p</w>
Govern ments</w>
Gl ass</w>
Ga za</w>
G len
Fri edman</w>
Fant astic</w>
Ex xon</w>
Euro pa</w>
En ligh
En celadus</w>
E mma</w>
E den</w>
E E
Du ke</w>
D ick</w>
D e</w>
D G</w>
Comm uni
Co oper</w>
Cap tain</w>
CI A</w>
CAPTC HA</w>
C ross</w>
C at
C P</w>
Bu ff
Bro w
Bon o</w>
Bar ry</w>
B ec
B BC</w>
Arm strong</w>
An onymous</w>
Ac tor</w>
A chilles</w>
A S
8 8</w>
8 4</w>
7 7</w>
7 ,
5 .
4 9</w>
3 60</w>
2 ,500</w>
12 th</w>
1, 200</w>
z oning</w>
youn g
yl or</w>
y l</w>
win -
wea ving</w>
wa ving</w>
vol a
villa gers</w>
ver tically</w>
val leys</w>
vag ue</w>
v o</w>
univers ally</w>
under cover</w>
un thin
unthin kable</w>
un ra
un ky</w>
un ic
ul ls</w>
u de</w>
typ ed</w>
ty po
treat y</w>
tre ad
tra il</w>
tr o</w>
tr en
tough est</w>
tor na
to- peer</w>
to dd
to aster</w>
time- lapse</w>
thou ghtful</w>
thin gness</w>
thi est</w>
the on</w>
the id</w>
ten tion</w>
ten ded</w>
telecom munications</w>
techn icians</w>
tax pa
tap ed</w>
ta gging</w>
t ying</w>
t man</w>
t enti
tenti mes</w>
t earing</w>
swe ep</w>
swe at
super massive</w>
sup press</w>
suit case</w>
sub stitute</w>
sub scri
su mmed</w>
strugg les</w>
strat osphere</w>
str apped</w>
sti r
speech es</w>
soci o
socio economic</w>
so m</w>
small- scale</w>
skele tons</w>
sk in
simul ator</w>
side ways</w>
si z
si ssi
serv ant</w>
seroton in</w>
seri al</w>
separ ating</w>
sec u
sear ched</w>
se u
se minal</w>
scaff old</w>
sc ars</w>
savan na</w>
sat ur
san itary</w>
samp ling</w>
sa uc
sa ges</w>
s op
s laughter</w>
s giving</w>
s ane</w>
s ali
ru m
ri r</w>
ri p</w>
rhetor ic</w>
reven ge</w>
resul ting</w>
represen tatives</w>
represen tations</w>
repli cated</w>
repe ti
ren ted</w>
reluc tant</w>
reconci le</w>
recla im</w>
re x</w>
re sting</w>
re moving</w>
re adi
rail road</w>
rac ism</w>
r s.</w>
r r
r ant</w>
qui z</w>
que ens</w>
pul ses</w>
psycho tic</w>
psychiatri st</w>
provi der</w>
prostitu tion</w>
propos ing</w>
prop elled</w>
pro xy</w>
primor dial</w>
preten ding</w>
presu mably</w>
pra h</w>
pp i</w>
power fully</w>
po op</w>
pla u
pix els</w>
photosyn thesis</w>
perform er</w>
per sever
pedestri ans</w>
pay off</w>
pas sionately</w>
partici patory</w>
parti ally</w>
pa vi
pa ins</w>
oy ster</w>
os evel
osevel t</w>
oo s</w>
ome ters</w>
ol er
ol ding</w>
ok o</w>
oce an
occa sions</w>
obe y</w>
neuros ur
ne -
na e</w>
monu ment</w>
modu lar</w>
mod ules</w>
mod eled</w>
mis sile</w>
milli seconds</w>
micro wave</w>
mi stic</w>
mer ge</w>
mel ted</w>
mb a</w>
mater nal</w>
mat tered</w>
man tra</w>
mammo gram</w>
mal e-
mainfra me</w>
ma h</w>
lo wer
life times</w>
liber ating</w>
li qui
la va</w>
l engths</w>
l acking</w>
l ace</w>
know -
kin dly</w>
kilo gram</w>
juni or</w>
jun ction</w>
jan itor</w>
intui tively</w>
interf ere</w>
instal lations</w>
incenti vi
in trac
imp ort</w>
immigr ants</w>
im itation</w>
ill is</w>
il st</w>
hur ricane</w>
hund red-
human e</w>
hum ming
hos tility</w>
holi stic</w>
high- resolution</w>
he im</w>
har mon
ha ul</w>
h r
gu est</w>
gra ded</w>
gr in
govern or</w>
gover ned</w>
go lia</w>
gener alize</w>
ge ars</w>
gal actic</w>
g ill</w>
g ator</w>
fu tures</w>
fu ri
fu eled</w>
fran ch
for agers</w>
fo o
flouri shing</w>
fl ush</w>
fit ness</w>
fin est</w>
filmma kers</w>
fil ming</w>
fi ve
fi shes</w>
fertiliz ers</w>
fel lows</w>
fe e</w>
f red</w>
f ences</w>
exten ds</w>
expres sive</w>
experim entation</w>
exclu sively</w>
excer pt</w>
ex cav
evolu tion
est y</w>
es y</w>
es say</w>
eri ously</w>
enni fer</w>
enhan ced</w>
encryp ted</w>
encoun ters</w>
en as</w>
embry onic</w>
el ve</w>
el and</w>
e x</w>
dys functional</w>
dy sle
duc ks</w>
du mping</w>
dru ms</w>
down loaded</w>
domin ate</w>
do ve</w>
do ck</w>
displa yed</w>
disper sed</w>
digi tize</w>
dig itally</w>
differ ential</w>
di gest</w>
dev ote</w>
desper ation</w>
del usion</w>
defe ated</w>
dec o
dama ging</w>
da iry</w>
d urable</w>
d addy</w>
cy ber</w>
cu men</w>
cr abs</w>
cour ty
cou ver</w>
conver ting</w>
contribu tes</w>
continu um</w>
consu mer
conf use</w>
compe t
comp ose</w>
commun al</w>
collabor ating</w>
co c
co ali
clari fy</w>
cl oned</w>
circum stance</w>
char is
chan ger</w>
cataly st</w>
cap tures</w>
can cer
c one</w>
c ession</w>
bul lets</w>
bu le</w>
broad casting</w>
bor rowing</w>
bon acc
bonacc i</w>
bom bing</w>
bo w
bo ils</w>
ble ed</w>
bit ten</w>
be st
be ard</w>
ba sics</w>
ba i</w>
b lob
b ag
au top
atten dance</w>
attemp ting</w>
atmospher es</w>
astron auts</w>
ast on
assu mes</w>
assign ments</w>
arri ving</w>
arran gements</w>
apar theid</w>
anthropo logists</w>
anthropo logist</w>
anten nae</w>
ant ane
announ cing</w>
ank sgiving</w>
an ch
al yp
ag a</w>
aff ection</w>
advan cing</w>
adole scent</w>
ad mitted</w>
acqui sition</w>
ac tu
abstr action</w>
ab ama</w>
a viation</w>
a ut</w>
Yel low</w>
Wor king</w>
W it
Voy ager</w>
Vir tual</w>
Van couver</w>
V .</w>
Tru e</w>
Thous ands</w>
Th ur
Tah rir</w>
T ech</w>
Syri an</w>
Sti rling</w>
St ay</w>
Sou theast</w>
Short ly</w>
Ser vice</w>
Ser gio</w>
Sch war
S tran
S pea
Ros ling</w>
Rom o</w>
Ro osevelt</w>
Rep ort</w>
Rac hel</w>
R SW</w>
Qu es
Pot ter</w>
Po wer</w>
Philipp ines</w>
P A
Oak land</w>
O. S.</w>
O prah</w>
O p
O il</w>
Nor mally</w>
No w
Ne il</w>
Mi ami</w>
Mat the
Mar x</w>
Ma x</w>
Ma gic</w>
M rs.</w>
M ell
M ario</w>
M BA</w>
Lo cal</w>
L at
K han</w>
K h
K al
Juda ism</w>
Jos h</w>
Jes se</w>
J ennifer</w>
Iri sh</w>
Inno vation</w>
Ini ti
I V</w>
I P</w>
I DE
Ho locaust</w>
Hind u</w>
Har lem</w>
H P</w>
Gra ham</w>
G round</w>
G la
Fort une</w>
Fi bonacci</w>
F red</w>
F air</w>
Every where</w>
Eng li
Econ omic</w>
E nd</w>
Du bai</w>
D ri
D M
D J</w>
D C</w>
Cor por
Compu ter</w>
Co hen</w>
Ch er
Ca use</w>
C ultural</w>
Bu t
Bu d
Bra in</w>
Bal timore</w>
B lu
B ear</w>
Ameri cas</w>
Al li
Al abama</w>
A- rhythm-etic</w>
A cumen</w>
7 4</w>
6 1</w>
5 6</w>
3 5,000</w>
3 ,
2 nd</w>
197 4</w>
zer os</w>
ze era</w>
y- based</w>
y wood</w>
wil derness</w>
whist les</w>
wel com
welcom ed</w>
wan a</w>
wal kable</w>
w iz
w ag
volcan oes</w>
vis its</w>
vir gin</w>
viol ation</w>
vibr ate</w>
va il</w>
v ector</w>
under mine</w>
under lies</w>
under ing</w>
un- So
un-So ok</w>
ucle ar</w>
two- way</w>
two- three-
two-three- four</w>
twist ed</w>
tw i
tur tles</w>
tur tle</w>
tun neling</w>
tu cked</w>
tread mill</w>
tre ats</w>
tr ance</w>
tic king</w>
ti tion
ti est</w>
thri ving</w>
th op
th ankfully</w>
techno logists</w>
techn ician</w>
tap e
tal i
ta gon
t- shirt</w>
t- in</w>
t ted</w>
t apes</w>
surr ounds</w>
str o</w>
stor ing</w>
stati stici
star tling</w>
star ter</w>
ss ors</w>
squ irre
speci alize</w>
spe eding</w>
sp read
sp or
sp l
sp ines</w>
sour i</w>
sour ced</w>
so cket</w>
sissi ppi</w>
shore line</w>
shor test</w>
sho ok</w>
shel ters</w>
sen sations</w>
sen iors</w>
sel ectively</w>
se ize</w>
scar f</w>
samp led</w>
sal ad</w>
s warm</w>
s qui
s late</w>
rot ten</w>
ron ym</w>
ro de</w>
ri sed</w>
rewar ding</w>
rever ber
retro viral</w>
repor ters</w>
repli cation</w>
rep tiles</w>
rela tional</w>
rel ying</w>
refer ring</w>
recor dings</w>
recipi ent</w>
reas se
readi ly</w>
re m
re fine</w>
re construction</w>
re acted</w>
ran g</w>
rab bit</w>
r yp
r ated</w>
quic ker</w>
quad ru
quad ri
puzz ling</w>
punc ture</w>
publi shers</w>
publi sher</w>
pu shes</w>
pu mping</w>
progre ssively</w>
prof iles</w>
proce ed</w>
pro jecting</w>
priv ation</w>
preju dice</w>
pre sti
pp le</w>
pos it
pos ing</w>
por n</w>
poly mer</w>
poli cy
pl ywood</w>
ph y</w>
pessi mistic</w>
perpetr ators</w>
peer- to-peer</w>
pe pper</w>
pe l</w>
pe es</w>
pe d
pay ments</w>
pay load</w>
pa sted</w>
pa r</w>
p ots</w>
p ale</w>
or i</w>
or ded</w>
open ly</w>
op ed</w>
ograp her</w>
occu pa
o lo
nutri tional</w>
note book</w>
nos tal
nick name</w>
ni cal</w>
new s
nation- state</w>
mou d</w>
motiv ates</w>
mon sters</w>
mon opoly</w>
mo ist
mirac ulous</w>
millenni um</w>
migr ated</w>
middle- aged</w>
mi ti
mi d</w>
mess ing</w>
mes sen
membran es</w>
manufac tured</w>
manipul ating</w>
ma tics</w>
loy alty</w>
loy al</w>
los er</w>
lob es</w>
lit ers</w>
lever aging</w>
legi timacy</w>
left- handed</w>
leas h</w>
le is
le dge</w>
laugh s</w>
las ers</w>
lap ar
land fill</w>
l ousy</w>
l ls</w>
l la</w>
l ance</w>
ke l</w>
k a
iz a</w>
it is</w>
ir rever
inter -
inten sely</w>
int oler
inst antane
inha bited</w>
influ ential</w>
infin ity</w>
incub ator</w>
inci dents</w>
in geni
in effective</w>
in cl
impul ses</w>
implan ts</w>
illu mination</w>
i Po
iPo ds</w>
homosex u
hol m</w>
hol low</w>
hi ring</w>
heter osex
heli x</w>
heart beat</w>
ha mas</w>
ha ired</w>
h ren
h our
h h
h en
gui ded</w>
guess ed</w>
gu ests</w>
grap hical</w>
gra sp
gr ate
glo wing</w>
gl y
gi on</w>
ger m</w>
geograp hical</w>
gene tici
gen omics</w>
ga tive</w>
g i</w>
g ar</w>
g aming</w>
fund ers</w>
fron tiers</w>
fra ud</w>
for gi
for ged</w>
for en
fluore sc
fle et</w>
fla ws</w>
fi ssion</w>
fascin ation</w>
fac e-to-
extrac ting</w>
experim enter</w>
expedi tions</w>
exp end
exhilar ating</w>
execu te</w>
exces sive</w>
ev es</w>
ev an
eri als</w>
enti a</w>
ent ine</w>
ener gi
end ants</w>
en do
embry o</w>
el o
echan ical</w>
ech o</w>
e u</w>
e ter
e man
dri p</w>
don ate</w>
divor ced</w>
diver gence</w>
distri c
distric ts</w>
distr action</w>
diplom atic</w>
diagra ms</w>
di ver</w>
di p</w>
di lu
di ary</w>
di als</w>
dep loyment</w>
den ed</w>
deman ded</w>
deal er</w>
de va
de grade</w>
dar ker</w>
da sh
d y-
d war
d une</w>
d ances</w>
cus sion</w>
cu mulative</w>
cu bic
crow ds</w>
cre di
cor rup
cor ds</w>
coo kies</w>
convic tion</w>
const el
confron tation</w>
concent rations</w>
concei vable</w>
con den
compan ion</w>
comp rised</w>
commun ity-
colli de</w>
co aches</w>
clin ically</w>
clas h</w>
cl one</w>
che ated</w>
cha mbers</w>
ch unks</w>
ch lor
ch et</w>
cere al</w>
cell ul
ce ments</w>
ce l</w>
capsu le</w>
byp ass</w>
burn t</w>
bureauc racy</w>
bu ri
bu mble
bru te</w>
broad band</w>
brilli ance</w>
bot tlen
bor rowed</w>
book store</w>
bom bed</w>
bo x
bo ws</w>
bo thered</w>
bo oms</w>
blob s</w>
bla ming</w>
bl ues</w>
bio fuels</w>
ber ries</w>
bar a</w>
bal lot</w>
b und
auc tion</w>
au g
atten ding</w>
athe ists</w>
at orial</w>
aston ished</w>
assu red</w>
asse m</w>
ari anism</w>
appar atus</w>
app lau
antibio tic</w>
anti d
announ ce</w>
anno yed</w>
anecd ote</w>
an cial</w>
amb assador</w>
am ents</w>
alo is</w>
al tar</w>
al pha</w>
al be
air -
agas car</w>
ag on
ag ne</w>
adi c</w>
adap ting</w>
ad versity</w>
accu mulation</w>
ac ulture</w>
ac ronym</w>
aby te</w>
ab alone</w>
a z</w>
a ura</w>
a is</w>
a imed</w>
a ign</w>
a hu
a b</w>
Wh ole</w>
Wal ter</w>
Wal mart</w>
W ord</w>
Vi en
V enter</w>
Th anksgiving</w>
Ta ylor</w>
T un
T own</w>
Sur vey</w>
Stock holm</w>
Stan ley</w>
Ser ge
S. O.S.</w>
S ist
S L</w>
R al
Q atar</w>
Plan et</w>
Pi cas
Pati ent</w>
P at</w>
O scar</w>
Ni k
Net work</w>
N an
N Y
Mo ving</w>
Mis souri</w>
Mis sissippi</w>
Mid west</w>
Mah moud</w>
Mad agascar</w>
Ma p</w>
M s.</w>
L en
L and
KE A</w>
K im</w>
K T</w>
Jon as</w>
Jack son</w>
Ja zeera</w>
J im
J en
J ason</w>
Israel is</w>
IDE O</w>
I KEA</w>
Hy un-Sook</w>
Hot el</w>
Hop kins</w>
H ope</w>
H a</w>
Glen n</w>
Ge tting</w>
G race</w>
G alois</w>
Four th</w>
Fin ancial</w>
Fi re
FOX O</w>
Enligh tenment</w>
Econom ist</w>
E i
E C
Differ ent</w>
Di ana</w>
Dan ish</w>
D un
D or
D ol
D addy</w>
D a</w>
Con tro
Comm ons</w>
Comm and
Christ op
Che e
Chan ge</w>
Camp aign</w>
C ars</w>
C Ds</w>
Ber tie</w>
Bal i</w>
Bab ylon</w>
Ba hamas</w>
B y
B ring</w>
B ond</w>
B om
B assem</w>
An as</w>
Ama zing</w>
Am ong</w>
Al fred</w>
Aar on</w>
A re
A long</w>
A li
A ga
A S</w>
9 ,000</w>
8 .
6 8</w>
6 0-
50 th</w>
2 -
198 3</w>
19 18</w>
18 -
10 1</w>
10 0-
z ers</w>
y e
wrest ling</w>
won d
wond rous</w>
where by</w>
wet suit</w>
wavel ength</w>
wat t-
ward ship</w>
w ears</w>
volunte ered</w>
vol ution</w>
vol ts</w>
vo res</w>
vo c
visu als</w>
veter an</w>
venti lation</w>
ven ues</w>
ve ins</w>
v age</w>
under wear</w>
un ted</w>
un s</w>
un necessary</w>
un limited</w>
un folding</w>
u re
u mann</w>
u h</w>
u ber
type face</w>
tun nels</w>
tu toring</w>
tu tor</w>
trou bling</w>
treas ure</w>
transforma tional</w>
transcend ence</w>
tox ic
tooth brush</w>
to- one</w>
to fu</w>
to e</w>
to b
thre ads</w>
thin ess</w>
ther mo
ther ing</w>
ter min
teen th</w>
teap ot</w>
tea se</w>
targe ting</w>
tac tics</w>
syste mic</w>
sy non
synon y
swe ating</w>
super star</w>
super hero</w>
super conductor</w>
sug ars</w>
suff ers</w>
succe eding</w>
sub set</w>
su ey</w>
stun ned</w>
stu ffed</w>
stri ve</w>
stri pes</w>
streng th
stra igh
str al</w>
st ering</w>
spo res</w>
specim ens</w>
sou thwest</w>
sole ly</w>
so cks</w>
snap shot</w>
sna il</w>
smart phones</w>
ski ing</w>
sk ins</w>
si um</w>
si mulations</w>
si fy</w>
short cut</w>
sh iny</w>
sett ling</w>
seri ousness</w>
seme ster</w>
sec rec
secrec y</w>
se us</w>
sci ssors</w>
sc or
satur ated</w>
sandwich es</w>
sa ma</w>
s tically</w>
s laugh
s ari</w>
ru de</w>
rou ghts</w>
rot ates</w>
ro yal</w>
ris dic
ri sk
revolution ize</w>
respec tive</w>
requ iring</w>
requ est
repli cator</w>
real- world</w>
re stored</w>
re servo
re medi
re bel
rain y</w>
rail way</w>
ra tionally</w>
question na
qu alit
pup pet</w>
prou dly</w>
proto col
protocol s</w>
prolifer ation</w>
pro hibi
presi dents</w>
predic tability</w>
preci p
post cards</w>
pon ds</w>
policy makers</w>
plum me
pleas ures</w>
plan ners</w>
pit ches</w>
pione ers</w>
phot ons</w>
pho bic</w>
pha ses</w>
persist ence</w>
perpe tual</w>
per y</w>
pean uts</w>
patho logy</w>
particip ated</w>
pal p
p seu
outw ard</w>
outra ge</w>
ous es</w>
ori a</w>
orchestr as</w>
op tics</w>
op -
oni on</w>
off- the-
of tentimes</w>
occa sional</w>
oc alyp
obsc ure</w>
obli vious</w>
o is</w>
no thingness</w>
navi gation</w>
n ies</w>
multip li
mu tant</w>
mort gage</w>
monit ors</w>
mon ks</w>
moist ure</w>
mo s</w>
mo on
min ary</w>
mic ally</w>
mi sses</w>
metro politan</w>
metaph orical</w>
mer chan
memor ize</w>
me tics</w>
me des</w>
me ad
mead ow</w>
manu el</w>
maneu ver
man ure</w>
main tained</w>
ma gg
ma dness</w>
m ortal</w>
ly ri
logi stics</w>
lli ant</w>
liz es</w>
liti gation</w>
liber ated</w>
li p</w>
li fts</w>
li d</w>
lex icon</w>
leag ue</w>
le se</w>
knowle d
kni ves</w>
kn it</w>
kidn apped</w>
ket t</w>
k u</w>
k ening</w>
jud ged</w>
ju risdic
jour neys</w>
j it
is ons</w>
inter sections</w>
insul t</w>
inqu iry</w>
ingeni ous</w>
influ en
indi cated</w>
inci dence</w>
in sec
in habit</w>
in famous</w>
in ability</w>
impre ss</w>
impos ing</w>
imp air
imm unity</w>
im perfect</w>
ide ally</w>
ic ked</w>
i shes</w>
hyper tension</w>
hygi ene</w>
hur ry</w>
hren he
hrenhe it</w>
hom o
histori ans</w>
hi es</w>
haz ard</w>
har as
hand s-on</w>
h ull</w>
h ill
h es
gy m
gui ding</w>
guerri lla</w>
gu ts</w>
gu m</w>
gra zing</w>
gra tification</w>
gra sses</w>
go lese</w>
gam ma</w>
gad gets</w>
g or</w>
g gy</w>
g d
g ades</w>
fundament alism</w>
ful fill
fulfill ment</w>
fri dge</w>
fra g
form ers</w>
forgi veness</w>
fore most</w>
for wards</w>
for war
for getting</w>
fool ed</w>
floo ded</w>
fli pping</w>
fla shing</w>
fl y
fl atten
finger print</w>
fier ce</w>
fi able</w>
femin ine</w>
fashi on
facil itate</w>
face-to- face</w>
fa cade</w>
extin ctions</w>
explo rer</w>
exam ining</w>
ex emp
ex ac
evan ge
et ine</w>
et -
es el
epilep sy</w>
enti als</w>
ent ur
ener gies</w>
en code</w>
elu sive</w>
electro de</w>
elec toral</w>
e vers</w>
e mitted</w>
dri fting</w>
dre sses</w>
down stream</w>
divi d
disp ute</w>
disc oun
dis proportion
dis miss</w>
dis comfort</w>
differenti ated</w>
desi red</w>
demonstr ating</w>
demon strations</w>
dem entia</w>
degra ding</w>
d well</w>
d roughts</w>
critici ze</w>
crea tively</w>
cra fted</w>
cool ed</w>
conven tions</w>
compos ite</w>
compli cations</w>
commit ments</w>
com et</w>
collap sing</w>
cogni tively</w>
cockro aches</w>
co con
co chlear</w>
co ated</w>
cli mat
class mates</w>
ci ssi
ci ent</w>
cheap ly</w>
champ agne</w>
ch u</w>
ch ant</w>
ce ly</w>
caus al</w>
catalo g</w>
cat ches</w>
carpen ter</w>
campaig ning</w>
cafeter ia</w>
bureauc ratic</w>
bur sts</w>
bu tter</w>
bri cks</w>
br ink</w>
br anding</w>
bli cal</w>
blan ket</w>
bio tic</w>
bel ls</w>
be ast</w>
be ams</w>
ban k
bad ge</w>
bab y
ba thro
ba ker</w>
b less</w>
b ate</w>
awar ded</w>
autom ation</w>
att or
atmospher ic</w>
ath ic</w>
at i</w>
astron aut</w>
aspi re</w>
artif icially</w>
ari ous</w>
argu ably</w>
archi ves</w>
ar th
ar sen
ar k</w>
anz i</w>
anti angiogenic</w>
ang led</w>
and an</w>
an ced</w>
amy gd
aliz ations</w>
alig n</w>
albe it</w>
ag ina</w>
aff lu
aerody namic</w>
addic t</w>
adap table</w>
accumul ating</w>
accumul ated</w>
accompli shment</w>
acc o</w>
acade mia</w>
ac ous
a wards</w>
a tion-
a ties</w>
a ka</w>
Ye men
Y ears</w>
Won der
W I
V C</w>
US DA</w>
U ru
Tw o-
T radi
T N
T M</w>
T D</w>
Sy mp
So bule</w>
Sho ots</w>
Sat an</w>
S ão</w>
S ue</w>
S tra
S ound</w>
S cientific</w>
S ag
Rou ge</w>
Ro ots</w>
Ric a</w>
Ri ft</w>
Rea dy</w>
Ra in
R and</w>
R -
Picas so</w>
Photos hop</w>
P lay</w>
P lat
P ear
O ut
O sama</w>
O ld</w>
No ah</w>
Na vy</w>
N ot
N ol
N ation</w>
N M</w>
Mu bar
Mor oc
Mon golia</w>
Mill er</w>
Mer maid</w>
Mell on</w>
Mar yland</w>
Mand arin</w>
M ou
M ola</w>
M en
M aps</w>
Li ke
Labor atory</w>
L ap
Kar l</w>
Ju lie</w>
Joh ns</w>
Jo han
Ja mie</w>
In dependent</w>
Hur ricane</w>
Human ity</w>
He al
H us
H as
H app
Gu ess</w>
Gener ation</w>
Gen ome</w>
Gall ery</w>
Ga me</w>
Fore ign</w>
Fa ther</w>
Fa hrenheit</w>
Environ mental</w>
Earth- like</w>
E B</w>
Di plom
Di am
Dar k</w>
Con ven
Con golese</w>
Com mission</w>
Co ch
Christop her</w>
Chi ef</w>
Car ol</w>
C .
Bri lliant</w>
Bo ard</w>
Bil ly</w>
Ben ki</w>
Bar bara</w>
B lo
B eck</w>
B and-
B S</w>
Archi medes</w>
Archi e</w>
Am anda</w>
Al i</w>
A ward</w>
A R</w>
A BC</w>
7 3</w>
6 6</w>
6 3</w>
6 00,000</w>
25 th</w>
198 7</w>
198 2</w>
195 7</w>
15 -year-old</w>
15 -
yo gur
yo ga</w>
yl um</w>
y elling</w>
x t
worth less</w>
wor thiness</w>
wh ite
wh ilst</w>
web cam</w>
warm th</w>
vivi dly</w>
viol ated</w>
viol ate</w>
vi bration</w>
veterin arians</w>
v on</w>
uti lize</w>
uti ful</w>
us er-
up strea
up dated</w>
unexp lored</w>
unbeliev ably</w>
un ning</w>
umb rel
um or</w>
tw ists</w>
tu cky</w>
trust worthy</w>
tru de</w>
tri p
tre aties</w>
transmit ter</w>
trans fers</w>
trade- offs</w>
trade- off</w>
tra gically</w>
ton ian</w>
ti um</w>
ti sts</w>
ti res</w>
ti gers</w>
three- quarters</w>
thous and
thin ker</w>
the st</w>
tempor arily</w>
temper ate</w>
tecton ic</w>
tea med</w>
te es</w>
te e
t- to-
t ching</w>
synchron y</w>
sy ner
swal low</w>
suspec ts</w>
susp ici
sur ance</w>
super markets</w>
sun shine</w>
suffici ently</w>
sub stances</w>
stu di
streng then</w>
stimul ating</w>
stake holders</w>
st onia</w>
st an</w>
st an
st acks</w>
spiritu ality</w>
spi kes</w>
spec ulation</w>
spar ked</w>
sp otted</w>
sp orting</w>
sp elled</w>
sovere ign
so y</w>
sne ak</w>
sna ils</w>
smo oth
sm en</w>
sli ced</w>
shuff le</w>
sho ots</w>
sho cks</w>
sh re
sett lements</w>
sequ el</w>
senti ent</w>
sedi ment</w>
se tup</w>
scrat ching</w>
schedul ed</w>
scaff olding</w>
sanc tuary</w>
s warms</w>
s wana</w>
s man</w>
s lan
ru th
ru pees</w>
room mate</w>
ro cking</w>
risk -
ridi cule</w>
revel ations</w>
reson ate</w>
repeti tive</w>
reliev ed</w>
rel ent
reconci liation</w>
recogn iz
reco vering</w>
re tar
re served</w>
re posit
re lies</w>
re generative</w>
re discover</w>
re constructed</w>
re ception</w>
re ar</w>
re active</w>
ran ges</w>
r ounded</w>
que ue</w>
quar ks</w>
quanti fy</w>
puzz led</w>
purcha sing</w>
purcha ses</w>
pur se</w>
puni shed</w>
pu ppy</w>
psychiat ry</w>
prosper ous</w>
propor tional</w>
proph et</w>
promin ent</w>
prom oted</w>
projec tor</w>
programma ble</w>
problem- solving</w>
pri va
prescrip tions</w>
pres ent-
pre ference</w>
pre di
prag matic</w>
prac tition
pp ies</w>
police men</w>
plu ri
plan ner</w>
pione ered</w>
phthal ates</w>
photograp hic</w>
pharmaceu ticals</w>
ph ony</w>
persua sive</w>
person alization</w>
per fu
pen sion</w>
pedi atri
pean ut</w>
pas sively</w>
paradig ms</w>
par o
p its</w>
overwhel mingly</w>
over ing</w>
over fishing</w>
ou x</w>
ot al</w>
oshi ma</w>
os copic</w>
opa que</w>
on esel
onesel f</w>
off-the- shelf</w>
occup ying</w>
o on</w>
nutri ent</w>
nu t
nu anced</w>
nit ric</w>
nine- year-old</w>
nic us</w>
nes ota</w>
ner dy</w>
negl ect</w>
ne at
nat ures</w>
nar cissi
nam ics</w>
my stical</w>
murder er</w>
multip lied</w>
mu til
mu st
mu ff
mp er</w>
motiv ations</w>
motiv ating</w>
month- old</w>
mon d</w>
moment ous</w>
mo ons</w>
mis understood</w>
milli meters</w>
mid ity</w>
mic ro</w>
mer it
mel an
medi ated</w>
me er</w>
me e</w>
mas ks</w>
mar a</w>
malign ant</w>
mal le
magg ots</w>
mac ro</w>
ma x</w>
ma ize</w>
ma il
m uc
m our
loa f</w>
lin ea
ligh ted</w>
life like</w>
licen sed</w>
liber ate</w>
li thic</w>
leis ure</w>
lean or</w>
lay ered</w>
law ns</w>
lat ter</w>
la mb</w>
l ord</w>
l ates</w>
kic ks</w>
ke f
kef eller</w>
ke eper</w>
k ansas</w>
journ als</w>
jo king</w>
jo ins</w>
j elly</w>
it a</w>
ir vana</w>
intui tions</w>
inter acts</w>
integr al</w>
instruc tor</w>
inj ected</w>
infl ate</w>
inf lic
indirec tly</w>
in qui
in organic</w>
in ner
in hal
in appropriate</w>
imp licit</w>
immigr ant</w>
immer sed</w>
imagin ations</w>
hyperbo lic</w>
humming bird</w>
hu mp
hu midity</w>
hi o</w>
hi ke</w>
head phones</w>
he sive</w>
he dr
harve sted</w>
harm less</w>
han gs</w>
h ir</w>
h ence</w>
gui des</w>
gu ay</w>
great- great-
gradu ation</w>
grab bing</w>
gra di
giraff e</w>
geni uses</w>
gener ators</w>
ga me-
g au
fuc king</w>
fresh water</w>
fo cal</w>
flu ids</w>
fla w</w>
fin s</w>
fi dd
ff el</w>
feat ured</w>
fe cal</w>
facil it
fa ti
extre mists</w>
extre mism</w>
extr ater
extr apol
explo ding</w>
exhibi tions</w>
exc ites</w>
ev a</w>
esti mation</w>
esti al</w>
establi shing</w>
er ic</w>
epi c</w>
ep it
enti ce</w>
enri ched</w>
en sla
en de
elev ation</w>
el ty</w>
econ struc
echo es</w>
ec tors</w>
ec lip
earthqua kes</w>
e uro
e dible</w>
dy e</w>
du pli
du m</w>
dread ful</w>
dow ns</w>
dom esti
dom a
doma ins</w>
divi sions</w>
dis crete</w>
dis close</w>
diplom at</w>
diff use</w>
di re</w>
di m</w>
des ks</w>
den i
demo li
dee med</w>
dedi cate</w>
decreas ed</w>
decor ation</w>
dec ode</w>
deb ates</w>
de x
de scent</w>
de privation</w>
dan ced</w>
d well
d u</w>
custom ization</w>
cru x</w>
crow d-
crocodi le</w>
cra w
cra mmed</w>
cour t
counter parts</w>
counsel ing</w>
conver ge</w>
control lers</w>
consider ably</w>
conser va
conqu er</w>
con sequ
comple xi
compla ints</w>
compet ence</w>
compar isons</w>
comm ute</w>
com bus
cock pit</w>
co w
co t</w>
co co
clos e-up</w>
classi fication</w>
cheap est</w>
cha ble</w>
cen e</w>
cel estial</w>
ce phal
carb ons</w>
car ca
ca sually</w>
ca f
ca des</w>
ca bin</w>
c od</w>
butter flies</w>
buil ders</w>
bu yer</w>
bri ghtest</w>
boun cing</w>
bot an
bom bers</w>
blu e-
bl ended</w>
biome dical</w>
biom imicry</w>
bin ds</w>
ber ing</w>
be tting</w>
be ep</w>
bathro oms</w>
bas es</w>
bal d</w>
bal ances</w>
bak ery</w>
back -
b ola</w>
awk ins</w>
author ized</w>
attribu ted</w>
astro lab
assemb ling</w>
as ylum</w>
arri val</w>
aqu aculture</w>
appeti te</w>
app alling</w>
ap ocalyp
antid ote</w>
anticip ation</w>
ans en</w>
angu lar</w>
analy st</w>
an- American</w>
an tic</w>
ampli fy</w>
ambi ent</w>
altru istic</w>
alli ance</w>
ali e</w>
algorith mic</w>
aggre ssion</w>
advoca cy</w>
addre sses</w>
abu l</w>
a ic</w>
Z e</w>
Z ambia</w>
Y o
W y
W ed
Vien na</w>
Ver meer</w>
V on</w>
Uru guay</w>
Uni verse</w>
Ukra ine</w>
Tre ating</w>
Thur sday</w>
Th us</w>
Th ankfully</w>
T. B.</w>
T umor</w>
T on
Super man</w>
Sud hir</w>
Stu dio</w>
St and
Sol ly</w>
Sha ke</w>
Schwar z
Sad dam</w>
S po
S hu
S ear
Ron ald</w>
Roc kefeller</w>
Ro y</w>
Ro ad</w>
River side</w>
R um
R ow</w>
R ap
Pro duc
Poe try</w>
Pla y
Pen n</w>
Palest inians</w>
PE C</w>
P lan</w>
P ink</w>
P age</w>
O w
O S</w>
O PEC</w>
O M
Now adays</w>
Nol lywood</w>
Nichol as</w>
New tonian</w>
NA TO</w>
N ight</w>
N ico</w>
N O
Mubar ak</w>
Mos cow</w>
Mon ey</w>
Mol as</w>
Mo del</w>
Min nesota</w>
Mil lions</w>
Mic ro
Matthe w</w>
Ma o</w>
M t</w>
Lu ke</w>
Lin d
Like wise</w>
Lang ley</w>
L ey
Ken tucky</w>
Ka z
K ri
K abul</w>
Jim my</w>
Jac ques</w>
J i
In v
I g</w>
Hung arian</w>
Hou ston</w>
Hom er</w>
Hir oshima</w>
He For
HeFor She</w>
Har ri
Hamp shire</w>
HIV- positive</w>
H il
H ad</w>
Gan do</w>
G ot
G od
G B</w>
Free Speech</w>
Fif th</w>
F orest</w>
F ly</w>
F ish</w>
F ine</w>
F ear</w>
F I
F .</w>
Ex pl
Ele ph
Eigh ty</w>
E volution</w>
E ur
E leanor</w>
E is
E at</w>
Do ha</w>
Di se
D od
D er
D D
Corpor ation</w>
Coper nicus</w>
Con servation</w>
Com pare</w>
Com mon</w>
Coch rane</w>
Ch eck</w>
C had</w>
C el
C P
Bulg aria</w>
Bot swana</w>
Bon obo</w>
Bo ys</w>
Bir ds</w>
Bi osphere</w>
Bi o
Beat les</w>
Bea utiful</w>
Bea u
Be yond</w>
Bar bie</w>
B an
Aur ora</w>
Ar kansas</w>
Antar ctic</w>
Air port</w>
Ai mee</w>
Aga inst</w>
AD HD</w>
A vi
A mb
A I</w>
8 1</w>
7 th</w>
7 9</w>
4 1</w>
24 -hour</w>
20 14</w>
2 8
2 6
199 2</w>
198 8</w>
197 8</w>
196 7</w>
196 5</w>
14 th</w>
12 -
10- year-old</w>
1. 4</w>
1 70</w>
é sum
year ning</w>
y ne</w>
xt apos
x- ray</w>
wrest le</w>
with stand</w>
wh ir
well ness</w>
wea ve</w>
we bs</w>
warri ors</w>
w ob
vibra tions</w>
ver sely</w>
ve iled</w>
val ves</w>
vag inas</w>
vac ant</w>
uti lit
ur ance</w>
uni form
under sea</w>
un to</w>
un cover</w>
un cles</w>
ul ously</w>
uke mia</w>
u no
two- year-old</w>
tw ined</w>
trou ble
tre ach</w>
transmit ters</w>
trans actions</w>
trans action</w>
trage dies</w>
traffic king</w>
tr unks</w>
tr uc
tr ans</w>
tou rists</w>
tool box</w>
tob acco</w>
to ken</w>
ti tan
ti que</w>
ti fied</w>
thylac ines</w>
thop e
theore tically</w>
th ra
th en
th am</w>
temp ting</w>
tal lest</w>
tac tile</w>
ta sted</w>
t z
synony mous</w>
synchron ize</w>
sym bi
sustain ably</w>
sur ro
sur render</w>
superno vae</w>
suici dal</w>
subur bia</w>
sub conscious</w>
su ite</w>
su bli
stre sses</w>
stra w
sto ol</w>
ste ep</w>
stat ues</w>
star k</w>
st all</w>
st acked</w>
st a</w>
squ ir
spra ying</w>
spra wl</w>
spo of
speci alty</w>
sp y</w>
sophisti cation</w>
solu ble</w>
sli pped</w>
sli ghtest</w>
sky rocke
ski er</w>
simul ating</w>
si veness</w>
si er</w>
sel ecting</w>
see ks</w>
secre tary</w>
se men</w>
scri bed</w>
scre en
sco red</w>
scar es</w>
scand al</w>
sal es
sal am
sacri fic
sab ba
sa ver</w>
sa r</w>
s word</w>
s wine</w>
s tive</w>
s ini
sini ster</w>
s burg</w>
rul ing</w>
rul er</w>
ru ined</w>
ru b</w>
ro tation</w>
ro pes</w>
ro p
ro le-
rit is</w>
ri pe</w>
ri bs</w>
ri bbon</w>
ri an</w>
ren al
rein forced</w>
rein force</w>
rehear sal</w>
regul atory</w>
ra mp
ra i
r ésum
question able</w>
quali fy</w>
qu ot</w>
qu et
pyrami ds</w>
pun ched</w>
psychop a
psycho logically</w>
psychiatri sts</w>
psych e</w>
prote sters</w>
prom p
pro hi
pro geria</w>
prin cess</w>
pri ests</w>
premi um</w>
predic tive</w>
pre li
preli minary</w>
pr inters</w>
power less</w>
posi tively</w>
pos ting</w>
por k</w>
pom or
pollu ted</w>
polar ization</w>
pois on
pit ched</w>
pis sed</w>
pin nacle</w>
pian ist</w>
pi gmented</w>
pi gmentation</w>
pi er
persua sion</w>
persu aded</w>
persever ance</w>
pen ny</w>
pavi lion</w>
parag raph</w>
par ap
pal ace</w>
pac kets</w>
p ore</w>
p ec
p at</w>
out let</w>
out doors</w>
out dated</w>
osc ale</w>
origin ated</w>
or thodo
or ch
oppon ents</w>
opo li
on dri
omin ous</w>
olo gues</w>
off ense</w>
o dd
nu g
non- profit</w>
no ted</w>
no by
nic ity</w>
neuro logic</w>
net worked</w>
nes day</w>
negl ected</w>
neat ly</w>
nanotu bes</w>
nan oscale</w>
n ish</w>
n ating</w>
multi tasking</w>
moder n-
mo vable</w>
mm as</w>
mista ken</w>
mini ature</w>
mind fulness</w>
mimic king</w>
mil ls</w>
migr ant</w>
micro phones</w>
mer ly</w>
memor ized</w>
master piece</w>
mas sage</w>
margin alized</w>
mar sh
mar ched</w>
manuscri pts</w>
mana geable</w>
ma ths</w>
lymp h</w>
low- tech</w>
lon ging</w>
log arith
lo wered</w>
lo vers</w>
lit t
lit er</w>
listen er</w>
la titude</w>
la mp
kne sses</w>
k ite</w>
k en
ju ggl
j ets</w>
it ous</w>
is tically</w>
ir regular</w>
ir man</w>
invol un
investi gative</w>
intrac table</w>
inti mid
inter mediate</w>
inter dependence</w>
inten tionally</w>
insur gency</w>
insul a</w>
institu tion
inspi rational</w>
inj ecting</w>
inferi or</w>
inf ants</w>
indi cating</w>
incarcer ation</w>
in significant</w>
in different</w>
imple mentation</w>
immer sion</w>
imit ri</w>
im migration</w>
ide alism</w>
ici de</w>
ic ks</w>
i res</w>
hydro carbons</w>
hy ena</w>
hur dles</w>
hum p</w>
hot test</w>
hos tage</w>
hor n</w>
hoo ks</w>
hip pie</w>
her e
hedr on</w>
ha w
ha mb
great ness</w>
grass land</w>
grap es</w>
gor illa</w>
gi ga
gi ants</w>
gh arial</w>
gen omic</w>
gen ess</w>
gate way</w>
gar dening</w>
gam ers</w>
ga de</w>
g les</w>
g ents</w>
fri ed</w>
four -year-old</w>
forbi dden</w>
for merly</w>
for mats</w>
foot -
fo li
fluoresc ence</w>
flu ent</w>
fl our</w>
five -year-old</w>
fisher man</w>
finan ced</w>
fil tered</w>
ff y</w>
festiv als</w>
fel d</w>
fear less</w>
favor able</w>
fai ths</w>
fabri cated</w>
fa x</w>
f use</w>
f ty</w>
f ry</w>
f lic
f le</w>
f anci
f MRI</w>
expend it
exp orts</w>
exp enses</w>
evapor ate</w>
es a</w>
environment alists</w>
enti ous</w>
ent ries</w>
end urance</w>
end or
emplo yers</w>
empi res</w>
embo di
em it</w>
el ect</w>
edi tion</w>
ec ologist</w>
e mitting</w>
dynam ically</w>
dro id</w>
doub ts</w>
divid end</w>
distingu ished</w>
dissi p
disc ar
disa strous</w>
dis solve</w>
dis man
diplom ats</w>
digi tized</w>
dictator ship</w>
dict ators</w>
di sti
desc endants</w>
desc end</w>
der ive</w>
depri ved</w>
denomin ator</w>
def ici
de tri
de par
de fy</w>
de ath
dd ers</w>
dat a-
dar ity</w>
daf -2</w>
da unting</w>
d ot
cy cling</w>
custom ized</w>
curi ously</w>
cur se</w>
cur l</w>
cul us</w>
cubic le</w>
cu shi
cu res</w>
cu ad
cru shing</w>
cred ited</w>
cre ations</w>
cra ving</w>
cr ates</w>
cr appy</w>
cos ting</w>
cor ros
contemp late</w>
consi ders</w>
conflic ting</w>
conduc tive</w>
condi tional</w>
comprom ised</w>
compli ance</w>
competi tions</w>
comp elled</w>
communi cates</w>
communi ca
commun ism</w>
comfor tably</w>
combus tion</w>
com press</w>
colli sions</w>
collec tor</w>
colle ges</w>
coll ects</w>
col der</w>
co res</w>
co bra</w>
clos es</w>
clean ers</w>
ci st</w>
chic ks</w>
chi efs</w>
char ming</w>
chan n
champi ons</w>
ch i</w>
centi grade</w>
cent ri
carri ers</w>
carri er</w>
carb s</w>
can cel
calcul ators</w>
ca sual</w>
ca sts</w>
ca ste</w>
c it
buri al</w>
bur g
bun tu</w>
bri ghtness</w>
bre e
br ac
bom ber</w>
blur ry</w>
blo gger</w>
blo g
blin dly</w>
blin ded</w>
bla med</w>
bir d
bi sh</w>
bi o</w>
beha ves</w>
bas s</w>
bar k</w>
ba thing</w>
ba the</w>
ba o</w>
b uck
b bed</w>
ax e</w>
aw i</w>
au to</w>
attrac ting</w>
at cher</w>
astronom er</w>
associ ations</w>
asp ir
as sic</w>
arth ritis</w>
arrog ant</w>
arri ves</w>
arous al</w>
aph ra
ap pointment</w>
ap or</w>
analo gies</w>
amygd ala</w>
am an
alle vi
all- time</w>
ali en
al o</w>
ahu mara</w>
aff ec
advo cating</w>
adverti se</w>
advan cement</w>
adv ent</w>
administr ators</w>
administ rative</w>
ad renal
ad mission</w>
activ ation</w>
ach el
ac cor
a x</w>
a o</w>
a mo
Z K</w>
Wei bo</w>
Wed nesday</w>
Wal ker</w>
W o
W ind</w>
W est
W ere</w>
Vol un
Vi sual</w>
V agina</w>
Uni ver
Un less</w>
US C</w>
UN I
U N</w>
Tasman ia</w>
Tar ahumara</w>
T err
T ech
Sy n
Sub -
Su stain
Su sie</w>
Su rely</w>
Spea king</w>
Sp ace
Si oux</w>
Sel f-
SO PA</w>
S w
S tal
S mi
S ending</w>
S c
S ally</w>
S K</w>
S D</w>
Reser ve</w>
Re ed</w>
R yan</w>
R ush</w>
R ot
R ho
Psy cho
Pla to</w>
Pear l</w>
Patri ck</w>
PI SA</w>
PI PA</w>
P arti
Ot tom
O ops</w>
Nor thwest</w>
Nin ety-
Net fli
NI H</w>
N As</w>
Mou az</w>
Mos tly</w>
Mo bile</w>
Mc C
Mas low</w>
Mal ay
Ma yor</w>
Ma ha
M o</w>
M itch
M et
Le o</w>
Lap top</w>
L evi
L e</w>
K now</w>
K id</w>
K hal
K anzi</w>
Juli us</w>
Ju dy</w>
Ju an</w>
Jo ey</w>
J ere
J arrett</w>
I C
Har bor</w>
Han nah</w>
H 5
H5 N1</w>
Gu il
Gre y</w>
Good bye</w>
Ger trude</w>
Gen eva</w>
Ge h
Gal ax
G rowing</w>
[...]
